#version: 0.2
l e
a r
a m
. .
.. /
../ ../
s e
c a
i n
< /
r o
s t
o n
) )
e t
p ar
par am
Ġ -
c t
l u
1 1
n d
c h
r e
ro m
f rom
w p
v a
Ġ a
h p
l l
h o
p hp
e n
lu e
va lue
m et
ho d
met hod
i on
m a
1 0
le ct
se lect
o r
am e
n ame
a d
en t
../../ ../../
i d
Ġ (
m in
i t
Ġa nd
ad min
t a
l o
l i
t e
ta b
7 7
tab le
p o
Ġ from
) ,
Ġ 11
e ma
> <
po st
> </
g s
e v
ca ll
param s
i f
t ion
method name
method call
Ġ 10
m y
/ ?
u ll
nd ar
= /
n ull
ch ar
c on
s ch
sch ema
ro u
ent s
re st
le ndar
ca lendar
ev ents
rou te
f i
t t
2 0
ct ion
se r
4 6
7 0
f or
u ser
| |
Ġ w
c o
fi le
d e
1 6
h e
a ction
) ||
a p
- -
Ġa s
or d
r p
1 7
ch r
e d
user s
Ġ '
)) )
( (
e r
ed it
m l
ca tion
e p
5 7
p li
pli cation
lo gs
77 70
= '
Ġ table
s le
sle ep
g et
1 2
Ġ n
x ml
j b
../../../../ ../../../../
' ='
ap plication
s jb
Ġ <
ca st
Ġw he
Ġwhe re
con t
cont ent
rp c
xml rpc
b logs
users blogs
get usersblogs
1 9
u p
- (
Ġ in
)) )))
in gs
if null
Ġn char
m id
Ġ li
se tt
sett ings
m it
Ġ 4
Ġ ifnull
= ../../../../../../../../
ma tion
for mation
Ġin formation
=../../../../../../../../ ../
i l
6 46
Ġ 9
Ġli mit
Ġ 3
g in
c e
19 2
/ /
p a
7770 646
7770646 2
re f
)) >
] =
17 1
Ġ e
u r
16 8
Ġ10 1
lo ad
h tt
htt p
0 0
11 3
d o
h en
7 3
s s
c m
p lu
plu gin
j a
m n
lu mn
co lumn
Ġ11 1
plugin s
5 2
table s
1 3
cm d
et c
c k
w w
t o
ur l
: //
de s
3 6
u n
u e
p t
r a
Ġ 6
b a
ue st
g e
r i
4 5
Ġ t
a ja
aja x
c u
d i
in c
inc lu
inclu des
s c
Ġ 5
¿ ½
ï ¿½
4 9
sc ri
12 9
scri pt
up load
Ġ9 9
10 1
Ġ 2
6 6
con f
57 2
lo ca
loca l
) +
ba ck
back up
ï¿½ ï¿½
9 6
a y
Ġ11 4
7 57
s it
Ġ /
8 0
t s
Ġ3 2
l se
s r
f o
11 1
11 2
a g
36 572
757 36572
Ġ 0
te st
Ġe nd
Ġ or
Ġe lse
ca t
v e
9 9
d a
ca se
Ġw hen
Ġt hen
a b
> &
t h
v ar
5 3
do w
Ġ11 0
Ġ11 5
i e
p re
Ġ 1
ema il
4 7
2 2
q uest
re quest
li b
for m
-- --
p e
4 0
from name
from email
for ce
9 8
ww w
Ġ 8
p le
s p
4 8
13 1
Ġ10 0
11 6
t p
ch e
pa th
7 8
5 6
m ent
j s
ma n
ord pre
ordpre ss
et a
il s
" :
" }
= {
d eta
ref url
ref deta
request s
={ "
refdeta ils
do cu
column s
Ġ11 6
da ta
= "
5 5
8 6
10 7
docu ment
t y
7770 5
75736572 73
r t
ca n
lo g
a che
ap ache
can to
ag er
man ager
t m
7 1
n load
dow nload
s path
ab spath
e x
": "
c li
cli ent
s q
v id
s h
/ &
w ordpress
7 2
b u
b o
5 4
3 2
3 7
10 6
7 16
7 5
le rt
s i
pa ge
s o
5 1
l a
co de
fo cu
w e
k e
v er
g uest
":" "}
ty pe
d b
1 20
11 0
y e
a lert
focu s
o k
1 5
10 0
Ġ 46
he ll
8 2
s m
s y
1 8
Ġ4 0
11 8
10 4
ho st
sq l
u a
) ;
Ġ on
Ġ4 1
l s
bu g
de bug
q z
Ġ b
ple s
ex am
co ok
cook ie
exam ples
Ġ3 9
w d
in g
a e
sm tp
upload s
we b
y ay
sr c
yay smtp
Ġ Ġ
z a
9 7
6 3
5 0
w m
= <
n on
non ce
fi g
con fig
v ts
co m
in de
inde x
ma il
7 6
s a
k it
ye w
2 4
e l
m qz
m za
u ndar
ev mqz
un h
ay mza
form bo
web kit
yew evmqz
undar yewevmqz
formbo undaryewevmqz
webkit formboundaryewevmqz
webkitformboundaryewevmqz unh
Ġ src
12 2
ra n
s hell
a u
u sr
c d
my sql
2 6
re ct
di rect
Ġ9 8
00 00
b in
Ġa ction
Ġ d
i le
a f
p ro
" &
9 0
ro vid
ma ile
rp rovid
]= "
local host
force fromname
force fromemail
sa ve
maile rprovid
mailerprovid er
, (
v i
6 16
d ev
ï¿½ï¿½ ï¿½ï¿½
= -
Ġ10 2
Ġ10 4
Ġ10 8
Ġ10 5
l g
12 3
s po
Ġ name
Ġ form
di spo
sit ion
---- --
dispo sition
f b
Ġ char
4 3
5 8
s u
sit e
a n
o w
10 5
Ġ select
pa ss
Ġb y
70 6
Ġ id
Ġ4 7
ua l
Ġd ual
st r
ra nd
de r
n o
Ġ 7
va l
un t
3 0
3 9
13 37
Ġ column
d lg
i st
con cat
4 1
tm p
) --
lo gin
" ;
co unt
o t
Ġ un
Ġ4 5
x t
11 5
Ġ10 7
Ġun ion
10 9
Ġli ke
.. %
in fo
su b
6 96
a c
! =
)) !=
i ma
http d
4 4
8 5
6 5
10 2
ima ge
str ing
v c
a s
nd or
ve ndor
pa n
i m
00 0
p wd
se o
si b
2 5
Ġ wp
Ġ null
ro w
Ġwp db
m ple
Ġor der
si mple
)) ),
ja va
76 70
w ow
x x
3 3
78 71
7670 71
ar t
he art
d f
p u
el t
f tp
com pan
compan y
Ġ5 4
8 000
re so
script s
pro c
6 7
u i
Ġ "
Ġon focus
8 9
o s
17 2
ar s
Ġ9 7
ce s
reso ur
a z
75736572 5
( $
/ ../../../../../../../../
data tables
ran k
resour ces
// "&
re direct
di r
re s
|| (
ro r
i c
l f
1 4
f la
17 20
( *
+ /
er ror
q t
ĠĠ ĠĠ
Ġ count
se nd
Ġ11 7
Ġ6 1
Ġ11 2
p b
r f
dev i
to p
p id
p df
u id
to focus
cd m
f ull
se lf
b row
f vts
g tm
k top
l vts
p vid
w ma
ca ction
ct ra
re c
or id
id n
ref ts
des ktop
ge ars
sit orid
wm caction
wm ctra
vi sitorid
site id
devi ce
full ref
brow ser
gtm s
wmctra ck
up p
)|| (
e f
u h
e val
sub mit
Ġ log
test cookie
sy st
m o
m e
p i
it y
6 56
2 9
6 8
Ġ5 0
l in
te r
pass wd
) </
v g
v ie
ist ra
vie w
b f
j q
6 0
Ġ g
a ll
w in
di st
' ;
.. \
86 4
' )
edit or
dow s
win dows
e c
15 36
au tofocus
9 3
Ġ 52
0 8
20 24
c ss
Ġ |
e ch
l n
ech o
7 4
2 3
v b
h t
ro ot
( "
a t
8 1
from char
fromchar code
u m
Ġ5 8
' ]
[ '
u t
($ _
7 66
z q
Ġ5 5
d r
in i
Ġ6 3
z t
p k
)) --
im g
l d
la h
" ="
3 73
= (
2 1
ab le
6 52
x d
Ġ 12
direct or
4 48
file view
) >&
5 40
n a
n g
t or
Ġ x
11 7
5 52
Ġ6 2
5 9
se t
6 4
123 45
pb zq
se ts
)) =
as sets
Ġa ll
9 5
i s
12 6
c fb
)) ;
ch rom
73 89
fb b
1720 540
552 7389
chrom e
1720540 192
p upp
admin istra
pupp et
administra tor
\ "
u re
172 106
Ġ6 7
r db
2 8
Ġ 192
Ġ 1337
0 448
Ġ10 3
172106 0448
+ -
Ġ10 9
..\ ..\
g ran
e e
e re
va gran
vagran t
r m
or ac
orac le
11 11
/../../../../../../../../ ../../
an sib
ansib le
Ġ( ((
az ure
(* )
azure user
o p
s x
Ġ 13
ad m
s f
]=" <
5 0000
a a
6 2
y bf
ke y
n cat
ybf g
q p
7 46
Ġ "}
9 2
sy s
k r
fi el
fiel d
6 1
77 77
sf qp
b e
11 9
i a
Ġ3 8
j i
st re
ro n
b v
u s
Ġ 57
schema ta
bv pk
in ct
dist inct
er ic
Ġn um
ht ml
Ġnum eric
ce ss
4 2
so ck
+ "
7 9
3 4
e m
Ġ distinct
4 20
x v
); +
"; +
m i
rou p
st er
c vb
p no
52 75
ï¿½ï¿½ï¿½ï¿½ ï¿½ï¿½ï¿½ï¿½
pno o
f c
cvb n
syst em
> /
Ġ >/
/ %
8 3
p rom
prom pt
0 3
Ġ sleep
com m
" )
e s
g j
Ġ8 4
sy sib
sysib m
h a
te s
xt f
< ?
? >
st pe
75 706
Ġ *
w a
66 696
ĠĠĠĠ ĠĠĠĠ
= %
g z
)) +
6 9
l xtf
n s
l t
9 1
f z
w c
h g
rf p
y rfp
2 46
18 82
a te
ba se
32 1
q w
stre am
r l
Ġ @
11 4
un ity
ui wc
comm unity
v v
Ġ $
Ġ ls
ref ere
12345 6
m ar
Ġa p
[ ]
a ed
o ct
v s
Ġ file
af ef
no tes
gj uh
refere r
Ġap plication
[] ";
oct et
Ġfile name
c c
.. ï¿½ï¿½
& _
e uh
euh d
z d
Ġ case
54 29
> "&
)) //"&
53 5
47 4
s l
it h
10 8
Ġ6 0
Ġ concat
ma in
te g
w q
Ġ </
en er
i ia
Ġ4 8
Ġon error
iia j
le n
Ġ4 9
e len
652 25
x p
9 706
p g
z x
Ġ8 5
ca teg
ie s
ng hg
rl zd
categ or
' ))
s ion
) //"&
Ġw ordpress
ex t
" ))
8 4
do main
lin k
( '
* (
Ġ 2024
hp vv
6 53
f u
s n
er ty
75 81
r z
22 2
Ġ is
ad ow
) *
i sq
3 8
f lo
Ġ ;
2 7
h y
v z
syst able
Ġg roup
flo or
systable s
\ %
j h
o pt
p f
Ġ 16
director y
" ,
m s
Ġ6 19
l wq
ba sh
ac cess
lwq g
Ġ >&
re g
30 30
ftp d
" );
Ġ re
id ye
db ms
/../../../../../../../../ ../../../../
m p
in t
qw erty
f un
63 40
fun ction
c n
f f
u c
u nd
46 97
hell o
72 3
ar y
isq n
Ġ 73
on na
)) ))
w h
' )))
w ge
Ġ 17
wge b
p r
pa t
op en
..ï¿½ï¿½ ..ï¿½ï¿½
6 57
i h
t zt
Ġ r
ct x
))) --
Ġ5 9
66 55
tzt k
Ġ5 6
c r
Ġ cast
)+ (
(* ),
dr ith
ctx sys
drith sx
Ġ8 2
Ġ8 373
xd sl
sion s
vz zt
jh ld
cn f
b y
Ġ6 9
ter n
b it
pro file
Ġ base
: :
s ho
)) ||(
Ġ4 3
fu ck
con ver
Ġ4 4
ic ji
director ist
123456 78
conver t
i j
k f
en vi
bu il
envi ron
) >
i v
en sions
ext ensions
f a
q l
ra ct
rt code
sho rtcode
s vg
Ġ11 9
70 54
sh adow
uc xv
Ġ5 1
":" '
ract value
45 535
Ġ12 1
)); </
3 5
i q
page buil
pat tern
pagebuil der
) #
Ġin t
g er
o x
)) ::
id js
70 9
Ġon load
val idjs
8 7
x l
ih no
9 73
l ay
Ġ2 3
o m
50000 0000
ha sh
45 0
tm iv
ee es
u er
uer y
" )))
Ġ99 32
50000 00
wh mp
9 113
q nd
it ts
iq ve
3 1
6 17
7 56
d y
â Ģ
Ġ =
j m
k i
m t
qnd q
50 59
mo d
d d
v w
xx w
b i
s xxw
46 74
16 10
Ġ101 4
73 709
40 73709
55 1610
au xx
26 19
7777 77
Ġ84 4674
4073709 551610
Ġ844674 4073709551610
m kf
y o
| /
st at
if o
cm jq
49 4
mkf ifo
0 6
q f
20 6
j l
l c
se c
Ġ4 2
40 6
u ln
Ġe xt
45 8
ua na
mar ij
Ġext ractvalue
marij uana
f d
Ġ âĢ
18 4
uln s
Ġ3 3
Ġ2 16
Ġ( "
Ġ( ("
Ġ50 49
ki kr
= ..%
j e
Ġ( '
46 91
> ";+
fi ref
46 494
66 96
47 9706
1720 5429
vg mt
Ġ((( '
246 6696
lc jq
firef ox
479706 53
17205429 70
)) ,
str ings
" +
+ =
+ }
+ ($_
; +}
> >
k q
{ +
)) {+
di e
26 73
'] );+
'] )){+
is set
+" <?
?> "+
+= +($_
;+} ?>"+
>> +/
;+}?>"+ >>+/
m h
r u
Ġ my
ser ies
ur ity
upp er
Ġg ener
sec urity
Ġgener ate
v j
36 0
105 00
jl pb
Ġ216 7
+ \"
> \
j o
r r
Ġ rdb
de f
22 6
616 46
172 10500
>\ ";+
17210500 86
9 4
ar e
49 7
lin e
ĠâĢ ĵ
/ (
p la
z y
q a
ar d
bo ard
jq uery
g en
x ss
y u
js on
hy pf
n c
y s
Ġ dbms
ui op
(" /
qwerty uiop
Ġ3 0
Ġ32 33
au lt
af fz
def ault
pla ce
b m
d c
u u
ma ster
te xt
xx d
key gen
by rr
Ġ sysibm
it count
17 57
12 12
37 9
Ġb itcount
bin ary
Ġ63 84
aa aa
bit string
f t
Ġ json
af rm
f sock
p er
Ġ de
Ġ function
16 24
Ġ' $
Ġ< &
45 98
rf mh
ĠĠĠĠĠĠĠĠ ĠĠĠĠĠĠĠĠ
"); '
fsock open
4598 98
6 73
c w
j my
ad d
yo u
8 8
c l
p ing
it for
lo ve
Ġ99 45
Ġ2 766
30 3
Ġ((( "
wa itfor
Ġde lay
jmy d
7 118
i co
Ġ( ('
ba ll
ï¿½ï¿½ï¿½ï¿½ /
4 15
w sx
z cr
Ġ' /
categor y
bm vw
uu gz
zcr h
9 72
= &
c url
Ġ te
li g
Ġ4 00
49 44
47 8
ln et
Ġte lnet
h nd
w xd
Ġ system
Ġ ?>
Ġ- ----
lo cation
da te
=" "
=" _
Ġ7 497
'] );
yu ld
cw fc
hnd r
wxd m
Ġ----- -
' ||(
a nd
b lo
q az
te vj
Ġ6 4
zx cvbn
Ġ400 4
70 757
bo ex
bi ys
a l
a se
f s
x j
stat us
c ron
h ev
m r
Ġ 20
90 5
ï¿½ï¿½ï¿½ï¿½ \
Ġ50 17
hev y
z p
../../ ../
17 46
13 13
98 55
vb gz
/../../../../../../../../../../../../ ../../
' );
7 17
7 47970653
m u
le y
ser ver
Ġ3 7
22 66696
54 321
65 20
Ġ619 9
4697 22
dc pu
70757 420
m cat
n et
q k
to mcat
z o
re en
sc reen
55 55
Ġ2 905
72 48
heart be
heartbe at
u wa
Ġ code
in ed
Ġa lert
Ġ2 6
Ġ2 8
86 7
616 37
ef e
ef ined
ln im
Ġ13 03
und efined
kq dy
673 9
lig httpd
7248 55
uwa k
( \"
h as
t ho
Ġn ot
Ġin ter
Ġ3 4
32 723
93 32723
\" )</
..\..\ ..\..\
Ġinter val
16 90
up date
66 66
qa vs
s v
Ġ2 5
' ,
s k
10 3
Ġ2 867
vc zy
be ql
ï¿½ï¿½ï¿½ï¿½ï¿½ï¿½ï¿½ï¿½ ï¿½ï¿½ï¿½ï¿½ï¿½ï¿½ï¿½ï¿½
c p
i con
m d
so me
we some
Ġ17 65
xj rz
54 00
_ -
d p
k ar
20 16
ja kar
26 06
jakar ta
+ (
2 72
m on
p y
171 8
66 3
22 3
lib c
mi vg
Ġ60 58
m fz
Ġ 1718
40 8
mfz y
k u
v p
in ad
re ss
ut l
mod s
add ress
inad dr
8 184
a va
j n
u x
er s
52 72
96 15
sr y
72 68
ist ere
dr et
ji q
reg istere
ï¿½ï¿½ï¿½ï¿½/ ï¿½ï¿½ï¿½ï¿½/
registere d
e jiq
Ġ 80
Ġ la
Ġ row
Ġ ctxsys
Ġ47 20
)> (
" '
/ {
85 46
pr lg
fa lse
Ġ64 17
c re
j z
l sry
w or
Ġ st
re pe
16 53
36 86
Ġ6 420
ge xp
Ġ2 4
cd d
58 81
sub string
Ġ57 86
Ġre gexp
repe at
c g
f m
et ur
he x
ri ct
ua ge
50 4
50 7
an xl
Ġ50 77
ng uage
Ġre place
Ġr etur
ï¿½ï¿½ï¿½ï¿½\ ï¿½ï¿½ï¿½ï¿½\
', '
Ġla nguage
cre ate
Ġst rict
Ġretur ns
3 18
g v
h w
v f
360 7
b er
j j
l id
li st
17 373
Ġ1 450
616 96
706 17373
Ġ7 415
mo de
kr st
xv qf
9 458
a ge
on error
00 6
ss age
me ssage
istra tion
mar k
reg istration
o d
s ing
il able
Ġe lt
572 6
ava ilable
sing le
k h
p si
x q
z pe
in pu
Ġ5 408
53 43
22 9
zpe e
inpu t
) //
7 5726
` ><
d ce
f y
j y
u ss
li c
ri psi
75 86
63 55
]=" "'
java script
68 474
'; </
42 11
sk ripsi
wor k
)// ';</
uss x
]=""' `><
skripsi ku
2 45
8 90
w z
w ord
th on
Ġb en
pass word
Ġ619 3
zp vi
py thon
q j
s li
ch mark
20 646
66 6
var char
56 45
72 6
72 8
82 93
63 78
766 16
3030 3030
756 53
70757420 747970653
Ġben chmark
4 13
a wesome
e g
i ve
k l
Ġ ma
)|| '
ce b
- +-
> +-
g m
k vs
v ing
Ġ ha
Ġ6 656
Ġ2 60
80 28
55 80
72 19
kh fs
-+- +
>+- +-
Ġha ving
= ../../../../
b b
g g
g ener
i z
Ġ9 66
Ġ9 474
80 21
99 98
da sh
update xml
Ġma ke
4 379
n p
n pu
u dp
re ce
de cl
Ġ2 728
66 1746
Ġ1 5
97 9
pi pe
zx q
ff fm
4697 661746
657 9
qk vp
61637 4697661746
jz us
jj xt
qj zxq
Ġ966 9
npu z
rece ive
decl are
qkvp q
616374697661746 96
46 7
'))) ;
a tion
e kvs
i g
l mail
r re
t r
49 78
sq ui
Ġ50 18
bf xx
Ġ12 82
gener al
rre lmail
squi rrelmail
6 76
8 78
t d
u tofocus
Ġ tab
Ġ 75
Ġ pg
Ġ updatexml
Ġa utofocus
646 973
lib r
48 1
so ut
focu sout
Ġon focusout
Ġ7 229
60 37
rz jy
617 95
890 7
sli ce
Ġtab index
646973 706
p p
Ġ z
Ġ( (
post g
Ġ6 226
Ġ8 979
50 5
44 26
od jm
td pt
] -(
77 6
12 7
Ġ3 467
ae af
50 8
dash board
) /(
9 25
u jn
in e
17 26
host s
58 39
373 1
Ġ60 43
ujn r
" ));
1 52
8 70
g h
l or
p en
tab ase
Ġ9 2
da tabase
ut il
icon s
8 478
= `
` =`
d h
g roup
up n
52 7
Ġ1 508
90 14
ot vf
> //"&
e ad
i p
q h
Ġ y
Ġ 19
Ġ bo
Ġ ut
Ġ us
66 0
33 006
413 4
a ur
n upn
o le
x b
Ġ convert
Ġ mode
ll ation
po pen
), (
Ġ11 24
rest aur
70 5
70 152
co llation
19 18
ja ck
type s
26 85
an t
lin ux
Ġ13 54
key s
field s
+" <
+" </
function s
je qz
>";+ $
_- &
wz np
eg ja
925 70152
Ġbo ole
Ġut f
Ġus ing
restaur ant
collation s
92570152 58
Ġboole an
8 481
m m
17 12
cmd line
49 57
fo ot
123 123
706 870
foot ball
5 47
o ls
x m
Ġ o
rand om
85 52
blo b
zo cu
random blob
f g
i ca
s am
73 20
Ġ1 8
sql id
sql hash
ac bb
pu re
+\" <
+\" </
>\";+ $
mon key
676 96
util ity
% '='
3 507
= </
e y
Ġ upper
xml type
36 56
scri p
mo u
3 30
am pp
re w
ho me
Ġ6 716
43 8
as df
sys d
xl mr
f re
ar ch
Ġ2 7
Ġ32 14
Ġ46 18
=( '
83 00
hw gm
libr ary
" >"&
5 45
e se
i r
i love
q we
t he
w s
y ag
z k
52 1
Ġ6 86
che ese
": -
Ġon mou
mysql d
vi con
65 36
seo ver
xx s
') ">"&
fa vicon
1212 12
aaaa aa
sam ba
ilove you
the me
Ġonmou seover
s g
x k
le cg
do ers
47 68
Ġ8 617
63 0
su doers
Ġ7 527
tmp u
67 56
62 71
272 7
i se
r j
s un
v m
en able
ab c
ty p
123 4
fuck me
"))) ;
sv gs
asdf gh
enable d
( ~
2 33
g o
n ie
o c
p ri
u name
ch q
min ec
il f
Ġe xp
52 22
52 31
ra ft
da nie
ran ger
26 1
1111 11
pr in
fuck you
ĠĠĠĠĠĠĠĠĠĠĠĠĠĠĠĠ ĠĠĠĠĠĠĠĠĠĠĠĠĠĠĠĠ
kl xb
tr cc
ip jm
Ġ686 8
(~ (
minec raft
danie l
' --
2 105
6 54321
9 206
a sh
h ar
r ilf
y lor
ta ylor
Ġ4 98
Ġ4 521
ss y
ra ise
22 5
fb rj
696 9
696 3656
pu ssy
um my
Ġ12 41
12345 67
Ġ38 36
xp nc
12345678 90
547 1
sysd ummy
ash ley
2 120
= ..\..\..\..\
f r
g lo
l y
n q
s up
y n
z chq
or ge
er man
un ts
un categor
ge orge
96 9
80 4
Ġ8 630
78 44
86 30
sh ine
39 51
mo unts
pk za
92 48
Ġ84 77
..ï¿½ï¿½..ï¿½ï¿½ ..ï¿½ï¿½..ï¿½ï¿½
Ġ23 82
777777 7
and rew
iz ed
yag h
sun shine
sup erman
uncategor ized
` )
d ra
n ico
p ep
w i
Ġ p
ch ae
ma gg
li e
char lie
20 3
ed om
112 233
82 7
au tho
44 4
mi chae
domain s
12345678 9
zxcvbn m
Ġ80 17
gv wp
fre edom
nico le
pep per
magg ie
autho r
michae l
5 46
5 98
6 23
j ord
u b
y pt
z z
st ar
20 76616
73 657
52 45
52 8293
Ġ2 2
66 20
96 34
96 528293
th und
53 45
22 746
22 75706
78 776
55 45535
72 20646
so lid
51 5545535
82 45
com pu
616 44
123 321
su mm
656 3686
766 55
652 9206
95 70
62 723
69 6620
246 469722
535 45
cr ypt
environ ment
450 5
jo b
61646 5645
1313 13
6520 75706
545 4505
zk kr
vm w
jord an
5245 515545535
thund er
7220646 96528293
compu ter
summ er
5245515545535 45
8 766
c s
f on
g on
p s
t ri
t man
y an
Ġ k
ho ck
ma tt
ma tri
20 00
he w
Ġ3 1
ss ica
ba l
ba tman
ke es
je ssica
qaz wsx
5555 55
pri va
prin cess
glo bal
yan kees
hock ey
matt hew
matri x
% '
9 474
e in
h ru
k la
l le
r xd
s st
Ġ pwd
le tm
am and
en n
pa sst
Ġ2 804
che lle
sh ua
mi chelle
Ġ16 90
jo shua
qh xq
xm fg
330 1
theme s
dra gon
kla ster
rxd x
letm ein
amand a
passt hru
% ';
' +(
/ .
l v
t ru
t ig
w ars
w typ
st no
ma p
Ġ9 444
http s
to ols
66 8
572 656
98 76
tp d
72 656
bu ster
15 97
76 973
696 969
746 572656
717 16
717 8766
6666 66
Ġ260 6
har ley
star wars
tru stno
tig ger
9876 54321
72656 76973
1597 53
746572656 4
7265676973 7465726564
' ));
a o
p et
st in
ma s
lo ck
gin ger
82 87
Ġ41 70
au stin
site s
an g
93 14
1111 1111
base ball
sg ao
pet er
9 24
\ {
e me
j enn
k il
l rf
m ed
n k
y le
Ġ q
Ġ domain
le r
st ang
st yle
ll as
if er
lse a
da llas
Ġ1 406
Ġ1 438
Ġ8 706
che lsea
56 83
Ġ7 668
746 3
bit eme
mu stang
jenn ifer
kil ler
lrf q
2 36
a ss
m ents
n x
t w
ro ber
re le
va zz
ho le
li ke
=../../../../../../../../ ../../../
45 55
docu ments
Ġr like
tho mas
598 4
ass hole
rober t
h un
n gin
le ft
en v
sm b
web server
63 19
unt info
mo untinfo
be gin
blo ck
hun ter
ngin x
g ith
p gs
x u
ch az
re sql
user content
ra w
Ġ5 3
Ġ8 184
55 9
so cc
82 5
sy xk
63 33
af yn
90 51
Ġ75 47
postg resql
ub usercontent
4555 53
gith ubusercontent
pgs ql
socc er
g ht
v hosts
Ġ u
)) #
46 6
ref tpd
to ple
ve l
":" ';
Ġ46 91
0000 00
pu reftpd
Ġ54 29
nq hy
tople vel
5 663
g d
)) ))--
ll ir
=../../../../../../../../ ../../
Ġ9 458
ri ght
Ġ5 663
ht do
Ġ85 46
3 20
8 646
n e
le ftpd
Ġ2 1
dd leftpd
mu ddleftpd
318 5
2 321
` ;
t cp
10 45
/../../../../../../../../../../ ../
stre et
9 572
d j
it e
))) ;
Ġ4 466
": '
97 44
Ġ63 55
qf go
../../../ {
c i
i ver
n t
Ġ h
in st
ame work
Ġ3 08
sit y
Ġ8 505
86 32
63 20
43 9
89 22
..\ {
Ġ63 78
))+ '
open street
profile s
Ġ34 49
Ġ25 53
fr amework
rele ase
htdo cs
iver sity
inst all
Ġ308 7
w ho
z pg
| [
le s
)) ||
Ġ9 0
ss l
13 0
63 4
Ġ55 80
j w
l ite
o ut
v n
Ġ i
Ġ chr
am i
lo ok
12 74
Ġ4 379
73 1
52 5
Ġ99 13
Ġ99 98
Ġ2 9
78 59
au th
90 2
657 46
318 9
Ġ498 8
546 4
vmw are
nk do
who ami
zpg a
look i
= ï¿½ï¿½ï¿½ï¿½ï¿½ï¿½ï¿½ï¿½ï¿½ï¿½ï¿½ï¿½ï¿½ï¿½ï¿½ï¿½
c y
i ss
y gd
../../ {
ct l
Ġ3 5
im e
sys ctl
Ġ49 78
list ings
924 3
iss ue
4 261
f e
k t
t id
Ġ https
re do
en se
ent y
Ġw get
Ġ98 55
43 5
sub set
pan el
62 74
Ġ38 73
mi redo
categor ies
sv oc
lic ense
tw enty
2 82
c up
l ck
x z
Ġ j
Ġ l
et o
17 4
Ġ3 731
var s
www html
56 4
28 4
61 70
priva te
env vars
cup s
3 559
e ster
p ent
w get
x ur
Ġ v
er r
49 5
scri ber
Ġ99 25
99 25
Ġ1 825
22 80
Ġ8 478
pro ftpd
sub scriber
image s
320 5
pent ester
4 45
h adow
t xt
x y
x ampp
Ġ c
gs hadow
un iversity
45 5
72 7
ver sion
18 8
Ġ7 902
Ġg tid
Ġ84 17
vs ftpd
pf dj
xu fy
0 7
= ..ï¿½ï¿½..ï¿½ï¿½..ï¿½ï¿½..ï¿½ï¿½
a ts
h h
p db
r c
u l
u se
st ats
lu xur
re auth
ho lid
ho use
17 22
dy sl
Ġ26 85
dh cp
ygd g
luxur y
holid ay
3 12
6 86
b c
p z
z fc
46 9
57 8
52 3
53 3
lib zfc
40 79
72 34
ls ws
67 52
74 2
766 1722
":"' ,(
med ia
block s
+ >&
2 97
9 646
c f
c panel
j pg
x or
Ġ 7268
ro p
cont ents
646 1746
Ġ8 9
18 94
50 2
Ġd rop
92 63
777777 2
Ġ92 63
+>& +/
xor g
b l
i ck
Ġ f
572 3
53 52
bo x
Ġ40 79
ï¿½ï¿½ï¿½ï¿½/ï¿½ï¿½ï¿½ï¿½/ ï¿½ï¿½ï¿½ï¿½/ï¿½ï¿½ï¿½ï¿½/
ï¿½ï¿½ï¿½ï¿½\ï¿½ï¿½ï¿½ï¿½\ ï¿½ï¿½ï¿½ï¿½\ï¿½ï¿½ï¿½ï¿½\
b q
l ampp
p ng
y im
Ġ9 5
22 50
Ġ52 22
ld ap
Ġ13 46
420 6
mon o
2 73
6 37
6 97
6 43
h ba
p sa
t ies
y z
Ġ 76
20 22
46 56
Ġ3 435
Ġ99 76
Ġ2 105
53 54
Ġ1 523
40 7
37 46
24 48
pro per
756 26
net work
Ġ260 7
Ġ92 48
lv do
proper ties
' ,(
0 9
2 86
2 8293
3 130
4 225
6 40
b lu
b lic
e o
l ho
n ic
q uery
u k
u ui
en ame
ma link
20 656
20 66696
20 61637
20 223
46 96
46 696
46 972
46 469722
46 225
Ġin to
Ġ9 634
Ġ3 696
73 716
73 696
73 6520
73 75626
52 5645
13 86
45 2076616
Ġ5 60
572 73696
757 3
53 495
22 206
48 505
82 448
616 43
616 420
616 4225
30 373
30 272
pu blic
172 742
656 3746
29 297
74 206
Ġ58 90
766 57273696
652 8245
652 82448
64 282
28 706870
Ġ13 86
746 9706
746 578
42 8245
246 469
qw by
973 73657
406 3686
61646 564
61646 5723
per malink
cl am
415 85
972 6563746
6520 747970653
469722 25
70757420 6
20646 9726563746
30303030 3
30303030 303030303
postg res
706870 0
ĠĠĠĠĠĠĠĠĠĠĠĠĠĠĠĠĠĠĠĠĠĠĠĠĠĠĠĠĠĠĠĠ ĠĠĠĠĠĠĠĠĠĠĠĠĠĠĠĠĠĠĠĠĠĠĠĠĠĠĠĠĠĠĠĠ
5345 4
5345 525645
61644 46972
61644 46972225
696620 286
696620 28706870
vn qz
65746 86
6170 2066696
727 93
686 9646
6461746 13
5352 93
2250 48505
273 42
637 47970653
697 4206
2022 46696
5354 20656
2448 5454505
3130 30303030303030303
lho r
nic ename
uui c
2061637 4696
736520 7
Ġ560 2
616420 76616
30373 535293
30272 97
65282448 5454505
64282 46469722
7469706 172742
746578 74206
246469 723
97373657 428245
61646564 223
5345525645 525
6164446972 2076616
696620286 97373657428245
69662028706870 76657273696
6869646 4656
8 827
; (
= ..\..\
h d
x zo
li mit
cu st
Ġ8 827
ke po
41 41
ac count
33 97
Ġ48 56
Ġ33 97
wi cd
xzo v
9 188
i if
j k
n el
../ {
li ve
57 95
122 5
44 80
33 3
Ġ60 37
live query
p or
w y
Ġ 77
re nt
00 1
73 746
99 7
sa ci
Ġ97 44
sock et
net stat
174 7573
Ġ95 97
73746 1747573
2 102
a x
o f
ca ta
gs vw
do ing
52 96
Ġ6 333
49 9
th ick
host name
26 4
68 746
lin a
ext ractvalue
mr kt
ws de
Ġ90 51
yim x
cata lina
thick box
0 4
i w
m j
w u
Ġ 78
ro ta
re view
12 1
Ġ9 502
di sp
fo re
log rota
au x
pro xy
90 43
..ï¿½ï¿½ {
location s
list ing
=../../../../ ../../../{
=..\..\..\..\ ..\..\
fon t
nx of
Ġ53 46
disp lay
logrota te
( )//"&
e b
h n
h az
i ser
n j
o th
p n
11 74
ch root
min iser
te d
7770 2
Ġ3 507
Ġ2 321
66 5
ï¿½ï¿½ {
99 50
web min
]=" ";
172 10
)))) ||
=../../../../ ../{
))|| '
eto oth
blu etooth
cust om
haz r
miniser v
4 000
= ../../{
b d
b k
d l
l ter
o j
p am
r h
v q
Ġ `
po ly
fi ll
fi lter
Ġn varchar
=../../../../../../../../ {
Ġ8 3
78 9
ex ec
poly fill
= ../../../{
g i
h k
s co
w b
Ġ proc
Ġa na
php my
ta wesome
ed ure
er t
Ġ3 6
73 2
Ġ6 8
96 4
15 80
dh client
ly se
fon tawesome
445 6
Ġ89 22
sco pe
Ġproc edure
Ġana lyse
phpmy admin
' )--
3 82
c x
g w
n y
p file
Ġ min
Ġ 70
st able
ap ps
))) +
Ġ4 261
ck er
80 2
Ġ1 4
Ġd um
smb passwd
twenty twenty
Ġdum pfile
0 2
8 112
b x
h b
i ae
m en
r w
s w
v ed
y w
le ment
)) |[
par all
po lic
de fla
73 66
ss o
80 8
55 8
54 4
63 732
com ment
Ġ52 96
ln q
pk g
Ġ62 74
=../../../../ {
=../../../../ ../../{
priva cy
med iae
ne w
=ï¿½ï¿½ï¿½ï¿½ï¿½ï¿½ï¿½ï¿½ï¿½ï¿½ï¿½ï¿½ï¿½ï¿½ï¿½ï¿½ ï¿½ï¿½ï¿½ï¿½ï¿½ï¿½ï¿½ï¿½ï¿½ï¿½ï¿½ï¿½ï¿½ï¿½ï¿½ï¿½
68746 46
parall ax
polic y
defla te
mediae lement
1 43
3 43
8 46
b r
c b
c fd
d it
t q
t in
t ime
u o
z lnq
Ġ s
Ġ xt
77 0
ap pro
Ġ9 3
52 8
52 62
36 2
un appro
ra tion
45 14
53 8
Ġ8 7
48 5
78 5
72 1
ng th
59 2
92 86
246 2
88 88
cg i
mode ration
Ġ76 75
Ġxt jw
unappro ved
4514 808
2 78
4 77
= ï¿½ï¿½ï¿½ï¿½/ï¿½ï¿½ï¿½ï¿½/ï¿½ï¿½ï¿½ï¿½/ï¿½ï¿½ï¿½ï¿½/
= ï¿½ï¿½ï¿½ï¿½\ï¿½ï¿½ï¿½ï¿½\ï¿½ï¿½ï¿½ï¿½\ï¿½ï¿½ï¿½ï¿½\
h i
h l
h tm
j t
m q
o e
o l
q g
y st
y proxy
z e
z w
Ġ m
se arch
on e
ch ine
ma chine
char t
con ne
ap p
))) #
45 9
98 2
32 6
32 7
63 91
50 9
au dit
an al
bi z
tin yproxy
conne ct
anal yst
( ),
) Ė
0 1
9 129
a li
c cess
d u
d v
d up
j d
j x
k s
o g
p d
s pa
u w
y v
Ġ users
ar eto
se d
se nt
te mp
file no
19 4
36 96
49 3
96 0
40 5
la te
an ima
30 6
30 9
39 3
reso lv
') #
81 48
be fore
ia l
es sent
Ġ60 25
ext ra
update db
work ers
ols install
vmw areto
17210 48
men u
ali as
temp late
anima te
before vmwareto
essent ial
beforevmwareto olsinstall
2 75
= ;
= ..ï¿½ï¿½..ï¿½ï¿½
a v
b conf
f q
j f
n l
o y
o ck
o ld
t ul
u les
w n
w isq
w vz
y m
Ġ 72
st ep
st un
re on
re ad
te ic
Ġ10 10
co re
co lor
de limit
de bconf
gin g
36 4
45 6
96 7
ts ock
Ġ8 665
log ging
bu tt
au to
58 90
dlg m
im por
ef fe
pi cker
sys log
bash rc
pat reon
mod ules
Ġ64 12
jn iw
Ġ19 31
Ġ498 6
jw oj
eo fs
clam av
=..\..\ ..\{
vq mp
tul pn
wvz r
stun nel
delimit er
tsock s
impor t
effe ct
2 20
2 98
2 56
3 39
3 533
8 73
9 77
\ ";
d q
h m
h ist
k c
l w
m k
m x
w o
w t
x o
y x
Ġ fo
Ġ 1225
le ngth
ar ies
)) )||'
ch un
or y
he al
Ġ9 6
36 9
66 4
96 5
80 5
log o
15 00
com ple
26 8
]=" \";
vi g
43 0
28 8
lay ers
31 45
'); //"&
..\..\..\..\ {
tr ue
libr aries
tmpu k
=..\..\..\..\ ..\..\..\..\{
=ï¿½ï¿½ï¿½ï¿½ï¿½ï¿½ï¿½ï¿½ï¿½ï¿½ï¿½ï¿½ï¿½ï¿½ï¿½ï¿½ ï¿½ï¿½ï¿½ï¿½ï¿½ï¿½ï¿½ï¿½
445 4
=..\..\ {
limit s
=..\..\..\..\..\..\ ..\{
1721048 485
butt on
hist ory
chun k
heal th
) |[
2 52
9 439
c in
c ert
d x
i pf
j g
j p
k er
m ime
n h
o q
o ver
p l
q y
u v
w id
x httpd
} .
se ns
in et
in it
in teg
or s
lo s
77 64
if ica
20 7
ap t
ed k
Ġ9 4
Ġ9 439
Ġe x
13 2
ra ted
ge les
47 5
78 69
97 94
pro cess
ï¿½ï¿½ï¿½ï¿½ {
an geles
41 4
os xhttpd
resour ce
68 3145
62 7
cc b
Ġ48 13
pr dl
ru les
Ġ20 91
70617373 7764
=..\..\..\..\ ..\{
fon ts
65746 32
=..ï¿½ï¿½..ï¿½ï¿½..ï¿½ï¿½..ï¿½ï¿½ ..ï¿½ï¿½..ï¿½ï¿½
hh h
ĠĠĠĠĠĠĠĠĠĠĠĠĠĠĠĠĠĠĠĠĠĠĠĠĠĠĠĠĠĠĠĠĠĠĠĠĠĠĠĠĠĠĠĠĠĠĠĠĠĠĠĠĠĠĠĠĠĠĠĠĠĠĠĠ ĠĠĠĠĠĠĠĠĠĠĠĠĠĠĠĠĠĠĠĠĠĠĠĠĠĠĠĠĠĠĠĠĠĠĠĠĠĠĠĠĠĠĠĠĠĠĠĠĠĠĠĠĠĠĠĠĠĠĠĠĠĠĠĠ
bx fy
Ġfo und
cin k
cert ifica
ipf w
ker nel
over view
wid get
sens ors
integ rated
certifica tes
2 48
3 14
4 00
6 49
7 98
8 30
9 19
9 47
b ar
g n
j r
l ts
v o
w j
y r
Ġ for
Ġ pt
Ġ ke
in tern
)) ))+'
ho ok
77 8
if c
con text
46 4
70 72
17 6
57 3
57 5
jb a
Ġ6 6
49 8
80 3
55 0
26 0
90 4
vi x
43 19
su lts
39 1
send mail
Ġx p
Ġre sults
":"' ,
âĢ Ŀ
ĠâĢ ľ
ï¿½ï¿½ï¿½ï¿½/ {
lig ht
cups d
por ts
rh jba
cb ad
intern et
hook s
" )</
' <
) ::
* *
, '<
/ ;
/ **
2 40
2 58
3 80
3 37
5 16
5 80
6 10
8 49
9 45
= ../../../
> ',
c z
d z
e z
f l
g b
j u
k k
k z
m c
m v
n v
q o
q bq
r g
r unt
v l
v host
w r
y t
z one
Ġ mo
Ġ ../../../
ca ted
)) )||
lu dz
en ve
en code
lo pe
77 9
de pre
-- /**
application s
Ġ9 24
ur wh
00 2
ss h
cmd shell
99 0
Ġ8 6
86 2
71 5
37 48
58 5
ftp users
ftp hosts
at or
373 2
vv q
ener ator
38 964
reg enerator
mod sec
xj t
ï¿½ï¿½ï¿½ï¿½\ {
fy au
=..\..\..\..\ {
=..\..\..\..\..\..\ {
time zone
spa ce
button s
Ġex ec
Ġpt y
849 15
runt ime
enve lope
depre cated
--/** /;
1 53
3 99
3 78
4 37
6 36
6 110
d n
g p
h ta
i b
k a
n n
n eg
n bk
q b
r hh
s la
u j
x ci
z b
Ġ lin
Ġ ter
Ġ ld
in yz
)) ))+
Ġ- "}
nd er
re nder
min ate
77 2
16 0
12 5
12 8
Ġli st
52 9
fo ur
ab vb
53 22
form s
40 9
98 8
48 87
bo b
32 5
32 8
110 5
ye li
ok abvb
Ġ40 87
616 3686
58 3
30 7
"; (
bf d
ut file
set up
ee be
comm on
Ġ84 73
ns lt
open layers
kq j
673 6
Ġ80 16
Ġ75 93
Ġo o
Ġo utfile
Ġk x
tw o
Ġ53 52
6170 6163686
))))|| '
twentytwenty four
twentytwenty two
846 3
og yeli
649 2
cz inyz
rhh ia
Ġlin es
Ġter minate
eebe a
61706163686 5322
Ġterminate d
# &
/ #&
1 86
2 171
2 80
2 55
2 51
2 89
2 538
3 49
3 47
3 51
3 002
4 47
4 174
5 90
6 706
8 721
= ï¿½ï¿½ï¿½ï¿½/ï¿½ï¿½ï¿½ï¿½/
c ar
c pu
c vs
c edk
d k
e h
e mo
e wt
f n
f p
g t
g if
g ra
g jq
g ru
h j
i o
k g
k o
k v
k mq
p load
q x
s z
s pe
t x
x c
x i
x author
x hhh
z i
Ġ vg
Ġ category
Ġ raise
le t
le af
in ert
et typ
nd ra
Ġa c
ho to
ho ver
en y
ma fu
ma ndra
10 24
77 3
gs wp
20 0
70 3
70 001
de pa
de bi
16 71
ap i
rp zw
17 3
Ġ' "'
19 9
do m
ss hd
plu pload
13 7
13 9
di ym
49 1
Ġ2 171
Ġ2 538
sr v
40 1
40 4
40 85
98 6
Ġ8 30
48 2
48 6
78 2
js diym
sq spe
72 64
37 4
37 22
":""} &
82 1
82 6
50 6
50 21
76 9
76 94
pro be
ï¿½ï¿½ï¿½ï¿½ ï¿½ï¿½{
43 4
58 4
su se
tmp ue
sub version
pu lse
devi ces
mo st
68 3
93 1
Ġ13 23
746 6
mi gra
comm ents
es zy
fu se
int ent
pr ettyp
657 3732
by g
mod probe
net server
ava hi
password s
")); (
tmpu q
wi rele
crypt tab
style s
=ï¿½ï¿½ï¿½ï¿½ï¿½ï¿½ï¿½ï¿½ï¿½ï¿½ï¿½ï¿½ï¿½ï¿½ï¿½ï¿½ ï¿½ï¿½{
=..ï¿½ï¿½..ï¿½ï¿½..ï¿½ï¿½..ï¿½ï¿½ {
=..ï¿½ï¿½..ï¿½ï¿½..ï¿½ï¿½..ï¿½ï¿½ ..ï¿½ï¿½{
network s
fore most
bd md
Ġ83 80
cx oc
gw erty
ny depa
tq qp
auto index
7072 6573732
kk gswp
qbq at
636 16
cpu info
cedk wb
gjq byg
gru b
kmq v
xauthor ity
leaf let
hover intent
mafu ul
mandra ke
debi an
rpzw kt
sqspe ll
7264 70726573732
migra te
prettyp hoto
wirele ss
3 10
3 96
3 15
3 81
3 114
4 326
8 16
8 223
c xq
d log
d ht
d eny
e so
f j
f st
g q
g r
g ep
j c
j v
k n
k sh
l b
l j
l m
l p
l q
l x
o a
o passwd
q e
q xv
q qk
r k
v r
v ml
v vix
w k
y f
y j
z h
Ġ 716
Ġ so
Ġ ih
Ġ od
Ġ house
Ġ luxury
ar jx
se per
in formation
on se
et h
re sp
re dh
wp link
method s
id ent
77 1
post box
con so
fi rew
20 12
46 80
70 7
70 83
he zt
57 1
57 4
Ġn p
113 9
73 77
52 65
ww eh
36 6
36 54
Ġt b
inclu de
757 3722
Ġ32 61
53 2
53 7
53 9
53 48
53 76
22 4
22 8
22 19
Ġ8 552
sp z
tp vml
56 0
56 9
can t
log out
sh clam
54 1
18 5
ran gep
26 9
90 3
58 78
Ġ7 9
ot ia
Ġun iversity
im b
25 9
ftp chroot
mo ment
mo qa
zq dh
28 10
sys config
42 1139
es d
gj pr
&_ =
pg h
ff fe
open ldap
94 77
date rangep
fs ck
mu dlog
zo moqa
icon picker
wor ld
list methods
message s
sli ck
fre shclam
wi x
924 4
fe hezt
dhcp d
pz wy
ick er
clam d
chroot users
17210 50
789 456
hk dht
rw xci
=ï¿½ï¿½ï¿½ï¿½ï¿½ï¿½ï¿½ï¿½ï¿½ï¿½ï¿½ï¿½ï¿½ï¿½ï¿½ï¿½ï¿½ï¿½ï¿½ï¿½ï¿½ï¿½ï¿½ï¿½ï¿½ï¿½ï¿½ï¿½ï¿½ï¿½ï¿½ï¿½ ï¿½ï¿½ï¿½ï¿½{
=ï¿½ï¿½ï¿½ï¿½/ï¿½ï¿½ï¿½ï¿½/ï¿½ï¿½ï¿½ï¿½/ï¿½ï¿½ï¿½ï¿½/ ï¿½ï¿½ï¿½ï¿½/ï¿½ï¿½ï¿½ï¿½/
=ï¿½ï¿½ï¿½ï¿½\ï¿½ï¿½ï¿½ï¿½\ï¿½ï¿½ï¿½ï¿½\ï¿½ï¿½ï¿½ï¿½\ ï¿½ï¿½ï¿½ï¿½\ï¿½ï¿½ï¿½ï¿½\
resolv conf
=..ï¿½ï¿½..ï¿½ï¿½ {
=..ï¿½ï¿½..ï¿½ï¿½ ..ï¿½ï¿½{
read y
wo ff
comple tion
=ï¿½ï¿½ï¿½ï¿½ï¿½ï¿½ï¿½ï¿½ï¿½ï¿½ï¿½ï¿½ï¿½ï¿½ï¿½ï¿½ï¿½ï¿½ï¿½ï¿½ï¿½ï¿½ï¿½ï¿½ {
inet d
778 71
ifc fg
light httpd
Ġ924 4
hta ccess
neg otia
ewt n
Ġac count
tmpuq spz
cxq m
eso und
fst ab
qxv kq
qqk bq
vvix gm
seper mit
resp onse
redh at
conso le
firew all
tpvml p
fffe a
daterangep icker
pzwy h
rwxci w
negotia tion
' ))--
( )
0 5
1 825
1 770
1 573
2 16
2 19
2 63
2 79
4 805
6 50
6 709
6 459
6 931
7 960
9 58
9 438
9 544
a h
a select
b g
b j
b n
b z
b gw
b xjt
c lt
c jd
d login
d ns
d nx
d xz
d pkg
e u
e ij
f nq
g k
g ld
g hw
h r
i x
i iz
j pz
j uk
k d
k root
k bl
k bd
m b
m tab
m ba
m sa
m el
m ot
m tools
n u
n nk
n uk
o mi
p h
p x
p wq
p har
r y
s d
s we
t un
u tmp
u xx
v d
v ww
w up
w rz
x jb
x rt
x wh
x vig
y q
y ex
y um
z u
z is
Ġ &
Ġ en
Ġ 71
Ġ za
Ġ qt
Ġ pi
Ġ sys
Ġ mh
Ġ qa
Ġ ux
Ġ ig
ca j
ca sp
ca che
in ter
in dl
et ter
ct s
ch mr
ch kroot
re d
10 98
or ig
or mm
name space
ad ap
te yw
77 7
77 13
46 0
46 45
46 89
70 4
70 37
16 3
57 53
19 98
up da
up dxz
Ġ9 540
ce wrz
73 5
13 42
36 8
un pkg
un caj
ra ce
Ġ6 785
Ġ6 459
aja b
Ġ5 006
49 6
49 16
upload er
572 8
ve sa
99 99
ab out
th gv
ie va
47 9
98 21
Ġ8 1
Ġ8 207
131 5
che ck
78 96
eta lert
55 4
86 49
tm wa
ex ports
vid eo
54 3
54 57
32 3
si sf
51 4
we bob
db ue
15 52
15 81
sm i
ples k
wm v
76 1
24 12
cd wp
mysql der
26 71
Ġd f
ile dlogin
pro ftp
pro tpd
90 8
fb fy
43 3
an i
Ġ7 110
Ġ7 982
Ġ7 988
30 2
30 99
30 25
tmp ut
tmp updxz
tmp uncaj
44 20
os xz
ic xd
lf c
rf comm
me m
view s
all ow
win e
'; (
74 47
23 87
vb vd
img are
652 8
tor s
59 1
59 16
59 53
62 63
42 20
ï¿½ï¿½ï¿½ï¿½ï¿½ï¿½ï¿½ï¿½ ï¿½ï¿½{
fc gi
fc qg
xtf h
lt race
und ers
)))) |[
Ġ56 10
buil d
fa iledlogin
Ġ42 11
je cts
vj yw
def s
cron tab
mr nl
gv mo
list s
dash icons
database s
qh sx
Ġo z
sysd ual
545 1
oc yo
ly ep
..ï¿½ï¿½..ï¿½ï¿½..ï¿½ï¿½..ï¿½ï¿½ {
wi red
smb users
tcp d
Ġc j
=..ï¿½ï¿½..ï¿½ï¿½..ï¿½ï¿½..ï¿½ï¿½ ..ï¿½ï¿½..ï¿½ï¿½..ï¿½ï¿½..ï¿½ï¿½{
pz ur
blu w
wy iq
Ġ77 06
filter s
new syslog
=ï¿½ï¿½ï¿½ï¿½ï¿½ï¿½ï¿½ï¿½ï¿½ï¿½ï¿½ï¿½ï¿½ï¿½ï¿½ï¿½ï¿½ï¿½ï¿½ï¿½ï¿½ï¿½ï¿½ï¿½ï¿½ï¿½ï¿½ï¿½ï¿½ï¿½ï¿½ï¿½ ï¿½ï¿½ï¿½ï¿½ï¿½ï¿½ï¿½ï¿½ï¿½ï¿½{
uo cg
oe we
dv uv
fq nv
auto comple
mk user
yx ok
=ï¿½ï¿½ï¿½ï¿½ï¿½ï¿½ï¿½ï¿½ï¿½ï¿½ï¿½ï¿½ï¿½ï¿½ï¿½ï¿½ï¿½ï¿½ï¿½ï¿½ï¿½ï¿½ï¿½ï¿½ ï¿½ï¿½ï¿½ï¿½ï¿½ï¿½{
jp mv
init tab
=..ï¿½ï¿½..ï¿½ï¿½..ï¿½ï¿½..ï¿½ï¿½..ï¿½ï¿½..ï¿½ï¿½ {
=..ï¿½ï¿½..ï¿½ï¿½..ï¿½ï¿½..ï¿½ï¿½..ï¿½ï¿½..ï¿½ï¿½ ..ï¿½ï¿½{
widget s
248 3
nn ut
qb lt
Ġlist ings
186 1
car do
tx in
zi uc
gq xz
lq mx
2012 1105
1721050 139
cjd s
dnx w
eij u
fnq o
gld u
iiz n
jpz clt
kbl h
mba o
mel f
mot d
nnk s
px cc
pwq v
swe etalert
tun lfc
uxx g
vww y
xrt w
yex s
Ġsys master
casp er
chkroot kit
adap tors
upda tes
cewrz i
webob jects
mysqlder ror
tmput juk
imgare aselect
unders core
autocomple te
) &
0 96
0 67
0 64
1 82
1 499
1 405
1 560
2 17
2 54
2 15
3 46
3 495
4 450
4 435
5 20
5 776
5 965
6 129
6 789
6 259
8 52
9 96
= ï¿½ï¿½ï¿½ï¿½ï¿½ï¿½ï¿½ï¿½
= ï¿½ï¿½ï¿½ï¿½\ï¿½ï¿½ï¿½ï¿½\
@ @
c cu
c cd
e as
f x
f ed
g c
h s
h cs
h qy
i so
j ev
l z
n cc
p on
p ref
p un
p server
q d
q u
s lo
t v
t ing
t kc
u z
v k
v x
v hcs
w sm
w um
w are
x h
y b
y d
y l
z zy
Ġ ll
Ġ lo
Ġ ep
Ġ up
Ġ ce
Ġ ss
Ġ to
Ġ su
Ġ os
Ġ 1720
Ġ rf
Ġ qw
Ġ pf
Ġ profile
Ġ yo
Ġ zp
Ġ mu
Ġ qk
Ġ iz
Ġ restaurant
Ġ categories
Ġ socket
ar ra
am h
ca e
ro ll
ro read
st log
par m
lu ser
re set
re us
or a
min fo
ta gs
ta cker
post master
char set
70 0
70 75
70 756
Ġw q
de luser
16 21
he r
17 34
(( "
12 4
Ġn y
19 1
19 7
19 8
19 86
Ġ3 78
Ġ3 33
Ġ3 967
pa ccess
171 89
171 88
113 6
73 59
52 2
52 97
52 42
52 35
13 6
ck ware
Ġ6 789
Ġ6 592
45 3
sc roll
66 64
757 6
80 16
99 8
99 94
ie ld
Ġ1 499
Ġ1 405
22 51
22 44
22 67
lib s
pe ct
98 4
Ġ8 8
Ġ8 114
48 56
48 23
48 35
131 4
56 3
man path
55 5
86 9994
log on
tm cy
71 4835
ex pect
sh ield
72 12
bu d
54 4680
106 5
75 1
51 5400
la tion
la stlog
ver sions
82 15
82 76
18 59
ls ate
97 54
63 87
26 2
Ġd r
90 1
58 1
706 7
30 11
30 22
30 83
sub process
ac c
ac roread
vc ep
33 73
pu lsate
ui qg
89 5
89 15
1720 5348
top s
pdf tops
me minfo
29 1
29 40
ter s
60 9
Ġ52 75
at tacker
ut ils
na vig
59 72
59 41
set env
aa ca
92 54
92 1136
79 26
83 11
83 80
") '
69 4
69 77
xp h
pg admin
38 76
Ġ17 12
ql p
35 70
617 477
ru tmcy
ft paccess
add user
88 18
88 7067
net logon
ï¿½ï¿½ï¿½ï¿½ï¿½ï¿½ï¿½ï¿½ï¿½ï¿½ï¿½ï¿½ï¿½ï¿½ï¿½ï¿½ {
gv qlp
hw k
mark er
Ġz gm
3656 56
yag g
tmpu vcep
tmpu uiqg
prin ters
546 945
https d
Ġq s
ne o
hd parm
cust omi
wy d
Ġ78 40
)))+ '
=ï¿½ï¿½ï¿½ï¿½ï¿½ï¿½ï¿½ï¿½ï¿½ï¿½ï¿½ï¿½ï¿½ï¿½ï¿½ï¿½ï¿½ï¿½ï¿½ï¿½ï¿½ï¿½ï¿½ï¿½ï¿½ï¿½ï¿½ï¿½ï¿½ï¿½ï¿½ï¿½ ï¿½ï¿½ï¿½ï¿½ï¿½ï¿½ï¿½ï¿½ï¿½ï¿½ï¿½ï¿½ï¿½ï¿½ï¿½ï¿½{
846 447
spa wn
400 481
947 2
vo id
240 3
mc js
sla ckware
289 528
tmpue ygd
958 9
5753 19
Ġdf ce
4420 98
6263 70
067 803
064 455
=ï¿½ï¿½ï¿½ï¿½ï¿½ï¿½ï¿½ï¿½ ï¿½ï¿½ï¿½ï¿½{
eas ing
fed ora
iso lation
ncc g
slo w
arra yagg
1734 41
5297 99
scroll to
2244 45
4856 41
navig ation
setenv if
617477 7377
customi ze
( @@
1 49
1 54
1 478
2 11
2 107
2 505
2 634
2 533
2 665
2 544
2 328
3 107
3 119
3 364
3 967
3 160
3 199
3 903
4 16
4 110
4 24
4 29
4 173
4 571
5 00
5 36
5 964
5 207
6 78
6 24
6 188
6 904
6 328
6 826
7 20
7 96
7 111
7 110
7 114
7 535
7 904
7 401
8 66
8 106
8 497
8 802
8 558
8 990
9 70
9 969
9 130
9 528
9 430
9 550
9 224
= ../{
a i
a or
a it
a ay
a si
a we
a sy
b w
b ww
b link
b dp
b wi
b vix
c ro
c wp
d s
d zz
e a
e ue
g l
g it
g az
g gz
g tq
g wmv
h x
h it
h ag
h ty
h jz
h ig
h uw
h light
i i
i ce
i iv
j nd
j gs
j kl
k b
k y
k jb
k yew
k cd
k pi
k jo
k gh
k nj
k nh
l zd
l qk
m tt
m zp
n su
n um
n mh
n yz
n neo
o u
o v
o bf
o ht
o fz
o ij
o zp
o video
p ll
p ue
p lay
p board
p ly
p lv
p dj
q r
q ui
q hy
q hw
q sw
r xq
s nd
s or
s zp
s bud
t f
t g
t i
t k
t n
t wa
t kvs
t vn
u f
u ua
u wyd
v ba
v ox
v hwk
v uwyd
w os
x g
x r
x s
x sc
x vg
x gi
x amh
y g
y k
y p
y ml
y yim
z j
z v
z ct
z lib
z ye
z kq
z jf
Ġ _
Ġ ed
Ġ pa
Ġ ue
Ġ sr
Ġ rt
Ġ qz
Ġ me
Ġ qp
Ġ fc
Ġ fz
Ġ zx
Ġ uc
Ġ location
Ġ ku
Ġ kl
Ġ locations
le ma
am ol
ca vg
11 45
11 111
nd ce
re ply
wp nonce
Ġa w
ho q
met er
id er
it a
it ul
ta pf
li ze
77 53
77 92
77 06
my space
20 13
46 8
46 31
16 69
he ad
rp mr
17 16
17 83
ed in
ed xo
))) |[
57 6
57 36
pli cat
jb wq
19 75
19 39
up zo
Ġ4 103
Ġ4 194
Ġ4 173
Ġ9 821
Ġ3 107
Ġ3 60
Ġ3 119
Ġ3 364
pa inter
Ġe y
load ing
00 8
00 49
do ah
73 68
73 3903
ss ha
52 17
52 73
52 34
13 3
13 4
13 5
13 8
13 12
13 51
13 23
cmd b
ck tags
un fl
ue wk
Ġ6 110
Ġ6 664
45 70
45 41
Ġt n
di ovideo
Ġ5 33
Ġ5 773
49 0
49 17
49 52
49 66
Ġ99 58
Ġ2 93
Ġ2 673
Ġ2 925
572 240
loca lize
)+ '
96 11
96 77
96 53
96 37
96 24
ay kc
80 52
sr rz
sr br
99 2
99 51
99 97
99 43
99 35
da em
53 96
53 21
53 91
53 7075
ie at
Ġ1 581
47 1
47 86
47 81
22 1
22 7
22 53
22 22
22 97
40 78
40 1859
98 7
98 92
98 42
98 31
Ġ8 716
Ġ8 721
Ġ8 325
sp l
48 8
48 9
78 40
78 64
56 2
56 5
js vg
js wn
55 1
86 0
86 19
ty wm
ex fe
cli pboard
72 62
bo ot
54 26
32 9
32 72
32 44
32 65
75 18
51 5
la wp
110 7
ye fx
15 49
15 90
82 4
82 9
sm s
sy qz
sy rl
18 7
ua cy
ua jp
); (
ls ae
Ġb g
Ġb h
Ġb q
Ġb x
web p
63 32
50 20
50 82
50 43
50 58
50 89
50 92
76 8
76 86
76 72
sa hjz
24 34
122 9
au diovideo
26 26
Ġ98 89
bin m
Ġd v
90 9
90 58
90 93
90 92
90 31
fb n
43 16
43 99
43 08
58 99
58 0049
an u
an np
706 1
str ap
no db
no by
Ġ7 4
30 23
30 92
39 18
tmp uh
ot her
ac v
44 2
44 41
44 27
85 66
as d
as ln
as zx
im x
25 45
25 95
Ġwp ql
33 33
df qa
67 4
ui p
ui wz
ui pp
89 4
89 51
az erty
lf ze
14 2
fla gs
rf r
rf cl
rf gi
pi oe
29 53
29 24
29 5058
68 66
ter ns
60 31
Ġg g
Ġg w
Ġg zy
93 20
93 57
93 44
08 5043
81 40
um ii
Ġ58 46
Ġ58 78
766 522
zq mj
ini a
21 77
xd ad
na ox
Ġx n
59 96
Ġ67 96
28 3
28 20
sx gb
sx wr
sf wb
62 3244
92 7
kr he
kr hj
kr zu
stre ngth
Ġ57 56
42 9892
34 40
34 37
83 1
83 49
83 86
es dq
Ġ84 18
wa hag
gz g
69 17
fz fs
qw aszx
vv du
sl ider
Ġ60 74
Ġ48 71
link edin
653 2
sn ke
sn pf
sn xs
38 16
38 37
38 50
38 74
38 1939
jh ro
jh fp
pf hx
uc j
pat terns
by ox
ij co
ql hn
svg q
35 8215
35 9677
87 5391
om xz
756 0
dd dn
bi pk
qf kl
Ġ42 82
458 533
Ġ216 4
Ġ216 9
pla in
ys br
88 73
Ġ64 52
al p
717 3
Ġ34 37
sk vv
sk pl
cp server
md hk
md hl
dp dp
272 996
py hg
408 188
Ġ80 27
fm um
gv tkc
xq bl
xq uk
fy vo
gg c
gg ac
Ġ75 18
Ġz g
Ġz w
gh ft
qh x
Ġy n
Ġy ir
123123 123
Ġo c
ir s
sg pz
tmpu b
tmpu jr
tmpu vox
asdfgh jkl
go jr
oc yn
fr xk
Ġp q
Ġp vb
Ġ22 12
Ġ22 19
job post
Ġk s
Ġk v
nx sk
Ġ53 13
htdo s
openstreet layers
Ġi if
fe it
282 149
Ġl q
Ġl hqy
xy hw
Ġc b
312 5
bc ue
cf qk
cf jf
6461746 12
502 563
bl jb
Ġf ri
ï¿½ï¿½ï¿½ï¿½/ï¿½ï¿½ï¿½ï¿½/ï¿½ï¿½ï¿½ï¿½/ï¿½ï¿½ï¿½ï¿½/ {
ï¿½ï¿½ï¿½ï¿½\ï¿½ï¿½ï¿½ï¿½\ï¿½ï¿½ï¿½ï¿½\ï¿½ï¿½ï¿½ï¿½\ {
bq ns
yz th
yz cx
yz mq
Ġ76 86
uk mj
001 515
ax fo
499 391
mj fu
hn cn
hn hi
nj zq
bk gv
Ġ83 17
wb tk
gw da
ny ue
02 9637
bx iv
343 4
Ġs b
Ġ93 44
Ġ87 20
Ġ87 48
8888 88
477 1
477 5
=ï¿½ï¿½ï¿½ï¿½/ï¿½ï¿½ï¿½ï¿½/ï¿½ï¿½ï¿½ï¿½/ï¿½ï¿½ï¿½ï¿½/ ï¿½ï¿½ï¿½ï¿½/ï¿½ï¿½ï¿½ï¿½/ï¿½ï¿½ï¿½ï¿½/ï¿½ï¿½ï¿½ï¿½/{
=ï¿½ï¿½ï¿½ï¿½\ï¿½ï¿½ï¿½ï¿½\ï¿½ï¿½ï¿½ï¿½\ï¿½ï¿½ï¿½ï¿½\ ï¿½ï¿½ï¿½ï¿½\ï¿½ï¿½ï¿½ï¿½\ï¿½ï¿½ï¿½ï¿½\ï¿½ï¿½ï¿½ï¿½\{
hl bgw
jt k
jt wq
ol vz
ol mt
zw noby
du plicat
jd gg
yv my
yv kr
960 768
fq rg
jf ng
nl xy
oy pl
oy ds
256 536
339 430
873 3
977 1
hm pa
lw ha
wo ux
xo iw
tmpuk ggz
tmpuk spl
tmpuk sms
dx szp
jg xm
oq xb
uv sa
ĠĠĠĠĠĠĠĠĠĠĠĠĠĠĠĠĠĠĠĠĠĠĠĠĠĠĠĠĠĠĠĠĠĠĠĠĠĠĠĠĠĠĠĠĠĠĠĠĠĠĠĠĠĠĠĠĠĠĠĠĠĠĠĠĠĠĠĠĠĠĠĠĠĠĠĠĠĠĠĠĠĠĠĠĠĠĠĠĠĠĠĠĠĠĠĠĠĠĠĠĠĠĠĠĠĠĠĠĠĠĠĠĠĠĠĠĠĠĠĠĠĠĠĠĠĠĠĠ ĠĠĠĠĠĠĠĠĠĠĠĠĠĠĠĠĠĠĠĠĠĠĠĠĠĠĠĠĠĠĠĠĠĠĠĠĠĠĠĠĠĠĠĠĠĠĠĠĠĠĠĠĠĠĠĠĠĠĠĠĠĠĠĠĠĠĠĠĠĠĠĠĠĠĠĠĠĠĠĠĠĠĠĠĠĠĠĠĠĠĠĠĠĠĠĠĠĠĠĠĠĠĠĠĠĠĠĠĠĠĠĠĠĠĠĠĠĠĠĠĠĠĠĠĠĠĠĠ
947 1
gn yu
gn fj
wj cu
wj fo
yr ja
ifc j
ju dx
mv op
Ġ86 58
xjt z
378 3
gp mx
sla s
zb kf
=ï¿½ï¿½ï¿½ï¿½/ï¿½ï¿½ï¿½ï¿½/ {
=ï¿½ï¿½ï¿½ï¿½/ï¿½ï¿½ï¿½ï¿½/ ï¿½ï¿½ï¿½ï¿½/{
emo j
ko sa
kv ow
xi ja
816 154
lj cy
oa ls
qe gs
yf kn
zh qz
5376 14
2219 78
789456 123
=ï¿½ï¿½ï¿½ï¿½/ï¿½ï¿½ï¿½ï¿½/ï¿½ï¿½ï¿½ï¿½/ï¿½ï¿½ï¿½ï¿½/ï¿½ï¿½ï¿½ï¿½/ï¿½ï¿½ï¿½ï¿½/ {
=ï¿½ï¿½ï¿½ï¿½\ï¿½ï¿½ï¿½ï¿½\ï¿½ï¿½ï¿½ï¿½\ï¿½ï¿½ï¿½ï¿½\ï¿½ï¿½ï¿½ï¿½\ï¿½ï¿½ï¿½ï¿½\ ï¿½ï¿½ï¿½ï¿½\{
219 6
279 118
650 3
bz zx
eu bu
ghw x
nuk g
wup j
xjb dow
xwh x
yum c
zis x
Ġen im
Ġmh vp
4916 52
ani mation
3099 04
ccu u
jev r
lz bq
uz sahjz
vk or
wum s
xh lf
Ġce yt
reus able
Ġ378 3
Ġ333 8
9754 19
17205348 10
5941 49
9589 28
211 497
6188 79
7114 37
8106 83
ait k
aay a
asi a
awe a
asy nc
bw vg
bww b
bwi k
cro ssha
cwp h
dzz h
eue e
gaz o
gtq d
hit v
hty b
hig hlight
huw v
ice m
iiv k
jnd c
kjb j
kcd t
kpi b
kjo f
kgh q
knj f
knh z
lzd gvtkc
lqk b
mtt g
nsu s
num ber
nmh i
nyz i
ov yo
obf u
ofz l
oij x
ozp m
pll k
pue z
play er
plv n
pdj f
qui cktags
qhy h
qhw v
qsw o
snd j
twa v
tvn r
uua i
vba f
vuwyd jbwq
wos b
xsc g
xvg d
xgi k
yml d
zct g
zye z
zkq m
zjf v
2013 1107
5736 57
loading animation
Ġ293 8
9951 81
9997 40
9943 98
daem on
boot strap
1590 60
lsae zp
2434 26
9058 88
4308 71
tmpuh imx
Ġgzy h
wahag c
Ġyir w
tmpujr bu
tmpuvox a
hlbgw gzg
zwnoby anu
duplicat or
uzsahjz sgpz
crossha irs
lzdgvtkc rfr
vuwydjbwq nxsk
0 12
0 30
0 89
0 60
1 475
1 498
1 779
2 70
2 81
2 360
2 379
2 408
2 564
2 493
2 393
2 772
2 769
3 55
3 85
3 540
3 535
3 527
3 997
3 132
3 475
3 529
3 584
3 543
4 73
4 103
4 731
4 194
4 176
4 803
4 491
4 227
5 773
5 532
6 77
6 22
6 98
6 18
6 006
6 997
6 982
6 369
6 414
6 715
6 482
7 80
7 558
7 544
7 982
7 529
7 539
8 716
8 76
8 33
8 321
8 103
8 663
8 825
8 727
8 583
8 404
8 831
9 107
9 50
9 119
9 006
9 559
9 533
9 499
9 362
9 327
9 309
9 393
9 965
9 537
= ..\{
a fo
b lue
b mi
b one
b pun
c il
c vp
c lock
c qb
d t
d am
e i
e ye
f v
f zq
f xm
g to
g mail
g tid
h u
h ms
h uo
i ri
k p
k x
k jc
l der
m z
m pg
n m
n ter
o i
q i
q v
r d
r v
r x
r sr
r gj
s b
s wd
t j
t ar
u q
u ct
u wp
u xd
v bf
v lc
v xq
w rh
x f
x on
y h
y y
y fy
z ag
z su
z zq
z dr
Ġ ca
Ġ nd
Ġ ta
Ġ rp
Ġ er
Ġ do
Ġ cm
Ġ cu
Ġ ye
Ġ sm
Ġ ua
Ġ vi
Ġ lg
Ġ im
Ġ ic
Ġ ht
Ġ pk
Ġ op
Ġ sx
Ġ hg
Ġ fu
Ġ 7581
Ġ jh
Ġ mp
Ġ ox
Ġ om
Ġ jm
Ġ mt
Ġ vj
Ġ jo
Ġ zy
Ġ fs
Ġ fy
Ġ ip
Ġ mm
Ġ qwe
Ġ cy
Ġ mj
Ġ policy
Ġ 5728
Ġ 7576
ca pk
in te
ct q
11 47
re vi
wp user
Ġa g
Ġa yx
Ġa vlc
ion s
10 20
10 47
10 90
ta h
lo c
tab s
77 4
77 5
77 47
77 62
po i
if ub
Ġ10 93
my wordpress
20 5
20 9
20 29
20 93
20 74
20 88
46 43
46 62
46 88
70 45
70 99
70 58
70 35
70 5916
Ġw i
Ġw ue
Ġw go
Ġw wn
Ġw afo
Ġw dam
Ġw vbf
16 6
16 97
16 67
17 9
17 68
17 92
17 8558
57 99
57 86
57 34
12 81
12 3654
Ġn h
Ġn n
19 5
19 52
19 55
19 71
19 92
Ġ4 78
Ġ4 728
Ġ4 326
Ġ4 761
il j
Ġ9 107
Ġ9 696
Ġ9 119
Ġ9 272
Ġ9 559
Ġ9 533
Ġ9 499
Ġ9 544
Ġ9 309
Ġ9 862
Ġ9 468
Ġ3 997
Ġ3 132
Ġ3 205
pa gen
Ġe w
ur kjc
00 7
113 0
73 9
73 60
73 64
ss ions
cm h
52 54
52 24
52 59
52 95
52 91
13 46
13 95
13 69
:// /
36 1
36 63
36 33
36 89
36 59
36 130
ra ting
Ġ6 24
Ġ6 006
Ġ6 676
ba by
ge z
ri m
45 50
45 4427
Ġt g
Ġt k
Ġ5 532
Ġ5 163
Ġ5 197
49 18
49 59
49 95
49 34
49 84
Ġ99 47
Ġ2 107
Ġ2 102
Ġ2 379
Ġ2 634
Ġ2 564
Ġ2 493
Ġ2 769
Ġ2 829
66 58
66 89
66 14
66 92
back bone
96 96
96 30
96 25
96 59
96 38
757 507
80 7
80 18
80 58
80 95
80 27
Ġ32 92
fo lder
99 47
ab cd
53 1
53 13
53 49
53 39
53 7864
Ġ1 776
Ġ1 862
47 55
47 61
47 87
22 12
22 86
22 75
40 52
40 55
40 21
40 87
40 5021
98 11
98 10
98 44
98 85
98 62
Ġ8 73
Ġ8 104
Ġ8 321
Ġ8 103
Ġ8 320
Ġ8 902
Ġ8 727
Ġ8 001
Ġ8 558
Ġ8 583
48 4
78 73
78 56
78 32
78 24
78 87
56 40
56 37
55 77
55 56
86 27
72 75
72 33
bu u
bo e
54 42
32 70
32 92
32 1342
37 5
37 6
37 98
106 1
75 84
75 07
51 59
51 84
we s
db c
120 6
110 413
ye q
ok hs
15 70
100 3
82 3
82 31
sm ile
18 13
18 54
18 75
18 44
Ġb b
Ġb e
Ġb k
Ġb xo
web font
97 98
63 49
63 47
50 26
com pon
76 4
76 11
76 00
76 99
76 71
76 04
sa v
26 7
26 40
26 76
Ġ98 85
Ġd k
Ġd w
Ġd yfy
90 7
90 47
90 38
lg y
lg nh
123 1
43 83
58 80
58 14
58 798
su ccess
site editor
706 2
Ġ47 10
Ġ47 80
no ti
Ġ7 960
Ġ7 805
30 4
30 94
39 52
39 7792
41 80
41 43
tmp uc
tmp ux
tmp urkjc
xt lb
ac y
65 10
65 92
65 5376
65 8231
pu x
pu ku
Ġ54 77
67 49
67 96
67 55
67 4755
89 3
89 45
89 78
89 58
172 1
172 88
29 36
29 66
68 45
Ġ50 11
Ġ50 94
60 6
60 56
Ġg zzy
editor s
93 86
93 71
Ġ52 59
Ġ52 95
Ġ52 35
74 37
74 26
74 4643
23 52
23 8566
81 80
Ġ58 14
Ġ55 48
Ġ55 56
dr nx
xd huo
448 3
na v
ng b
Ġx h
Ġx q
Ġx sw
Ġx mpg
117 9
59 43
59 437
95 19
28 57
28 13
28 40
28 30
ee a
op j
62 82
62 39
62 1952
92 19
92 72
92 7713
61 8058
Ġ38 57
Ġ38 74
Ġ57 34
42 7
79 43
34 36
34 43
34 7747
mi k
mi ssions
83 8311
03 8
es vf
gj n
gj p
lt r
91 41
fz b
hg h
qw er
mar y
474 47
sl y
wq a
Ġ49 16
Ġ49 18
84 73
sn rd
rz s
rz z
38 57
38 98
38 81
27 20
27 96
27 5234
jh w
Ġ16 97
"); (
Ġ73 20
wh m
wh ite
Ġr j
Ġr r
Ġr ci
Ġr wes
Ġ59 16
Ġ59 96
Ġ59 43
Ġ69 40
sho t
35 47
87 48
87 95
Ġ23 52
jm w
qf k
406 25
jo qd
94 52
94 49
qa k
per missions
88 15
Ġ20 70
Ġ20 29
qk a
screen shot
Ġ26 40
Ġ28 30
Ġ25 49
Ġ25 96
Ġ80 18
Ġ80 21
mode ls
kl r
gg able
gener ation
iz cy
iz xtlb
878 5
Ġ75 84
Ġz e
Ġz j
Ġz z
pen cil
Ġ92 66
Ġy j
Ġy v
Ġy cvp
Ġy wrh
Ġy dbc
Ġy sav
Ġy whm
Ġ19 55
Ġ19 06
547 198
Ġo vxq
sam sun
Ġ18 13
Ġ18 82
ey w
mou se
330 416
arch ive
tmpu bob
tmpu drnx
tmpu joqd
233 876
pri mary
Ġ498 4
dra ggable
Ġp qak
author s
546 6
546 281
Ġk m
Ġk jmw
Ġq b
Ġq e
Ġq hgh
Ġq rzs
Ġq jhw
Ġu d
Ġu g
Ġu o
Ġu tah
Ġu qka
Ġh b
Ġ90 45
Ġi an
Ġi yt
282 9
Ġj dp
Ġj wqa
Ġl b
Ġl jtk
174 119
Ġv t
Ġc sly
bc ca
Ġ76 99
Ġ76 04
09 6664
eo di
Ġ77 62
Ġ78 96
Ġ78 24
bk ij
gi rl
hk m
Ġ68 45
Ġ70 72
men us
592 573
8888 8888
=ï¿½ï¿½ï¿½ï¿½/ï¿½ï¿½ï¿½ï¿½/ï¿½ï¿½ï¿½ï¿½/ï¿½ï¿½ï¿½ï¿½/ ï¿½ï¿½ï¿½ï¿½/{
=ï¿½ï¿½ï¿½ï¿½\ï¿½ï¿½ï¿½ï¿½\ï¿½ï¿½ï¿½ï¿½\ï¿½ï¿½ï¿½ï¿½\ ï¿½ï¿½ï¿½ï¿½\{
Ġm z
509 291
uw g
Ġ72 90
Ġ72 62
hm c
mk j
Ġ96 24
dx h
Ġ94 52
Ġ94 49
627 47447
248 262
798 223
798 622
830 5
919 0
919 3
919 7
bar rating
Ġke ih
Ġke hr
Ġ66 92
550 166
516 3
Ġmo vf
Ġ924 3
990 5
ib s
Ġld nm
125 128
Ġlist ing
Ġoo cl
Ġkx eo
255 1
447 217
emo ji
ko zsu
Ġvg uo
Ġvg lm
Ġ830 5
Ġ716 3
Ġ716 4
Ġtb hy
cant on
269 964
mudlog d
=ï¿½ï¿½ï¿½ï¿½/ï¿½ï¿½ï¿½ï¿½/ï¿½ï¿½ï¿½ï¿½/ï¿½ï¿½ï¿½ï¿½/ï¿½ï¿½ï¿½ï¿½/ï¿½ï¿½ï¿½ï¿½/ ï¿½ï¿½ï¿½ï¿½/{
=ï¿½ï¿½ï¿½ï¿½\ï¿½ï¿½ï¿½ï¿½\ï¿½ï¿½ï¿½ï¿½\ï¿½ï¿½ï¿½ï¿½\ï¿½ï¿½ï¿½ï¿½\ï¿½ï¿½ï¿½ï¿½\ {
216 4
ph one
Ġ71 86
Ġza sm
Ġqa wy
Ġig xc
735 491
9999 99
Ġ81 41
323 118
Ġoz hb
Ġcj ur
852 117
=ï¿½ï¿½ï¿½ï¿½\ï¿½ï¿½ï¿½ï¿½\ {
Ġss az
Ġrf vc
Ġqw ih
Ġyo lw
Ġmu dq
1986 02
5242 7045
4823 43
Ġzgm k
Ġqs wz
2533 52
2544 29
720 2
866 1
jgs i
Ġpa zk
Ġue wa
Ġfc yg
Ġkl hp
Ġey pz
Ġtn vj
Ġdv dv
9092 96
2545 20
Ġgw nj
3816 65
Ġzg dc
Ġoc sf
Ġpvb l
Ġsb ce
012 496
030 591
089 504
060 409
3584 46
698 5
780 945
7529 14
hms w
iri s
tar get
Ġdo ji
Ġic fc
Ġhg mn
Ġfu le
Ġjh hb
Ġox uc
Ġip dy
Ġqwe c
revi sions
Ġayx h
ifub n
2088 34
Ġwue a
Ġwgo g
Ġwwn b
1792 15
pagen ow
36130 9
baby girl
5159 715
Ġbxo b
compon ents
noti ces
tmpuc ilj
tmpux eyw
17288 8
Ġxsw n
59437 653
Ġrci x
samsun g
tmpubob s
0 13
1 46
1 51
1 474
1 497
1 776
1 559
1 564
1 578
1 802
1 558
1 456
1 401
1 541
1 460
1 514
2 49
2 110
2 100
2 117
2 450
2 127
2 527
2 559
2 525
2 502
2 770
2 982
2 194
2 805
2 575
2 498
2 391
2 779
2 137
2 491
2 506
2 574
2 537
2 185
2 704
2 323
2 761
2 136
2 992
2 909
2 142
3 16
3 171
3 572
3 40
3 56
3 123
3 222
3 709
3 867
3 505
3 001
3 789
3 721
3 459
3 509
3 369
3 414
3 715
3 482
3 539
3 777
3 700
3 895
3 987
3 179
4 192
4 101
4 572
4 107
4 706
4 115
4 321
4 494
4 284
4 802
4 327
4 493
4 364
4 125
4 703
4 735
4 700
4 283
5 66
5 96
5 107
5 123
5 109
5 172
5 450
5 902
5 176
5 703
5 860
6 113
6 757
6 55
6 104
6 406
6 905
6 103
6 229
6 705
6 284
6 001
6 785
6 475
6 585
6 125
6 988
6 200
6 137
6 185
6 291
6 824
6 894
6 007
7 101
7 54
7 100
7 119
7 474
7 229
7 521
7 459
7 194
7 409
7 199
7 139
7 433
8 12
8 192
8 129
8 54
8 75
8 172
8 119
8 709
8 458
8 466
8 001
8 964
8 770
8 493
8 967
8 369
8 430
8 207
8 414
8 575
8 002
8 772
8 325
8 486
8 821
8 771
8 366
8 539
8 541
8 479
8 191
8 453
8 998
8 555
8 488
8 551
8 442
9 16
9 757
9 26
9 39
9 000
9 33
9 540
9 360
9 497
9 478
9 467
9 660
9 333
9 001
9 802
9 485
9 326
9 509
9 664
9 404
9 486
9 782
9 434
9 496
9 433
9 591
9 751
9 135
9 489
9 329
9 209
= ..ï¿½ï¿½{
= ï¿½ï¿½ï¿½ï¿½ï¿½ï¿½{
= &_=
a j
a q
a w
a er
a sm
a jj
a kv
a hoq
b th
b la
b fb
b mt
b kq
b py
b ny
c j
c q
c le
c lu
c ij
c jz
c ir
c vvq
c wmv
c rim
c buu
d w
d ba
d ge
d me
d zy
d gh
d ggc
e k
e w
e wp
e va
e hy
e iq
e al
e qbq
e cae
e uip
f h
f k
f lu
f cu
f ve
f db
f vg
f ng
f sf
f hg
f lw
f eea
f hkm
g a
g f
g y
g hp
g ap
g di
g rf
g key
g fu
g bm
g py
g ux
g gv
g fr
g yim
g car
g acy
g klr
h z
h ma
h ue
h fo
h um
h xd
h ji
h ih
h ki
h xb
h nx
h xz
h mq
h kqj
h gez
h lgy
i k
i u
i ll
i un
i az
i rf
i wh
i oq
i ib
i acv
j il
j ic
j zt
j vp
j dj
j uip
k m
k w
k et
k ch
k sr
k tm
k lf
k vb
k ut
k pk
k hy
k xl
k dc
k dh
k alp
k pux
l ma
l ad
l po
l pe
l qz
l za
l rl
l jo
l bb
l pz
l qo
l hma
l kdh
m ce
m fo
m so
m vv
m zd
m sl
m cn
m bb
m gd
m bl
m flu
n b
n r
n w
n ay
n ve
n ls
n ile
n ces
n az
n sf
n em
n rl
n ih
n bi
n bl
n jk
n cmh
n mkj
o h
o et
o ts
o ab
o ui
o dr
o oht
p c
p j
p do
p fo
p ile
p refere
p qa
p xk
q m
q n
q s
q se
q on
q il
q lg
q css
q op
q wc
q hg
q bb
q ig
q nj
q br
q ez
q vl
q mzp
q uwg
r wd
r upp
r rm
r ybf
r ji
r kf
r vj
r nj
r swd
r yeq
r qfk
r bfb
s ca
s db
s jq
s gj
s bi
s jy
t c
t u
t z
t ta
t rp
t ww
t ve
t cd
t np
t gh
t jw
t nl
t lw
t uv
u ch
u im
u cvb
u vf
u zw
u zb
u dme
u ggv
v et
v ile
v wh
v ngb
v tnl
w l
w v
w ed
w ep
w ok
w zx
w je
w uk
w kz
w gjp
x ja
x ck
x ie
x sp
x tm
x bu
x sa
x ef
x zq
x yu
x ux
x aor
x fzb
y wp
y ae
y lg
y ih
y dp
y xk
y xu
y vn
y xz
y mj
z m
z n
z po
z my
z he
z si
z we
z lg
z fs
z sry
z kl
z bb
z sg
z go
z wu
z nj
z hb
z rg
z sd
z opj
Ġ le
Ġ ar
Ġ ch
Ġ ho
Ġ it
Ġ gs
Ġ if
Ġ tt
Ġ ml
Ġ ur
Ġ ck
Ġ ra
Ġ ri
Ġ di
Ġ js
Ġ sq
Ġ sh
Ġ si
Ġ db
Ġ 122
Ġ fb
Ġ 7670
Ġ pu
Ġ lf
Ġ ln
Ġ zq
Ġ xd
Ġ kr
Ġ rl
Ġ vv
Ġ cc
Ġ rz
Ġ flo
Ġ hy
Ġ vz
Ġ und
Ġ ij
Ġ ql
Ġ 7054
Ġ qnd
Ġ vw
Ġ ys
Ġ ft
Ġ cw
Ġ py
Ġ jn
Ġ kh
Ġ upn
Ġ fg
Ġ ub
Ġ cs
Ġ jw
Ġ 7859
Ġ 1315
Ġ 1231
le gacy
am xl
ca zt
ro a
ro t
st p
st mn
on za
on uj
on ry
et sl
ct jt
ct jr
ct yp
11 77
11 20
11 17
11 71
11 90
nd ex
ch kg
wp o
wp at
va q
Ġa x
Ġa te
Ġa ev
Ġa cu
Ġa pe
Ġa gz
Ġa edk
Ġa kz
Ġa bkq
Ġa hxd
Ġa ioq
Ġa lrl
ma zj
10 19
10 32
10 37
10 89
10 83
10 38
or h
or ld
it q
it ot
it sz
Ġand m
ta g
ta ct
ta un
ta ln
ta vl
lo zx
77 80
77 51
77 15
77 76
77 29
77 61
77 04
Ġ11 77
Ġ11 30
ev n
con tact
fi yw
tt nx
20 52
20 36
20 37
20 43
20 39
20 85
20 33
20 9254
46 3
46 57
46 63
46 44
46 33
46 28
46 92
70 1
70 8
70 17
70 48
70 90
70 39
70 75706
70 02
Ġw k
Ġw w
Ġw x
Ġw ex
Ġw lf
Ġw qw
Ġw fy
Ġw jk
Ġw ol
Ġw ka
Ġw srv
Ġw ita
Ġw lqo
Ġw nbi
Ġw orld
co jq
de hy
16 49
16 99
16 47
16 59
16 94
16 01
he so
Ġas do
rp z
17 5
17 11
17 52
17 40
17 55
17 67
17 69
ml ss
ml cf
57 9
57 57
57 56
57 58
57 41
57 65
57 33
57 35
12 71
12 41
12 109
12 64
Ġn j
Ġn q
Ġn w
Ġn as
Ġn ise
Ġn xur
Ġn rh
Ġn gp
Ġn bdp
Ġn mzp
Ġn ggc
Ġn uct
Ġn zfs
jb bk
jb dk
jb zu
19 6
19 00
19 15
19 50
19 44
19 67
19 59
19 01
up fo
Ġ4 101
Ġ4 110
Ġ4 706
Ġ4 33
Ġ4 29
Ġ4 246
Ġ4 222
Ġ4 494
Ġ4 979
Ġ4 130
Ġ4 525
Ġ4 802
Ġ4 327
Ġ4 364
Ġ4 550
Ġ4 826
Ġ4 479
Ġ4 302
Ġ4 893
646 6
Ġ9 113
Ġ9 63
Ġ9 653
Ġ9 38
Ġ9 617
Ġ9 206
Ġ9 360
Ġ9 478
Ġ9 006
Ġ9 467
Ġ9 438
Ġ9 320
Ġ9 525
Ġ9 802
Ġ9 362
Ġ9 509
Ġ9 369
Ġ9 779
Ġ9 404
Ġ9 486
Ġ9 771
Ġ9 751
Ġ9 135
Ġ9 471
Ġ9 187
Ġ9 674
Ġ9 775
Ġ3 171
Ġ3 73
Ġ3 572
Ġ3 123
Ġ3 540
Ġ3 709
Ġ3 406
Ġ3 360
Ġ3 663
Ġ3 668
Ġ3 533
Ġ3 640
Ġ3 721
Ġ3 327
Ġ3 509
Ġ3 369
Ġ3 482
Ġ3 434
Ġ3 895
Ġ3 987
ce f
ce bo
192 8
Ġe b
Ġe q
Ġe ba
Ġe sc
Ġe xd
Ġe sn
Ġe and
Ġe fy
Ġe lp
Ġe acv
168 0
168 8
00 9
do vp
do oe
hen q
73 13
73 96
73 48
73 86
73 41
73 33
73 08
73 87
73 676
73 04
73 5878
cm pr
52 46
52 70
52 57
52 19
52 55
52 76
52 87
13 77
13 44
13 85
13 28
13 83
to uch
36 40
36 71
36 32
36 44
36 68
36 92
36 84
36 94
ra sz
Ġ6 116
Ġ6 478
Ġ6 229
Ġ6 997
Ġ6 528
Ġ6 369
Ġ6 475
Ġ6 414
Ġ6 715
Ġ6 160
Ġ6 529
Ġ6 590
Ġ6 200
Ġ6 137
Ġ6 782
Ġ6 769
Ġ6 901
Ġ6 490
Ġ6 739
Ġ6 606
Ġ6 038
ba z
ba zt
ge g
ri rm
45 1
45 52
45 85
45 68
45 31
45 3125
Ġt x
Ġt z
Ġt ye
Ġt qh
Ġt pd
Ġt dk
Ġt stp
cu sv
di le
di yl
sc q
sc cc
Ġ5 107
Ġ5 123
Ġ5 109
Ġ5 89
Ġ5 172
Ġ5 652
Ġ5 450
Ġ5 406
Ġ5 533
Ġ5 528
Ġ5 464
Ġ5 986
Ġ5 908
Ġ5 984
Ġ5 907
Ġ5 451
49 51
49 43
49 85
49 33
49 62
49 03
49 91
49 04
49 3125
Ġ99 49
Ġ99 48
Ġ99 69
Ġ99 31
Ġ2 100
Ġ2 117
Ġ2 973
Ġ2 360
Ġ2 130
Ġ2 525
Ġ2 665
Ġ2 982
Ġ2 393
Ġ2 805
Ġ2 176
Ġ2 498
Ġ2 391
Ġ2 782
Ġ2 506
Ġ2 574
Ġ2 366
Ġ2 569
Ġ2 777
Ġ2 554
Ġ2 694
Ġ2 221
Ġ2 267
66 2
66 12
66 80
66 97
66 65
66 74
66 61
66 42
66 34
66 84
66 278
96 17
96 12
96 56
96 72
96 76
96 26
96 03
96 09
ay ib
80 82
80 26
80 33
80 68
80 60
80 81
80 83
Ġ32 53
Ġ32 32
Ġ32 51
Ġ32 39
sr dq
fo f
fo te
ag rz
ag jo
ag gp
ve sk
ve zw
ve fp
99 1
99 4
99 00
99 49
99 48
99 76
99 21
99 03
99 31
da ck
ab k
ab et
ab jj
53 10
53 57
53 47
53 75
53 41
53 25
53 29
53 81
53 34
53 35
53 584
Ġ1 497
Ġ1 413
Ġ1 878
Ġ1 528
Ġ1 560
Ġ1 514
Ġ1 860
47 2
47 16
47 80
47 18
47 41
47 95
22 16
22 48
22 55
22 21
22 79
quest ion
pe o
40 3
40 15
40 50
40 26
40 3694
98 9
98 70
98 13
98 99
98 54
98 97
98 63
98 30
98 14
98 60
Ġ8 129
Ġ8 93
Ġ8 766
Ġ8 663
Ġ8 223
Ġ8 152
Ġ8 802
Ġ8 770
Ġ8 268
Ġ8 430
Ġ8 575
Ġ8 990
Ġ8 772
Ġ8 703
Ġ8 821
Ġ8 571
Ġ8 460
Ġ8 191
Ġ8 453
Ġ8 998
Ġ8 262
Ġ8 824
Ġ8 991
sp k
48 10
48 49
48 66
48 71
48 15
48 63
48 26
48 39
48 27
48 94
48 88
131 8
116 2
116 9
tp i
tp mn
tp kz
tp xyu
78 8
78 11
78 70
78 76
78 23
78 79
56 49
56 53
56 82
56 58
56 30
56 39
56 02
Ġ116 9
55 17
55 19
55 52
55 53
55 14
55 03
86 17
86 57
86 13
86 96
86 58
86 33
86 09
86 475
86 1680
ty co
ty an
ty ir
rt d
rt we
71 82
71 41
71 84
sq se
sq vj
sq xz
sh a
sh z
sh are
72 82
72 30
72 60
72 59
72 5503
bu ys
bo d
bo fq
54 77
54 33
54 23
54 34
54 5262
32 16
32 66
32 53
32 32
32 51
32 39
37 20
37 12
37 13
37 51
37 41
37 62
716 72
75 45
75 98
75 83
75 91
51 8
51 48
51 50
51 4781
ke jt
120 9
110 4
110 9
ye u
15 0
15 86
15 95
Ġ46 28
Ġ46 31
82 80
82 98
82 68
82 62
82 4206
sm h
sm qx
sy gs
sy vv
18 10
18 57
18 78
Ġ40 15
Ġ40 50
Ġ40 93
104 1
ua xwh
ua kx
ls dk
qz pn
qz bx
Ġb c
Ġb m
Ġb vs
Ġb rnj
Ġb baz
Ġb shz
exam ple
Ġ39 57
Ġ39 52
src c
ĠĠ Ġ
za h
97 4
97 52
97 45
97 43
97 95
97 62
97 42
63 72
63 90
63 88
50 3
50 10
50 66
50 65
50 93
50 64
wm o
wm ep
com pile
76 20
76 16
76 54
76 58
24 46
24 70
24 32
24 30
24 23
24 4125
el ne
cd s
cd fu
26 57
26 99
26 32
26 27
26 94
Ġ98 97
Ġ98 30
0000 66
Ġd m
Ġd x
Ġd qk
Ġd sk
Ġd cp
Ġd tr
Ġd xk
Ġd nt
Ġd gpy
Ġd zbb
af mr
af sb
90 6
90 46
90 54
90 32
90 90
90 74
90 81
90 62
90 91
90 88
90 3436
vi om
616 0
lg jo
fb jj
43 40
43 18
43 85
43 81
43 34
43 02
58 46
58 19
58 32
58 97
58 91
58 38
su f
an qe
ow ta
ow tc
Ġ47 95
Ġ7 118
Ġ7 521
Ġ7 466
Ġ7 558
Ġ7 194
Ġ7 664
Ġ7 904
Ġ7 409
Ġ7 199
Ġ7 908
30 95
30 69
39 5
39 58
39 30
39 41
39 453125
41 57
41 40
tmp uaxwh
Ġ45 70
44 10
44 17
44 49
44 47
44 22
44 40
85 9
65 47
65 48
65 97
vc io
pan v
im ux
25 11
25 17
25 96
Ġwp ir
33 49
33 15
33 38
33 88
pu h
pu wl
Ġ54 57
Ġ54 26
67 90
ui ai
89 20
89 80
89 48
89 75
89 41
89 35
Ġ97 52
Ġ97 45
Ġ97 43
Ġ97 95
az uj
az kg
ic qu
14 16
14 48
14 21
14 28
1720 5347
qt bg
ĠĠĠĠ ĠĠĠ
pb dc
rf an
ef ef
ef dc
uh ja
mo qs
mo xie
me u
me js
me oi
pi j
pi pp
656 0
656 9
29 12
29 73
29 47
29 18
29 30
29 41
29 38
68 4
68 73
68 53
68 75
68 51
68 15
68 85
68 87
Ġ50 10
Ġ50 53
Ġ50 26
Ġ50 21
Ġ50 64
vg tn
bf f
jq br
60 20
60 66
60 78
60 33
60 74
60 95
60 38
Ġg b
Ġg ht
Ġg cc
Ġg hn
Ġg oj
Ġg cqb
Ġg ksr
Ġg pij
ec xz
93 88
Ġ52 19
Ġ52 18
Ġ52 76
Ġ52 25
Ġ52 42
Ġ52 91
ln wp
ln pi
74 43
74 2216
23 5
23 8
23 22
23 44
at go
at bdp
81 52
81 45
81 47
81 43
um ja
Ġ58 57
Ġ58 13
Ġ58 89
Ġ58 38
ut vx
766 2
766 4
zq v
Ġ55 77
Ġ55 17
dr go
Ġ63 40
zt n
zt xj
pk sf
pk zp
pk ly
pk oe
xd pi
Ġ12 71
Ġ12 85
448 8
540 5
ng qu
Ġx e
Ġx z
Ġx cat
Ġx bb
Ġx gd
Ġx gk
Ġx wup
Ġx rgj
Ġx lqz
Ġx geg
Ġx meu
552 3
Ġ62 50
Ġ62 85
59 4
59 19
59 00
59 66
59 51
64 19
64 52
64 18
64 25
95 56
95 6466
)); (
28 36
28 48
28 86
28 97
28 50
28 90
28 41
28 85
28 42
Ġ103 8
rm k
Ġ13 77
Ġ13 72
Ġ13 41
Ġ13 67
Ġ13 29
Ġ13 61
Ġ13 02
sf g
62 20
62 70
62 49
62 90
62 85
92 11
92 77
92 16
92 53
92 71
92 90
61 46
61 47
119 4
ia ox
Ġ38 98
Ġ38 14
ji ct
ji ou
us vf
us wu
Ġ57 99
Ġ57 98
Ġ57 65
Ġ57 93
Ġ57 35
42 82
42 89
42 74
42 391
79 46
79 17
79 45
79 40
79 42
79 4991
34 22
34 23
420 9
xv rx
83 17
83 12
83 53
gj x
gj gf
Ġ84 13
ha qx
ĠĠĠĠĠĠĠĠ ĠĠĠĠĠĠĠ
gz k
69 20
69 73
69 22
69 72
91 80
91 53
fz tt
wc r
hg b
hg n
hg pn
hg br
hg wo
qw hn
qw vq
rl hb
vv pl
474 008
sl hm
Ġ60 78
Ġ60 75
Ġ60 63
wq q
wq tp
wq cj
Ġ48 49
Ġ48 66
Ġ48 41
Ġ48 87
Ġ49 51
Ġ49 50
Ġ49 33
Ġ49 59
zx wq
84 11
84 18
fu v
sn li
sn yb
rz bi
rz yj
38 48
38 14
38 83
27 13
27 97
hy kf
hy gr
jh is
pf kf
pf pc
Ġ16 17
Ġ16 18
Ġ16 24
Ġ16 21
Ġ16 95
Ġ16 69
Ġ619 0
reg ul
mp pd
cn ku
ff nu
Ġ73 82
Ġ73 41
Ġ73 04
)))) #
wh hk
Ġr hd
Ġr jd
Ġr hhh
Ġr bny
Ġr hum
Ġ56 40
cr in
cr rk
cr kb
Ġ82 73
Ġ82 80
Ġ69 73
Ġ43 18
Ġ44 49
Ġ44 47
ij if
ij fg
kf sh
iv ity
iv rh
fa x
fa ln
fa cebo
ql rv
ract ivity
Ġ119 4
35 53
ox h
ox j
ox mt
87 20
87 45
xl q
Ġ23 36
Ġ23 49
Ġ23 22
om rr
617 4
617 6
617 9
dy f
dy ok
dy wq
dy qm
jm vp
jm kt
ki wa
ki uu
vw jb
yo it
yo an
yo zx
06 5726
qf vr
jl ts
Ġ42 70
fd in
fd sh
)), '
kq g
kq kr
mh um
ru do
Ġmy rm
360 4
jo ok
rr gz
94 19
94 37
94 18
94 43
94 25
zy gz
yu dt
Ġ30 39
Ġ30 69
uu yz
ft in
ft lu
ĠĠĠĠĠĠĠĠĠĠĠĠĠĠĠĠ ĠĠĠĠĠĠĠĠĠĠĠĠĠĠĠ
673 552
cw xm
88 13
88 54
88 76
88 42
88 79
cl sc
415 9
Ġ400 9
70757 569
al ph
fs zt
mr xr
mr ga
Ġ20 16
Ġ20 12
zp y
'); (
mu f
qk mc
qk tv
zo a
Ġ26 10
Ġ26 19
Ġ26 99
Ġ26 54
Ġ28 20
Ġ34 23
Ġ25 11
272 6
mon x
vp cm
jn ua
jn jv
jn nw
ux f
ux fl
Ġ80 70
Ġ80 68
Ġ80 81
Ġ80 59
Ġ80 83
Ġ80 84
jz f
jz pg
Ġ24 46
Ġ24 70
Ġ24 17
Ġ24 32
Ġ24 23
fm v
fm mc
gv h
gv zd
hw i
hw cm
hw js
vf um
vf ut
jj ns
od wz
kh ld
xq i
xq sq
fy ep
fy md
fy rk
jy tn
890 3
890 6
890 9
wz wmo
413 0
413 6
413 9
kl mx
kl qn
Ġma kd
gm pt
gm qi
bb cd
gg vp
iz iq
iz ey
np ra
Ġ15 49
Ġ15 80
'))); (
ig vs
tr yo
676 9
Ġ75 90
Ġ75 83
Ġ75 07
pp xq
Ġz no
Ġz boe
Ġz fdb
Ġz hxb
Ġz lma
Ġz rwd
Ġz uzw
Ġz tpi
Ġz suf
Ġz wcr
Ġz oxh
Ġz kqg
Ġz muf
Ġz gvh
870 3
Ġ92 16
Ġ92 39
ip ch
ip bo
qh c
Ġy f
Ġy t
Ġy y
Ġy neg
Ġy fbn
Ġy mik
Ġy zwu
Ġy rmk
Ġy jzf
Ġy xqi
Ġ19 75
Ġ19 15
Ġ19 67
705 5757
mm wi
mm xu
547 9
xm zv
Ġo ey
Ġo jk
Ġo smh
Ġo gjx
Ġo hgn
Ġo dyf
fg xf
Ġ18 57
ey zn
Ġ686 2
sg va
630 2
tmpu jk
tmpu qy
tmpu jvp
tmpu jbbk
rj tj
"))); (
go wd
oc vc
oc yu
pri vile
chq n
ĠĠĠĠĠĠĠĠĠĠĠĠĠĠĠĠĠĠĠĠĠĠĠĠĠĠĠĠĠĠĠĠ ĠĠĠĠĠĠĠĠĠĠĠĠĠĠĠĠĠĠĠĠĠĠĠĠĠĠĠĠĠĠĠ
Ġ498 5
fr it
glo be
ly f
nq sz
nq yy
Ġp v
Ġp w
Ġp nx
Ġp xci
Ġp vx
Ġp cae
Ġp mso
Ġp vaq
Ġp hgb
Ġp zpy
Ġp qhc
444 225
598 1
598 6
Ġ22 36
Ġ22 75
Ġ22 79
Ġk k
Ġk z
Ġk biz
Ġk aor
Ġk hoq
Ġk peo
Ġ31 54
enn z
')); (
mas onry
nk ve
Ġq vq
Ġq gfu
Ġq qbb
Ġq orh
Ġq abk
nx um
nx gb
tw ks
Ġ53 17
Ġ53 48
Ġ53 41
Ġu q
Ġu og
Ġu gjn
Ġu wpo
Ġu rpz
Ġu zah
Ġu oxj
ne hd
dj xt
ci vv
Ġh rp
Ġh ctx
Ġh dq
Ġh rzz
Ġh lbb
Ġh bff
Ġh zqv
Ġh uxf
Ġ90 90
Ġ90 74
Ġ90 92
Ġ90 91
634 008
vn jh
Ġi wt
Ġi ctq
Ġi yae
Ġi rtd
Ġi puh
Ġ29 53
Ġ29 47
Ġ29 30
Ġ35 53
282 3
Ġj fve
Ġj tuv
Ġj scq
Ġj xlq
Ġl p
Ġl z
Ġl api
Ġl hmc
Ġl jdj
Ġl itq
Ġl spk
Ġv d
Ġv php
Ġv lp
Ġv yl
Ġv rsr
Ġv xux
Ġv fof
Ġv bod
Ġv cds
Ġv wqq
Ġc les
Ġc ju
Ġc fmv
ul ky
686 9
pz xt
pz ry
742 1875
Ġ89 20
Ġ89 48
Ġf p
Ġf qvl
Ġf wje
Ġf roa
Ġf ztn
Ġf sfg
Ġf fuv
Ġf lyf
bq gl
Ġ95 56
yz sd
uk na
uk sl
uk ff
ĠĠĠĠĠĠĠĠĠĠĠĠĠĠĠĠĠĠĠĠĠĠĠĠĠĠĠĠĠĠĠĠĠĠĠĠĠĠĠĠĠĠĠĠĠĠĠĠĠĠĠĠĠĠĠĠĠĠĠĠĠĠĠĠ ĠĠĠĠĠĠĠĠĠĠĠĠĠĠĠĠĠĠĠĠĠĠĠĠĠĠĠĠĠĠĠĠĠĠĠĠĠĠĠĠĠĠĠĠĠĠĠĠĠĠĠĠĠĠĠĠĠĠĠĠĠĠĠ
hd ji
wy m
Ġ77 13
Ġ77 80
Ġ77 29
ax oh
mj ha
wu ed
Ġ78 11
Ġ78 73
Ġ78 68
Ġ78 79
hn gs
bd xt
bk ma
dl on
rh z
Ġ83 53
Ġ83 86
gi yk
Ġ36 11
Ġ68 36
Ġ68 66
Ġ68 80
Ġ68 53
Ġ68 75
Ġ68 58
382 1
ny li
ny fi
Ġ70 17
Ġ70 80
Ġ70 37
Ġ70 75
Ġ70 39
hb sm
rw da
rw os
rw kz
yw vl
mediaelement player
343 3
846 0
br qr
cb nv
tq ml
tq ul
Ġs bgw
Ġs loc
Ġs zoa
Ġ93 86
Ġ93 81
Ġ87 99
Ġ87 47
785 66278
278 2
278 3
278 42391
=ï¿½ï¿½ï¿½ï¿½/ï¿½ï¿½ï¿½ï¿½/ï¿½ï¿½ï¿½ï¿½/ï¿½ï¿½ï¿½ï¿½/ {
=ï¿½ï¿½ï¿½ï¿½\ï¿½ï¿½ï¿½ï¿½\ï¿½ï¿½ï¿½ï¿½\ï¿½ï¿½ï¿½ï¿½\ {
jt bl
mq ou
ol wu
qg qh
Ġm lo
Ġm kdc
du kq
du ly
dv lv
jd vq
jx bf
jx rl
jx nu
og fb
pd jy
pd qj
uw rt
uw ig
yv fc
yv dd
oy bo
wn hb
ym zi
ym zm
Ġ72 30
256 9
339 1
873 4
873 8
873 9
977 3
977 5
977 9
yx fv
Ġ96 20
Ġ96 12
Ġ96 32
vig a
jg de
jg ck
nh rw
qy fm
edk d
Ġ94 19
Ġex nk
hhh s
ĠĠĠĠĠĠĠĠĠĠĠĠĠĠĠĠĠĠĠĠĠĠĠĠĠĠĠĠĠĠĠĠĠĠĠĠĠĠĠĠĠĠĠĠĠĠĠĠĠĠĠĠĠĠĠĠĠĠĠĠĠĠĠĠĠĠĠĠĠĠĠĠĠĠĠĠĠĠĠĠĠĠĠĠĠĠĠĠĠĠĠĠĠĠĠĠĠĠĠĠĠĠĠĠĠĠĠĠĠĠĠĠĠĠĠĠĠĠĠĠĠĠĠĠĠĠĠĠ ĠĠĠĠĠĠĠĠĠĠĠĠĠĠĠĠĠĠĠĠĠĠĠĠĠĠĠĠĠĠĠĠĠĠĠĠĠĠĠĠĠĠĠĠĠĠĠĠĠĠĠĠĠĠĠĠĠĠĠĠĠĠĠĠĠĠĠĠĠĠĠĠĠĠĠĠĠĠĠĠĠĠĠĠĠĠĠĠĠĠĠĠĠĠĠĠĠĠĠĠĠĠĠĠĠĠĠĠĠĠĠĠĠĠĠĠĠĠĠĠĠĠĠĠĠĠĠ
248 8
400 9
649 0
798 8
830 4
830 8
947 6
wj xk
yr ty
yr ne
Ġke io
Ġke jv
Ġ66 80
Ġ66 55
516 4
945 4
ez lc
fl ag
fl qg
kz et
qo ua
qo ip
rg me
rg bc
vl vc
wr nd
Ġmo ro
Ġmo yx
ssh x
153 4
399 1
378 8
437 5
437 6
dn sx
dn us
hta e
ib ts
ka ld
ka hd
uj ri
uj ku
Ġld me
Ġld ci
Ġoo yw
Ġkx df
186 0
255 4
255 065726
349 6
590 7
590 8
dk wt
gt vr
io tp
qx au
qx cd
sz eg
tx ht
xc ic
xc xu
xi my
xi su
Ġ830 4
Ġ830 8
506 4716
tmpue xtm
gr sh
gr gg
jc rm
jv ct
kn qt
lm gs
lp lg
lx lu
lx cn
lx gc
oa vn
yf rp
yj do
Ġso wb
Ġso tf
Ġih cg
Ġih lv
Ġih dv
Ġod mj
Ġod nr
Ġod wv
Ġnp sp
Ġnp hm
Ġtb dh
Ġtb hn
216 9
263 5
263 8
263 9
650 1
bj db
bn fr
eu dy
gk di
ghw t
ix hd
mb xy
nu tm
nuk z
ry xk
sd zk
xjb o
yq ki
yq mk
yum i
zis w
Ġ& &
Ġza oq
Ġqt fi
Ġqt il
Ġpi hk
Ġqa ka
Ġux gd
Ġux bq
Ġ81 47
ani k
7447 66
7447 44
build ing
Ġoz by
Ġcj vw
217 9
520 8
520 1314
852 6
=ï¿½ï¿½ï¿½ï¿½\ï¿½ï¿½ï¿½ï¿½\ ï¿½ï¿½ï¿½ï¿½\{
hs wa
pon p
pun ch
qd jo
tv xz
yd un
zzy m
Ġll ld
Ġlo iw
Ġlo yd
Ġep na
Ġep ea
Ġup ta
Ġup hi
Ġss kg
Ġsu hy
Ġyo hj
Ġzp cp
Ġzp zh
Ġqk aw
Ġiz jw
Ġiz ea
Ġwq pa
Ġny bm
Ġny ah
Ġ88 13
8276 3671
Ġdr lu
Ġdr ue
marker clu
Ġzgm g
Ġqs ju
429 3
429 5
500 5
678 674
624 2
624 3
796 1
ai py
kb cd
oht d
rxq d
rxq g
sor table
sor ting
tf hb
tg xz
uf pp
xg yj
xr lf
yk xp
zj fz
Ġed vr
Ġed bn
Ġsr nv
Ġme hd
Ġqp hl
Ġqp gb
Ġfz rl
Ġuc bf
Ġku by
Ġaw xu
ita lic
Ġ360 4
Ġ533 4
Ġ533 5
2222 22
Ġbg ot
Ġbg xt
Ġbh xu
Ġbq ch
Ġbq ml
Ġbx wq
fbn f
3333 33
Ġgg mp
Ġxn rk
927 52
alp ha
Ġzw vf
Ġyn xv
tmpub sha
tmpub hwi
Ġpq io
Ġks my
Ġks da
Ġkv zq
Ġkv kl
Ġcb rl
Ġfri i
Ġfri y
ĠĠĠĠĠĠĠĠĠĠĠĠĠĠĠĠĠĠĠĠĠĠĠĠĠĠĠĠĠĠĠĠĠĠĠĠĠĠĠĠĠĠĠĠĠĠĠĠĠĠĠĠĠĠĠĠĠĠĠĠĠĠĠĠĠĠĠĠĠĠĠĠĠĠĠĠĠĠĠĠĠĠĠĠĠĠĠĠĠĠĠĠĠĠĠĠĠĠĠĠĠĠĠĠĠĠĠĠĠĠĠĠĠĠĠĠĠĠĠĠĠĠĠĠĠĠĠĠĠĠĠĠĠĠĠĠĠĠĠĠĠĠĠĠĠĠĠĠĠĠĠĠĠĠĠĠĠĠĠĠĠĠĠĠĠĠĠĠĠĠĠĠĠĠĠĠĠĠĠĠĠĠĠĠĠĠĠĠĠĠĠĠĠĠĠĠĠĠĠĠĠĠĠĠĠĠĠĠĠĠĠĠĠĠĠĠĠĠĠĠĠĠĠĠĠĠĠĠĠĠĠĠĠĠĠĠĠĠĠĠĠĠĠĠĠĠĠĠĠĠĠĠĠĠĠĠ ĠĠĠĠĠĠĠĠĠĠĠĠĠĠĠĠĠĠĠĠĠĠĠĠĠĠĠĠĠĠĠĠĠĠĠĠĠĠĠĠĠĠĠĠĠĠĠĠĠĠĠĠĠĠĠĠĠĠĠĠĠĠĠĠĠĠĠĠĠĠĠĠĠĠĠĠĠĠĠĠĠĠĠĠĠĠĠĠĠĠĠĠĠĠĠĠĠĠĠĠĠĠĠĠĠĠĠĠĠĠĠĠĠĠĠĠĠĠĠĠĠĠĠĠĠĠĠĠĠĠĠĠĠĠĠĠĠĠĠĠĠĠĠĠĠĠĠĠĠĠĠĠĠĠĠĠĠĠĠĠĠĠĠĠĠĠĠĠĠĠĠĠĠĠĠĠĠĠĠĠĠĠĠĠĠĠĠĠĠĠĠĠĠĠĠĠĠĠĠĠĠĠĠĠĠĠĠĠĠĠĠĠĠĠĠĠĠĠĠĠĠĠĠĠĠĠĠĠĠĠĠĠĠĠĠĠĠĠĠĠĠĠĠĠĠĠĠĠĠĠĠĠĠĠĠ
473 8
677 86475
618 3
833 5
950 527
ei pt
fzq i
fxm j
gto x
hu qy
kp pk
mz fy
qv ki
uq cl
uwp d
uxd k
yh ja
zzq d
zdr z
Ġnd jm
Ġta nd
Ġrp ps
Ġer mj
Ġcm ep
Ġcu cq
Ġye lj
Ġsm ju
Ġua vi
Ġvi pj
Ġlg oq
Ġim dv
Ġpk jp
Ġop gl
Ġmp yb
Ġom gy
Ġjm je
Ġvj ze
Ġzy jb
Ġfy gg
Ġmm we
Ġcy mb
Ġmj ex
inte ractivity
Ġag yv
Ġwi yr
Ġnh fk
Ġ478 7
Ġew rp
Ġ624 3
Ġtg nx
Ġtk xq
Ġbb su
Ġbe fi
Ġbk wr
Ġdk on
Ġdw en
Ġxh vi
Ġxq eo
Ġrr cp
40625 000
Ġze um
Ġzj ub
Ġzz se
Ġyj ww
Ġyv fi
Ġkm dr
Ġqb re
Ġqe jm
Ġug ke
Ġuo on
Ġhb cg
Ġian x
Ġiyt f
Ġjdp s
Ġlb gb
Ġvt jz
Ġmz ss
ibs j
013 455
146 5
151 456
249 2
356 8
3789 80
596 823
6757 4541
655 153
812 50
854 2
8466 28
916 1
9757 3023
939 2
9000 81
933 1
aj os
aq dp
aer a
asm x
ajj k
akv k
bth l
bla u
bmt d
bpy k
cij k
cjz c
cir cle
dw fj
dba k
dge x
dzy c
dgh b
ek gs
ew xb
ewp r
eva k
ehy u
eiq u
eal k
fh xo
fcu g
fvg t
fng j
fsf y
fhg c
flw r
ghp o
gap y
gdi j
grf j
gbm r
gux z
gfr x
hz cx
hue q
hfo h
hji g
hki p
hnx h
hxz v
hmq i
iu je
ill t
iun g
iaz w
irf h
iwh q
iib w
jil h
jic q
jzt d
kw ys
ket b
kch y
ktm r
klf g
kvb h
kut k
kpk y
khy s
kxl r
lad w
lpo h
lpe m
lza f
ljo g
lpz b
mfo s
mvv w
mzd s
msl k
mcn l
mbb x
mgd m
mbl z
nay f
nve g
nls l
naz q
nsf h
nem z
nrl m
nih n
nbl x
njk b
oet v
ots y
oui g
odr k
pdo a
pfo u
prefere nces
pqa i
pxk b
qse a
qon a
qil n
qlg i
qop v
qwc w
qhg f
qig x
qnj d
qbr k
qez n
rrm t
rji i
rkf t
rvj t
sca y
sdb x
sjq f
sbi k
sjy q
tu yp
tta l
trp j
tww t
tve s
tcd k
tnp s
tgh i
tjw r
tlw k
uim i
uvf n
uzb n
vet q
vwh r
wed b
wep d
wok l
wzx w
wuk g
wkz c
xja n
xck c
xsp y
xbu s
xef j
xzq g
ywp m
ylg g
yih d
ydp m
yxk c
yxu z
yvn m
yxz g
ymj u
zpo b
zmy f
zhe y
zsi r
zwe g
zlg q
zkl h
zsg n
zgo e
znj r
zhb z
zrg a
zsd w
Ġle ks
Ġar fr
Ġit pn
Ġif bn
Ġtt xz
Ġur kc
Ġra is
Ġri eg
Ġdi ef
Ġjs zx
Ġsq wr
Ġdb bj
Ġpu kv
Ġln zd
Ġxd ca
Ġvv uf
Ġrz zb
Ġflo k
Ġund d
Ġqnd i
Ġvw sv
Ġys jg
Ġft gc
Ġcw km
Ġjn hi
Ġupn n
Ġcs bz
Ġate x
Ġaev w
Ġape q
Ġagz r
Ġakz r
7075706 4787
Ġwex u
Ġwlf l
Ġwqw o
Ġwfy l
Ġwol x
Ġwka i
12109 375
Ġnas b
Ġnrh v
Ġngp q
Ġ433 4
Ġ938 8
Ġ373 0
Ġeba u
Ġesc s
Ġexd j
Ġesn n
Ġefy j
Ġelp c
Ġtye o
Ġtqh u
Ġtpd t
Ġtdk m
Ġ589 1
4943 4644
Ġ893 5
tpxyu q
Ġbvs w
Ġdqk h
Ġdsk z
Ġdcp l
Ġdtr c
Ġdxk v
Ġdnt c
903436 24
17205347 42
moxie js
Ġght r
Ġgcc y
Ġghn u
Ġgoj f
Ġxbb q
Ġxgd k
Ġxgk p
regul ar
Ġrhd z
Ġrjd n
facebo ok
70757569 71672
alph abet
Ġoey x
Ġojk w
tmpujk nj
tmpuqy yn
tmpujvp h
privile ge
Ġpnx i
Ġpvx a
Ġqvq v
Ġuog u
Ġhdq r
Ġiwt l
Ġvlp v
Ġvyl k
Ġcju g
255065726 36
82763671 875
markerclu ster
