{"<s>":0,"<pad>":1,"</s>":2,"<unk>":3,"<mask>":4,"!":5,"\"":6,"#":7,"$":8,"%":9,"&":10,"'":11,"(":12,")":13,"*":14,"+":15,",":16,"-":17,".":18,"/":19,"0":20,"1":21,"2":22,"3":23,"4":24,"5":25,"6":26,"7":27,"8":28,"9":29,":":30,";":31,"<":32,"=":33,">":34,"?":35,"@":36,"A":37,"B":38,"C":39,"D":40,"E":41,"F":42,"G":43,"H":44,"I":45,"J":46,"K":47,"L":48,"M":49,"N":50,"O":51,"P":52,"Q":53,"R":54,"S":55,"T":56,"U":57,"V":58,"W":59,"X":60,"Y":61,"Z":62,"[":63,"\\":64,"]":65,"^":66,"_":67,"`":68,"a":69,"b":70,"c":71,"d":72,"e":73,"f":74,"g":75,"h":76,"i":77,"j":78,"k":79,"l":80,"m":81,"n":82,"o":83,"p":84,"q":85,"r":86,"s":87,"t":88,"u":89,"v":90,"w":91,"x":92,"y":93,"z":94,"{":95,"|":96,"}":97,"~":98,"¡":99,"¢":100,"£":101,"¤":102,"¥":103,"¦":104,"§":105,"¨":106,"©":107,"ª":108,"«":109,"¬":110,"®":111,"¯":112,"°":113,"±":114,"²":115,"³":116,"´":117,"µ":118,"¶":119,"·":120,"¸":121,"¹":122,"º":123,"»":124,"¼":125,"½":126,"¾":127,"¿":128,"À":129,"Á":130,"Â":131,"Ã":132,"Ä":133,"Å":134,"Æ":135,"Ç":136,"È":137,"É":138,"Ê":139,"Ë":140,"Ì":141,"Í":142,"Î":143,"Ï":144,"Ð":145,"Ñ":146,"Ò":147,"Ó":148,"Ô":149,"Õ":150,"Ö":151,"×":152,"Ø":153,"Ù":154,"Ú":155,"Û":156,"Ü":157,"Ý":158,"Þ":159,"ß":160,"à":161,"á":162,"â":163,"ã":164,"ä":165,"å":166,"æ":167,"ç":168,"è":169,"é":170,"ê":171,"ë":172,"ì":173,"í":174,"î":175,"ï":176,"ð":177,"ñ":178,"ò":179,"ó":180,"ô":181,"õ":182,"ö":183,"÷":184,"ø":185,"ù":186,"ú":187,"û":188,"ü":189,"ý":190,"þ":191,"ÿ":192,"Ā":193,"ā":194,"Ă":195,"ă":196,"Ą":197,"ą":198,"Ć":199,"ć":200,"Ĉ":201,"ĉ":202,"Ċ":203,"ċ":204,"Č":205,"č":206,"Ď":207,"ď":208,"Đ":209,"đ":210,"Ē":211,"ē":212,"Ĕ":213,"ĕ":214,"Ė":215,"ė":216,"Ę":217,"ę":218,"Ě":219,"ě":220,"Ĝ":221,"ĝ":222,"Ğ":223,"ğ":224,"Ġ":225,"ġ":226,"Ģ":227,"ģ":228,"Ĥ":229,"ĥ":230,"Ħ":231,"ħ":232,"Ĩ":233,"ĩ":234,"Ī":235,"ī":236,"Ĭ":237,"ĭ":238,"Į":239,"į":240,"İ":241,"ı":242,"Ĳ":243,"ĳ":244,"Ĵ":245,"ĵ":246,"Ķ":247,"ķ":248,"ĸ":249,"Ĺ":250,"ĺ":251,"Ļ":252,"ļ":253,"Ľ":254,"ľ":255,"Ŀ":256,"ŀ":257,"Ł":258,"ł":259,"Ń":260,"le":261,"ar":262,"am":263,"..":264,"../":265,"../../":266,"se":267,"ca":268,"in":269,"</":270,"ro":271,"st":272,"on":273,"))":274,"et":275,"par":276,"param":277,"Ġ-":278,"ct":279,"lu":280,"11":281,"nd":282,"ch":283,"re":284,"rom":285,"from":286,"wp":287,"va":288,"Ġa":289,"hp":290,"ll":291,"ho":292,"php":293,"en":294,"lue":295,"value":296,"met":297,"hod":298,"method":299,"ion":300,"ma":301,"10":302,"lect":303,"select":304,"or":305,"ame":306,"name":307,"ad":308,"ent":309,"../../../../":310,"id":311,"Ġ(":312,"min":313,"it":314,"Ġand":315,"admin":316,"ta":317,"lo":318,"li":319,"te":320,"tab":321,"77":322,"table":323,"po":324,"Ġfrom":325,"),":326,"Ġ11":327,"ema":328,"><":329,"post":330,"></":331,"gs":332,"ev":333,"call":334,"params":335,"if":336,"tion":337,"methodname":338,"methodcall":339,"Ġ10":340,"my":341,"/?":342,"ull":343,"ndar":344,"=/":345,"null":346,"char":347,"con":348,"sch":349,"schema":350,"rou":351,"ents":352,"rest":353,"lendar":354,"calendar":355,"events":356,"route":357,"fi":358,"tt":359,"20":360,"ction":361,"ser":362,"46":363,"70":364,"for":365,"user":366,"||":367,"Ġw":368,"co":369,"file":370,"de":371,"16":372,"he":373,"action":374,")||":375,"ap":376,"--":377,"Ġas":378,"ord":379,"rp":380,"17":381,"chr":382,"ed":383,"users":384,"Ġ'":385,")))":386,"((":387,"er":388,"edit":389,"ml":390,"cation":391,"ep":392,"57":393,"pli":394,"plication":395,"logs":396,"7770":397,"='":398,"Ġtable":399,"sle":400,"sleep":401,"get":402,"12":403,"Ġn":404,"xml":405,"jb":406,"../../../../../../../../":407,"'='":408,"application":409,"sjb":410,"Ġ<":411,"cast":412,"Ġwhe":413,"Ġwhere":414,"cont":415,"content":416,"rpc":417,"xmlrpc":418,"blogs":419,"usersblogs":420,"getusersblogs":421,"19":422,"up":423,"-(":424,"Ġin":425,")))))":426,"ings":427,"ifnull":428,"Ġnchar":429,"mid":430,"Ġli":431,"sett":432,"settings":433,"mit":434,"Ġ4":435,"Ġifnull":436,"=../../../../../../../../":437,"mation":438,"formation":439,"Ġinformation":440,"=../../../../../../../../../":441,"il":442,"646":443,"Ġ9":444,"Ġlimit":445,"Ġ3":446,"gin":447,"ce":448,"192":449,"//":450,"pa":451,"7770646":452,"77706462":453,"ref":454,"))>":455,"]=":456,"171":457,"Ġe":458,"ur":459,"168":460,"Ġ101":461,"load":462,"htt":463,"http":464,"00":465,"113":466,"do":467,"hen":468,"73":469,"ss":470,"cm":471,"plu":472,"plugin":473,"ja":474,"mn":475,"lumn":476,"column":477,"Ġ111":478,"plugins":479,"52":480,"tables":481,"13":482,"cmd":483,"etc":484,"ck":485,"ww":486,"to":487,"url":488,"://":489,"des":490,"36":491,"un":492,"ue":493,"pt":494,"ra":495,"Ġ6":496,"ba":497,"uest":498,"ge":499,"ri":500,"45":501,"Ġt":502,"aja":503,"ajax":504,"cu":505,"di":506,"inc":507,"inclu":508,"includes":509,"sc":510,"Ġ5":511,"¿½":512,"ï¿½":513,"49":514,"scri":515,"129":516,"script":517,"upload":518,"Ġ99":519,"101":520,"Ġ2":521,"66":522,"conf":523,"572":524,"loca":525,"local":526,")+":527,"back":528,"backup":529,"ï¿½ï¿½":530,"96":531,"ay":532,"Ġ114":533,"757":534,"sit":535,"Ġ/":536,"80":537,"ts":538,"Ġ32":539,"lse":540,"sr":541,"fo":542,"111":543,"112":544,"ag":545,"36572":546,"75736572":547,"Ġ0":548,"test":549,"Ġend":550,"Ġor":551,"Ġelse":552,"cat":553,"ve":554,"99":555,"da":556,"case":557,"Ġwhen":558,"Ġthen":559,"ab":560,">&":561,"th":562,"var":563,"53":564,"dow":565,"Ġ110":566,"Ġ115":567,"ie":568,"pre":569,"Ġ1":570,"email":571,"47":572,"22":573,"quest":574,"request":575,"lib":576,"form":577,"----":578,"pe":579,"40":580,"fromname":581,"fromemail":582,"force":583,"98":584,"www":585,"Ġ8":586,"ple":587,"sp":588,"48":589,"131":590,"Ġ100":591,"116":592,"tp":593,"che":594,"path":595,"78":596,"56":597,"ment":598,"js":599,"man":600,"ordpre":601,"ordpress":602,"eta":603,"ils":604,"\":":605,"\"}":606,"={":607,"deta":608,"refurl":609,"refdeta":610,"requests":611,"={\"":612,"refdetails":613,"docu":614,"columns":615,"Ġ116":616,"data":617,"=\"":618,"55":619,"86":620,"107":621,"document":622,"ty":623,"77705":624,"7573657273":625,"rt":626,"can":627,"log":628,"ache":629,"apache":630,"canto":631,"ager":632,"manager":633,"tm":634,"71":635,"nload":636,"download":637,"spath":638,"abspath":639,"ex":640,"\":\"":641,"cli":642,"client":643,"sq":644,"vid":645,"sh":646,"/&":647,"wordpress":648,"72":649,"bu":650,"bo":651,"54":652,"32":653,"37":654,"106":655,"716":656,"75":657,"lert":658,"si":659,"page":660,"so":661,"51":662,"la":663,"code":664,"focu":665,"we":666,"ke":667,"ver":668,"guest":669,"\":\"\"}":670,"type":671,"db":672,"120":673,"110":674,"ye":675,"alert":676,"focus":677,"ok":678,"15":679,"100":680,"Ġ46":681,"hell":682,"82":683,"sm":684,"sy":685,"18":686,"Ġ40":687,"118":688,"104":689,"host":690,"sql":691,"ua":692,");":693,"Ġon":694,"Ġ41":695,"ls":696,"bug":697,"debug":698,"qz":699,"Ġb":700,"ples":701,"exam":702,"cook":703,"cookie":704,"examples":705,"Ġ39":706,"wd":707,"ing":708,"ae":709,"smtp":710,"uploads":711,"web":712,"yay":713,"src":714,"yaysmtp":715,"ĠĠ":716,"za":717,"97":718,"63":719,"50":720,"wm":721,"=<":722,"non":723,"nonce":724,"fig":725,"config":726,"vts":727,"com":728,"inde":729,"index":730,"mail":731,"76":732,"sa":733,"kit":734,"yew":735,"24":736,"el":737,"mqz":738,"mza":739,"undar":740,"evmqz":741,"unh":742,"aymza":743,"formbo":744,"webkit":745,"yewevmqz":746,"undaryewevmqz":747,"formboundaryewevmqz":748,"webkitformboundaryewevmqz":749,"webkitformboundaryewevmqzunh":750,"Ġsrc":751,"122":752,"ran":753,"shell":754,"au":755,"usr":756,"cd":757,"mysql":758,"26":759,"rect":760,"direct":761,"Ġ98":762,"0000":763,"bin":764,"Ġaction":765,"Ġd":766,"ile":767,"af":768,"pro":769,"\"&":770,"90":771,"rovid":772,"maile":773,"rprovid":774,"]=\"":775,"localhost":776,"forcefromname":777,"forcefromemail":778,"save":779,"mailerprovid":780,"mailerprovider":781,",(":782,"vi":783,"616":784,"dev":785,"ï¿½ï¿½ï¿½ï¿½":786,"=-":787,"Ġ102":788,"Ġ104":789,"Ġ108":790,"Ġ105":791,"lg":792,"123":793,"spo":794,"Ġname":795,"Ġform":796,"dispo":797,"sition":798,"------":799,"disposition":800,"fb":801,"Ġchar":802,"43":803,"58":804,"su":805,"site":806,"an":807,"ow":808,"105":809,"Ġselect":810,"pass":811,"Ġby":812,"706":813,"Ġid":814,"Ġ47":815,"ual":816,"Ġdual":817,"str":818,"rand":819,"der":820,"no":821,"Ġ7":822,"val":823,"unt":824,"30":825,"39":826,"1337":827,"Ġcolumn":828,"dlg":829,"ist":830,"concat":831,"41":832,"tmp":833,")--":834,"login":835,"\";":836,"count":837,"ot":838,"Ġun":839,"Ġ45":840,"xt":841,"115":842,"Ġ107":843,"Ġunion":844,"109":845,"Ġlike":846,"..%":847,"info":848,"sub":849,"696":850,"ac":851,"!=":852,"))!=":853,"ima":854,"httpd":855,"44":856,"85":857,"65":858,"102":859,"image":860,"string":861,"vc":862,"as":863,"ndor":864,"vendor":865,"pan":866,"im":867,"000":868,"pwd":869,"seo":870,"sib":871,"25":872,"Ġwp":873,"Ġnull":874,"row":875,"Ġwpdb":876,"mple":877,"Ġorder":878,"simple":879,"))),":880,"java":881,"7670":882,"wow":883,"xx":884,"33":885,"7871":886,"767071":887,"art":888,"heart":889,"df":890,"pu":891,"elt":892,"ftp":893,"compan":894,"company":895,"Ġ54":896,"8000":897,"reso":898,"scripts":899,"proc":900,"67":901,"ui":902,"Ġ\"":903,"Ġonfocus":904,"89":905,"os":906,"172":907,"ars":908,"Ġ97":909,"ces":910,"resour":911,"az":912,"757365725":913,"($":914,"/../../../../../../../../":915,"datatables":916,"rank":917,"resources":918,"//\"&":919,"redirect":920,"dir":921,"res":922,"||(":923,"ror":924,"ic":925,"lf":926,"14":927,"fla":928,"1720":929,"(*":930,"+/":931,"error":932,"qt":933,"ĠĠĠĠ":934,"Ġcount":935,"send":936,"Ġ117":937,"Ġ61":938,"Ġ112":939,"pb":940,"rf":941,"devi":942,"top":943,"pid":944,"pdf":945,"uid":946,"tofocus":947,"cdm":948,"full":949,"self":950,"brow":951,"fvts":952,"gtm":953,"ktop":954,"lvts":955,"pvid":956,"wma":957,"caction":958,"ctra":959,"rec":960,"orid":961,"idn":962,"refts":963,"desktop":964,"gears":965,"sitorid":966,"wmcaction":967,"wmctra":968,"visitorid":969,"siteid":970,"device":971,"fullref":972,"browser":973,"gtms":974,"wmctrack":975,"upp":976,")||(":977,"ef":978,"uh":979,"eval":980,"submit":981,"Ġlog":982,"testcookie":983,"syst":984,"mo":985,"me":986,"pi":987,"ity":988,"656":989,"29":990,"68":991,"Ġ50":992,"lin":993,"ter":994,"passwd":995,")</":996,"vg":997,"vie":998,"istra":999,"view":1000,"bf":1001,"jq":1002,"60":1003,"Ġg":1004,"all":1005,"win":1006,"dist":1007,"';":1008,"..\\":1009,"864":1010,"')":1011,"editor":1012,"dows":1013,"windows":1014,"ec":1015,"1536":1016,"autofocus":1017,"93":1018,"Ġ52":1019,"08":1020,"2024":1021,"css":1022,"Ġ|":1023,"ech":1024,"ln":1025,"echo":1026,"74":1027,"23":1028,"vb":1029,"ht":1030,"root":1031,"(\"":1032,"at":1033,"81":1034,"fromchar":1035,"fromcharcode":1036,"um":1037,"Ġ58":1038,"']":1039,"['":1040,"ut":1041,"($_":1042,"766":1043,"zq":1044,"Ġ55":1045,"dr":1046,"ini":1047,"Ġ63":1048,"zt":1049,"pk":1050,"))--":1051,"img":1052,"ld":1053,"lah":1054,"\"=\"":1055,"373":1056,"=(":1057,"21":1058,"able":1059,"652":1060,"xd":1061,"Ġ12":1062,"director":1063,"448":1064,"fileview":1065,")>&":1066,"540":1067,"na":1068,"ng":1069,"tor":1070,"Ġx":1071,"117":1072,"552":1073,"Ġ62":1074,"59":1075,"set":1076,"64":1077,"12345":1078,"pbzq":1079,"sets":1080,"))=":1081,"assets":1082,"Ġall":1083,"95":1084,"is":1085,"126":1086,"cfb":1087,"));":1088,"chrom":1089,"7389":1090,"fbb":1091,"1720540":1092,"5527389":1093,"chrome":1094,"1720540192":1095,"pupp":1096,"administra":1097,"puppet":1098,"administrator":1099,"\\\"":1100,"ure":1101,"172106":1102,"Ġ67":1103,"rdb":1104,"28":1105,"Ġ192":1106,"Ġ1337":1107,"0448":1108,"Ġ103":1109,"1721060448":1110,"+-":1111,"Ġ109":1112,"..\\..\\":1113,"gran":1114,"ee":1115,"ere":1116,"vagran":1117,"vagrant":1118,"rm":1119,"orac":1120,"oracle":1121,"1111":1122,"/../../../../../../../../../../":1123,"ansib":1124,"ansible":1125,"Ġ(((":1126,"azure":1127,"(*)":1128,"azureuser":1129,"op":1130,"sx":1131,"Ġ13":1132,"adm":1133,"sf":1134,"]=\"<":1135,"50000":1136,"aa":1137,"62":1138,"ybf":1139,"key":1140,"ncat":1141,"ybfg":1142,"qp":1143,"746":1144,"Ġ\"}":1145,"92":1146,"sys":1147,"kr":1148,"fiel":1149,"field":1150,"61":1151,"7777":1152,"sfqp":1153,"be":1154,"119":1155,"ia":1156,"Ġ38":1157,"ji":1158,"stre":1159,"ron":1160,"bv":1161,"us":1162,"Ġ57":1163,"schemata":1164,"bvpk":1165,"inct":1166,"distinct":1167,"eric":1168,"Ġnum":1169,"html":1170,"Ġnumeric":1171,"cess":1172,"42":1173,"sock":1174,"+\"":1175,"79":1176,"34":1177,"em":1178,"Ġdistinct":1179,"420":1180,"xv":1181,");+":1182,"\";+":1183,"mi":1184,"roup":1185,"ster":1186,"cvb":1187,"pno":1188,"5275":1189,"ï¿½ï¿½ï¿½ï¿½ï¿½ï¿½ï¿½ï¿½":1190,"pnoo":1191,"fc":1192,"cvbn":1193,"system":1194,">/":1195,"Ġ>/":1196,"/%":1197,"83":1198,"prom":1199,"prompt":1200,"03":1201,"Ġsleep":1202,"comm":1203,"\")":1204,"es":1205,"gj":1206,"Ġ84":1207,"sysib":1208,"sysibm":1209,"ha":1210,"tes":1211,"xtf":1212,"<?":1213,"?>":1214,"stpe":1215,"75706":1216,"Ġ*":1217,"wa":1218,"66696":1219,"ĠĠĠĠĠĠĠĠ":1220,"=%":1221,"gz":1222,"))+":1223,"69":1224,"lxtf":1225,"ns":1226,"lt":1227,"91":1228,"fz":1229,"wc":1230,"hg":1231,"rfp":1232,"yrfp":1233,"246":1234,"1882":1235,"ate":1236,"base":1237,"321":1238,"qw":1239,"stream":1240,"rl":1241,"Ġ@":1242,"114":1243,"unity":1244,"uiwc":1245,"community":1246,"vv":1247,"Ġ$":1248,"Ġls":1249,"refere":1250,"123456":1251,"mar":1252,"Ġap":1253,"[]":1254,"aed":1255,"oct":1256,"vs":1257,"Ġfile":1258,"afef":1259,"notes":1260,"gjuh":1261,"referer":1262,"Ġapplication":1263,"[]\";":1264,"octet":1265,"Ġfilename":1266,"cc":1267,"..ï¿½ï¿½":1268,"&_":1269,"euh":1270,"euhd":1271,"zd":1272,"Ġcase":1273,"5429":1274,">\"&":1275,"))//\"&":1276,"535":1277,"474":1278,"sl":1279,"ith":1280,"108":1281,"Ġ60":1282,"Ġconcat":1283,"main":1284,"teg":1285,"wq":1286,"Ġ</":1287,"ener":1288,"iia":1289,"Ġ48":1290,"Ġonerror":1291,"iiaj":1292,"len":1293,"Ġ49":1294,"elen":1295,"65225":1296,"xp":1297,"9706":1298,"pg":1299,"zx":1300,"Ġ85":1301,"categ":1302,"ies":1303,"nghg":1304,"rlzd":1305,"categor":1306,"'))":1307,"sion":1308,")//\"&":1309,"Ġwordpress":1310,"ext":1311,"\"))":1312,"84":1313,"domain":1314,"link":1315,"('":1316,"*(":1317,"Ġ2024":1318,"hpvv":1319,"653":1320,"fu":1321,"sn":1322,"erty":1323,"7581":1324,"rz":1325,"222":1326,"Ġis":1327,"adow":1328,")*":1329,"isq":1330,"38":1331,"flo":1332,"Ġ;":1333,"27":1334,"hy":1335,"vz":1336,"systable":1337,"Ġgroup":1338,"floor":1339,"systables":1340,"\\%":1341,"jh":1342,"opt":1343,"pf":1344,"Ġ16":1345,"directory":1346,"\",":1347,"ms":1348,"Ġ619":1349,"lwq":1350,"bash":1351,"access":1352,"lwqg":1353,"Ġ>&":1354,"reg":1355,"3030":1356,"ftpd":1357,"\");":1358,"Ġre":1359,"idye":1360,"dbms":1361,"/../../../../../../../../../../../../":1362,"mp":1363,"int":1364,"qwerty":1365,"fun":1366,"6340":1367,"function":1368,"cn":1369,"ff":1370,"uc":1371,"und":1372,"4697":1373,"hello":1374,"723":1375,"ary":1376,"isqn":1377,"Ġ73":1378,"onna":1379,"))))":1380,"wh":1381,"')))":1382,"wge":1383,"Ġ17":1384,"wgeb":1385,"pr":1386,"pat":1387,"open":1388,"..ï¿½ï¿½..ï¿½ï¿½":1389,"657":1390,"ih":1391,"tzt":1392,"Ġr":1393,"ctx":1394,")))--":1395,"Ġ59":1396,"6655":1397,"tztk":1398,"Ġ56":1399,"cr":1400,"Ġcast":1401,")+(":1402,"(*),":1403,"drith":1404,"ctxsys":1405,"drithsx":1406,"Ġ82":1407,"Ġ8373":1408,"xdsl":1409,"sions":1410,"vzzt":1411,"jhld":1412,"cnf":1413,"by":1414,"Ġ69":1415,"tern":1416,"bit":1417,"profile":1418,"Ġbase":1419,"::":1420,"sho":1421,"))||(":1422,"Ġ43":1423,"fuck":1424,"conver":1425,"Ġ44":1426,"icji":1427,"directorist":1428,"12345678":1429,"convert":1430,"ij":1431,"kf":1432,"envi":1433,"buil":1434,"environ":1435,")>":1436,"iv":1437,"ensions":1438,"extensions":1439,"fa":1440,"ql":1441,"ract":1442,"rtcode":1443,"shortcode":1444,"svg":1445,"Ġ119":1446,"7054":1447,"shadow":1448,"ucxv":1449,"Ġ51":1450,"\":\"'":1451,"ractvalue":1452,"45535":1453,"Ġ121":1454,"));</":1455,"35":1456,"iq":1457,"pagebuil":1458,"pattern":1459,"pagebuilder":1460,")#":1461,"Ġint":1462,"ger":1463,"ox":1464,"))::":1465,"idjs":1466,"709":1467,"Ġonload":1468,"validjs":1469,"87":1470,"xl":1471,"ihno":1472,"973":1473,"lay":1474,"Ġ23":1475,"om":1476,"500000000":1477,"hash":1478,"450":1479,"tmiv":1480,"eees":1481,"uer":1482,"uery":1483,"\")))":1484,"Ġ9932":1485,"5000000":1486,"whmp":1487,"9113":1488,"qnd":1489,"itts":1490,"iqve":1491,"31":1492,"617":1493,"756":1494,"dy":1495,"âĢ":1496,"Ġ=":1497,"jm":1498,"ki":1499,"mt":1500,"qndq":1501,"5059":1502,"mod":1503,"dd":1504,"vw":1505,"xxw":1506,"bi":1507,"sxxw":1508,"4674":1509,"1610":1510,"Ġ1014":1511,"73709":1512,"4073709":1513,"551610":1514,"auxx":1515,"2619":1516,"777777":1517,"Ġ844674":1518,"4073709551610":1519,"Ġ8446744073709551610":1520,"mkf":1521,"yo":1522,"|/":1523,"stat":1524,"ifo":1525,"cmjq":1526,"494":1527,"mkfifo":1528,"06":1529,"qf":1530,"206":1531,"jl":1532,"lc":1533,"sec":1534,"Ġ42":1535,"406":1536,"uln":1537,"Ġext":1538,"458":1539,"uana":1540,"marij":1541,"Ġextractvalue":1542,"marijuana":1543,"fd":1544,"ĠâĢ":1545,"184":1546,"ulns":1547,"Ġ33":1548,"Ġ216":1549,"Ġ(\"":1550,"Ġ((\"":1551,"Ġ5049":1552,"kikr":1553,"=..%":1554,"je":1555,"Ġ('":1556,"4691":1557,">\";+":1558,"firef":1559,"46494":1560,"6696":1561,"479706":1562,"17205429":1563,"vgmt":1564,"Ġ((('":1565,"2466696":1566,"lcjq":1567,"firefox":1568,"47970653":1569,"1720542970":1570,")),":1571,"strings":1572,"\"+":1573,"+=":1574,"+}":1575,"+($_":1576,";+}":1577,">>":1578,"kq":1579,"{+":1580,")){+":1581,"die":1582,"2673":1583,"']);+":1584,"'])){+":1585,"isset":1586,"+\"<?":1587,"?>\"+":1588,"+=+($_":1589,";+}?>\"+":1590,">>+/":1591,";+}?>\"+>>+/":1592,"mh":1593,"ru":1594,"Ġmy":1595,"series":1596,"urity":1597,"upper":1598,"Ġgener":1599,"security":1600,"Ġgenerate":1601,"vj":1602,"360":1603,"10500":1604,"jlpb":1605,"Ġ2167":1606,"+\\\"":1607,">\\":1608,"jo":1609,"rr":1610,"Ġrdb":1611,"def":1612,"226":1613,"61646":1614,"17210500":1615,">\\\";+":1616,"1721050086":1617,"94":1618,"are":1619,"497":1620,"line":1621,"ĠâĢĵ":1622,"/(":1623,"pla":1624,"zy":1625,"qa":1626,"ard":1627,"board":1628,"jquery":1629,"gen":1630,"xss":1631,"yu":1632,"json":1633,"hypf":1634,"nc":1635,"ys":1636,"Ġdbms":1637,"uiop":1638,"(\"/":1639,"qwertyuiop":1640,"Ġ30":1641,"Ġ3233":1642,"ault":1643,"affz":1644,"default":1645,"place":1646,"bm":1647,"dc":1648,"uu":1649,"master":1650,"text":1651,"xxd":1652,"keygen":1653,"byrr":1654,"Ġsysibm":1655,"itcount":1656,"1757":1657,"1212":1658,"379":1659,"Ġbitcount":1660,"binary":1661,"Ġ6384":1662,"aaaa":1663,"bitstring":1664,"ft":1665,"Ġjson":1666,"afrm":1667,"fsock":1668,"per":1669,"Ġde":1670,"Ġfunction":1671,"1624":1672,"Ġ'$":1673,"Ġ<&":1674,"4598":1675,"rfmh":1676,"ĠĠĠĠĠĠĠĠĠĠĠĠĠĠĠĠ":1677,"\");'":1678,"fsockopen":1679,"459898":1680,"673":1681,"cw":1682,"jmy":1683,"add":1684,"you":1685,"88":1686,"cl":1687,"ping":1688,"itfor":1689,"love":1690,"Ġ9945":1691,"Ġ2766":1692,"303":1693,"Ġ(((\"":1694,"waitfor":1695,"Ġdelay":1696,"jmyd":1697,"7118":1698,"ico":1699,"Ġ(('":1700,"ball":1701,"ï¿½ï¿½ï¿½ï¿½/":1702,"415":1703,"wsx":1704,"zcr":1705,"Ġ'/":1706,"category":1707,"bmvw":1708,"uugz":1709,"zcrh":1710,"972":1711,"=&":1712,"curl":1713,"Ġte":1714,"lig":1715,"Ġ400":1716,"4944":1717,"478":1718,"lnet":1719,"Ġtelnet":1720,"hnd":1721,"wxd":1722,"Ġsystem":1723,"Ġ?>":1724,"Ġ-----":1725,"location":1726,"date":1727,"=\"\"":1728,"=\"_":1729,"Ġ7497":1730,"']);":1731,"yuld":1732,"cwfc":1733,"hndr":1734,"wxdm":1735,"Ġ------":1736,"'||(":1737,"and":1738,"blo":1739,"qaz":1740,"tevj":1741,"Ġ64":1742,"zxcvbn":1743,"Ġ4004":1744,"70757":1745,"boex":1746,"biys":1747,"al":1748,"ase":1749,"fs":1750,"xj":1751,"status":1752,"cron":1753,"hev":1754,"mr":1755,"Ġ20":1756,"905":1757,"ï¿½ï¿½ï¿½ï¿½\\":1758,"Ġ5017":1759,"hevy":1760,"zp":1761,"../../../":1762,"1746":1763,"1313":1764,"9855":1765,"vbgz":1766,"/../../../../../../../../../../../../../../":1767,"');":1768,"717":1769,"747970653":1770,"mu":1771,"ley":1772,"server":1773,"Ġ37":1774,"2266696":1775,"54321":1776,"6520":1777,"Ġ6199":1778,"469722":1779,"dcpu":1780,"70757420":1781,"mcat":1782,"net":1783,"qk":1784,"tomcat":1785,"zo":1786,"reen":1787,"screen":1788,"5555":1789,"Ġ2905":1790,"7248":1791,"heartbe":1792,"heartbeat":1793,"uwa":1794,"Ġcode":1795,"ined":1796,"Ġalert":1797,"Ġ26":1798,"Ġ28":1799,"867":1800,"61637":1801,"efe":1802,"efined":1803,"lnim":1804,"Ġ1303":1805,"undefined":1806,"kqdy":1807,"6739":1808,"lighttpd":1809,"724855":1810,"uwak":1811,"(\\\"":1812,"has":1813,"tho":1814,"Ġnot":1815,"Ġinter":1816,"Ġ34":1817,"32723":1818,"9332723":1819,"\\\")</":1820,"..\\..\\..\\..\\":1821,"Ġinterval":1822,"1690":1823,"update":1824,"6666":1825,"qavs":1826,"sv":1827,"Ġ25":1828,"',":1829,"sk":1830,"103":1831,"Ġ2867":1832,"vczy":1833,"beql":1834,"ï¿½ï¿½ï¿½ï¿½ï¿½ï¿½ï¿½ï¿½ï¿½ï¿½ï¿½ï¿½ï¿½ï¿½ï¿½ï¿½":1835,"cp":1836,"icon":1837,"md":1838,"some":1839,"wesome":1840,"Ġ1765":1841,"xjrz":1842,"5400":1843,"_-":1844,"dp":1845,"kar":1846,"2016":1847,"jakar":1848,"2606":1849,"jakarta":1850,"+(":1851,"272":1852,"mon":1853,"py":1854,"1718":1855,"663":1856,"223":1857,"libc":1858,"mivg":1859,"Ġ6058":1860,"mfz":1861,"Ġ1718":1862,"408":1863,"mfzy":1864,"ku":1865,"vp":1866,"inad":1867,"ress":1868,"utl":1869,"mods":1870,"address":1871,"inaddr":1872,"8184":1873,"ava":1874,"jn":1875,"ux":1876,"ers":1877,"5272":1878,"9615":1879,"sry":1880,"7268":1881,"istere":1882,"dret":1883,"jiq":1884,"registere":1885,"ï¿½ï¿½ï¿½ï¿½/ï¿½ï¿½ï¿½ï¿½/":1886,"registered":1887,"ejiq":1888,"Ġ80":1889,"Ġla":1890,"Ġrow":1891,"Ġctxsys":1892,"Ġ4720":1893,")>(":1894,"\"'":1895,"/{":1896,"8546":1897,"prlg":1898,"false":1899,"Ġ6417":1900,"cre":1901,"jz":1902,"lsry":1903,"wor":1904,"Ġst":1905,"repe":1906,"1653":1907,"3686":1908,"Ġ6420":1909,"gexp":1910,"Ġ24":1911,"cdd":1912,"5881":1913,"substring":1914,"Ġ5786":1915,"Ġregexp":1916,"repeat":1917,"cg":1918,"fm":1919,"etur":1920,"hex":1921,"rict":1922,"uage":1923,"504":1924,"507":1925,"anxl":1926,"Ġ5077":1927,"nguage":1928,"Ġreplace":1929,"Ġretur":1930,"ï¿½ï¿½ï¿½ï¿½\\ï¿½ï¿½ï¿½ï¿½\\":1931,"','":1932,"Ġlanguage":1933,"create":1934,"Ġstrict":1935,"Ġreturns":1936,"318":1937,"gv":1938,"hw":1939,"vf":1940,"3607":1941,"ber":1942,"jj":1943,"lid":1944,"list":1945,"17373":1946,"Ġ1450":1947,"61696":1948,"70617373":1949,"Ġ7415":1950,"mode":1951,"krst":1952,"xvqf":1953,"9458":1954,"age":1955,"onerror":1956,"006":1957,"ssage":1958,"message":1959,"istration":1960,"mark":1961,"registration":1962,"od":1963,"sing":1964,"ilable":1965,"Ġelt":1966,"5726":1967,"available":1968,"single":1969,"kh":1970,"psi":1971,"xq":1972,"zpe":1973,"inpu":1974,"Ġ5408":1975,"5343":1976,"229":1977,"zpee":1978,"input":1979,")//":1980,"75726":1981,"`><":1982,"dce":1983,"fy":1984,"jy":1985,"uss":1986,"lic":1987,"ripsi":1988,"7586":1989,"6355":1990,"]=\"\"'":1991,"javascript":1992,"68474":1993,"';</":1994,"4211":1995,"skripsi":1996,"work":1997,")//';</":1998,"ussx":1999,"]=\"\"'`><":2000,"skripsiku":2001,"245":2002,"890":2003,"wz":2004,"word":2005,"thon":2006,"Ġben":2007,"password":2008,"Ġ6193":2009,"zpvi":2010,"python":2011,"qj":2012,"sli":2013,"chmark":2014,"20646":2015,"666":2016,"varchar":2017,"5645":2018,"726":2019,"728":2020,"8293":2021,"6378":2022,"76616":2023,"30303030":2024,"75653":2025,"70757420747970653":2026,"Ġbenchmark":2027,"413":2028,"awesome":2029,"eg":2030,"ive":2031,"kl":2032,"Ġma":2033,")||'":2034,"ceb":2035,"-+-":2036,">+-":2037,"gm":2038,"kvs":2039,"ving":2040,"Ġha":2041,"Ġ6656":2042,"Ġ260":2043,"8028":2044,"5580":2045,"7219":2046,"khfs":2047,"-+-+":2048,">+-+-":2049,"Ġhaving":2050,"=../../../../":2051,"bb":2052,"gg":2053,"gener":2054,"iz":2055,"Ġ966":2056,"Ġ9474":2057,"8021":2058,"9998":2059,"dash":2060,"updatexml":2061,"Ġmake":2062,"4379":2063,"np":2064,"npu":2065,"udp":2066,"rece":2067,"decl":2068,"Ġ2728":2069,"661746":2070,"Ġ15":2071,"979":2072,"pipe":2073,"zxq":2074,"fffm":2075,"4697661746":2076,"6579":2077,"qkvp":2078,"616374697661746":2079,"jzus":2080,"jjxt":2081,"qjzxq":2082,"Ġ9669":2083,"npuz":2084,"receive":2085,"declare":2086,"qkvpq":2087,"61637469766174696":2088,"467":2089,"')));":2090,"ation":2091,"ekvs":2092,"ig":2093,"lmail":2094,"rre":2095,"tr":2096,"4978":2097,"squi":2098,"Ġ5018":2099,"bfxx":2100,"Ġ1282":2101,"general":2102,"rrelmail":2103,"squirrelmail":2104,"676":2105,"878":2106,"td":2107,"utofocus":2108,"Ġtab":2109,"Ġ75":2110,"Ġpg":2111,"Ġupdatexml":2112,"Ġautofocus":2113,"646973":2114,"libr":2115,"481":2116,"sout":2117,"focusout":2118,"Ġonfocusout":2119,"Ġ7229":2120,"6037":2121,"rzjy":2122,"61795":2123,"8907":2124,"slice":2125,"Ġtabindex":2126,"646973706":2127,"pp":2128,"Ġz":2129,"Ġ((":2130,"postg":2131,"Ġ6226":2132,"Ġ8979":2133,"505":2134,"4426":2135,"odjm":2136,"tdpt":2137,"]-(":2138,"776":2139,"127":2140,"Ġ3467":2141,"aeaf":2142,"508":2143,"dashboard":2144,")/(":2145,"925":2146,"ujn":2147,"ine":2148,"1726":2149,"hosts":2150,"5839":2151,"3731":2152,"Ġ6043":2153,"ujnr":2154,"\"));":2155,"152":2156,"870":2157,"gh":2158,"lor":2159,"pen":2160,"tabase":2161,"Ġ92":2162,"database":2163,"util":2164,"icons":2165,"8478":2166,"=`":2167,"`=`":2168,"dh":2169,"group":2170,"upn":2171,"527":2172,"Ġ1508":2173,"9014":2174,"otvf":2175,">//\"&":2176,"ead":2177,"ip":2178,"qh":2179,"Ġy":2180,"Ġ19":2181,"Ġbo":2182,"Ġut":2183,"Ġus":2184,"660":2185,"33006":2186,"4134":2187,"aur":2188,"nupn":2189,"ole":2190,"xb":2191,"Ġconvert":2192,"Ġmode":2193,"llation":2194,"popen":2195,"),(":2196,"Ġ1124":2197,"restaur":2198,"705":2199,"70152":2200,"collation":2201,"1918":2202,"jack":2203,"types":2204,"2685":2205,"ant":2206,"linux":2207,"Ġ1354":2208,"keys":2209,"fields":2210,"+\"<":2211,"+\"</":2212,"functions":2213,"jeqz":2214,">\";+$":2215,"_-&":2216,"wznp":2217,"egja":2218,"92570152":2219,"Ġboole":2220,"Ġutf":2221,"Ġusing":2222,"restaurant":2223,"collations":2224,"9257015258":2225,"Ġboolean":2226,"8481":2227,"mm":2228,"1712":2229,"cmdline":2230,"4957":2231,"foot":2232,"123123":2233,"706870":2234,"football":2235,"547":2236,"ols":2237,"xm":2238,"Ġo":2239,"random":2240,"8552":2241,"blob":2242,"zocu":2243,"randomblob":2244,"fg":2245,"ica":2246,"sam":2247,"7320":2248,"Ġ18":2249,"sqlid":2250,"sqlhash":2251,"acbb":2252,"pure":2253,"+\\\"<":2254,"+\\\"</":2255,">\\\";+$":2256,"monkey":2257,"67696":2258,"utility":2259,"%'='":2260,"3507":2261,"=</":2262,"ey":2263,"Ġupper":2264,"xmltype":2265,"3656":2266,"scrip":2267,"mou":2268,"330":2269,"ampp":2270,"rew":2271,"home":2272,"Ġ6716":2273,"438":2274,"asdf":2275,"sysd":2276,"xlmr":2277,"fre":2278,"arch":2279,"Ġ27":2280,"Ġ3214":2281,"Ġ4618":2282,"=('":2283,"8300":2284,"hwgm":2285,"library":2286,"\">\"&":2287,"545":2288,"ese":2289,"ir":2290,"ilove":2291,"qwe":2292,"the":2293,"ws":2294,"yag":2295,"zk":2296,"521":2297,"Ġ686":2298,"cheese":2299,"\":-":2300,"Ġonmou":2301,"mysqld":2302,"vicon":2303,"6536":2304,"seover":2305,"xxs":2306,"')\">\"&":2307,"favicon":2308,"121212":2309,"aaaaaa":2310,"samba":2311,"iloveyou":2312,"theme":2313,"Ġonmouseover":2314,"sg":2315,"xk":2316,"lecg":2317,"doers":2318,"4768":2319,"Ġ8617":2320,"630":2321,"sudoers":2322,"Ġ7527":2323,"tmpu":2324,"6756":2325,"6271":2326,"2727":2327,"ise":2328,"rj":2329,"sun":2330,"vm":2331,"enable":2332,"abc":2333,"typ":2334,"1234":2335,"fuckme":2336,"\")));":2337,"svgs":2338,"asdfgh":2339,"enabled":2340,"(~":2341,"233":2342,"go":2343,"nie":2344,"oc":2345,"pri":2346,"uname":2347,"chq":2348,"minec":2349,"ilf":2350,"Ġexp":2351,"5222":2352,"5231":2353,"raft":2354,"danie":2355,"ranger":2356,"261":2357,"111111":2358,"prin":2359,"fuckyou":2360,"ĠĠĠĠĠĠĠĠĠĠĠĠĠĠĠĠĠĠĠĠĠĠĠĠĠĠĠĠĠĠĠĠ":2361,"klxb":2362,"trcc":2363,"ipjm":2364,"Ġ6868":2365,"(~(":2366,"minecraft":2367,"daniel":2368,"'--":2369,"2105":2370,"654321":2371,"9206":2372,"ash":2373,"har":2374,"rilf":2375,"ylor":2376,"taylor":2377,"Ġ498":2378,"Ġ4521":2379,"ssy":2380,"raise":2381,"225":2382,"fbrj":2383,"6969":2384,"6963656":2385,"pussy":2386,"ummy":2387,"Ġ1241":2388,"1234567":2389,"Ġ3836":2390,"xpnc":2391,"1234567890":2392,"5471":2393,"sysdummy":2394,"ashley":2395,"2120":2396,"=..\\..\\..\\..\\":2397,"fr":2398,"glo":2399,"ly":2400,"nq":2401,"sup":2402,"yn":2403,"zchq":2404,"orge":2405,"erman":2406,"unts":2407,"uncategor":2408,"george":2409,"969":2410,"804":2411,"Ġ8630":2412,"7844":2413,"8630":2414,"shine":2415,"3951":2416,"mounts":2417,"pkza":2418,"9248":2419,"Ġ8477":2420,"..ï¿½ï¿½..ï¿½ï¿½..ï¿½ï¿½..ï¿½ï¿½":2421,"Ġ2382":2422,"7777777":2423,"andrew":2424,"ized":2425,"yagh":2426,"sunshine":2427,"superman":2428,"uncategorized":2429,"`)":2430,"dra":2431,"nico":2432,"pep":2433,"wi":2434,"Ġp":2435,"chae":2436,"magg":2437,"lie":2438,"charlie":2439,"203":2440,"edom":2441,"112233":2442,"827":2443,"autho":2444,"444":2445,"michae":2446,"domains":2447,"123456789":2448,"zxcvbnm":2449,"Ġ8017":2450,"gvwp":2451,"freedom":2452,"nicole":2453,"pepper":2454,"maggie":2455,"author":2456,"michael":2457,"546":2458,"598":2459,"623":2460,"jord":2461,"ub":2462,"ypt":2463,"zz":2464,"star":2465,"2076616":2466,"73657":2467,"5245":2468,"528293":2469,"Ġ22":2470,"6620":2471,"9634":2472,"96528293":2473,"thund":2474,"5345":2475,"22746":2476,"2275706":2477,"78776":2478,"5545535":2479,"7220646":2480,"solid":2481,"515545535":2482,"8245":2483,"compu":2484,"61644":2485,"123321":2486,"summ":2487,"6563686":2488,"76655":2489,"6529206":2490,"9570":2491,"62723":2492,"696620":2493,"246469722":2494,"53545":2495,"crypt":2496,"environment":2497,"4505":2498,"job":2499,"616465645":2500,"131313":2501,"652075706":2502,"5454505":2503,"zkkr":2504,"vmw":2505,"jordan":2506,"5245515545535":2507,"thunder":2508,"722064696528293":2509,"computer":2510,"summer":2511,"524551554553545":2512,"8766":2513,"cs":2514,"fon":2515,"gon":2516,"ps":2517,"tri":2518,"tman":2519,"yan":2520,"Ġk":2521,"hock":2522,"matt":2523,"matri":2524,"2000":2525,"hew":2526,"Ġ31":2527,"ssica":2528,"bal":2529,"batman":2530,"kees":2531,"jessica":2532,"qazwsx":2533,"555555":2534,"priva":2535,"princess":2536,"global":2537,"yankees":2538,"hockey":2539,"matthew":2540,"matrix":2541,"%'":2542,"9474":2543,"ein":2544,"hru":2545,"kla":2546,"lle":2547,"rxd":2548,"sst":2549,"Ġpwd":2550,"letm":2551,"amand":2552,"enn":2553,"passt":2554,"Ġ2804":2555,"chelle":2556,"shua":2557,"michelle":2558,"Ġ1690":2559,"joshua":2560,"qhxq":2561,"xmfg":2562,"3301":2563,"themes":2564,"dragon":2565,"klaster":2566,"rxdx":2567,"letmein":2568,"amanda":2569,"passthru":2570,"%';":2571,"'+(":2572,"/.":2573,"lv":2574,"tru":2575,"tig":2576,"wars":2577,"wtyp":2578,"stno":2579,"map":2580,"Ġ9444":2581,"https":2582,"tools":2583,"668":2584,"572656":2585,"9876":2586,"tpd":2587,"72656":2588,"buster":2589,"1597":2590,"76973":2591,"696969":2592,"746572656":2593,"71716":2594,"7178766":2595,"666666":2596,"Ġ2606":2597,"harley":2598,"starwars":2599,"trustno":2600,"tigger":2601,"987654321":2602,"7265676973":2603,"159753":2604,"7465726564":2605,"72656769737465726564":2606,"'));":2607,"ao":2608,"pet":2609,"stin":2610,"mas":2611,"lock":2612,"ginger":2613,"8287":2614,"Ġ4170":2615,"austin":2616,"sites":2617,"ang":2618,"9314":2619,"11111111":2620,"baseball":2621,"sgao":2622,"peter":2623,"924":2624,"\\{":2625,"eme":2626,"jenn":2627,"kil":2628,"lrf":2629,"med":2630,"nk":2631,"yle":2632,"Ġq":2633,"Ġdomain":2634,"ler":2635,"stang":2636,"style":2637,"llas":2638,"ifer":2639,"lsea":2640,"dallas":2641,"Ġ1406":2642,"Ġ1438":2643,"Ġ8706":2644,"chelsea":2645,"5683":2646,"Ġ7668":2647,"7463":2648,"biteme":2649,"mustang":2650,"jennifer":2651,"killer":2652,"lrfq":2653,"236":2654,"ass":2655,"ments":2656,"nx":2657,"tw":2658,"rober":2659,"rele":2660,"vazz":2661,"hole":2662,"like":2663,"=../../../../../../../../../../../":2664,"4555":2665,"documents":2666,"Ġrlike":2667,"thomas":2668,"5984":2669,"asshole":2670,"robert":2671,"hun":2672,"ngin":2673,"left":2674,"env":2675,"smb":2676,"webserver":2677,"6319":2678,"untinfo":2679,"mountinfo":2680,"begin":2681,"block":2682,"hunter":2683,"nginx":2684,"gith":2685,"pgs":2686,"xu":2687,"chaz":2688,"resql":2689,"usercontent":2690,"raw":2691,"Ġ53":2692,"Ġ8184":2693,"559":2694,"socc":2695,"825":2696,"syxk":2697,"6333":2698,"afyn":2699,"9051":2700,"Ġ7547":2701,"postgresql":2702,"ubusercontent":2703,"455553":2704,"githubusercontent":2705,"pgsql":2706,"soccer":2707,"ght":2708,"vhosts":2709,"Ġu":2710,"))#":2711,"466":2712,"reftpd":2713,"tople":2714,"vel":2715,"\":\"';":2716,"Ġ4691":2717,"000000":2718,"pureftpd":2719,"Ġ5429":2720,"nqhy":2721,"toplevel":2722,"5663":2723,"gd":2724,"))))--":2725,"llir":2726,"=../../../../../../../../../../":2727,"Ġ9458":2728,"right":2729,"Ġ5663":2730,"htdo":2731,"Ġ8546":2732,"320":2733,"8646":2734,"ne":2735,"leftpd":2736,"Ġ21":2737,"ddleftpd":2738,"muddleftpd":2739,"3185":2740,"2321":2741,"`;":2742,"tcp":2743,"1045":2744,"/../../../../../../../../../../../":2745,"street":2746,"9572":2747,"dj":2748,"ite":2749,")));":2750,"Ġ4466":2751,"\":'":2752,"9744":2753,"Ġ6355":2754,"qfgo":2755,"../../../{":2756,"ci":2757,"iver":2758,"nt":2759,"Ġh":2760,"inst":2761,"amework":2762,"Ġ308":2763,"sity":2764,"Ġ8505":2765,"8632":2766,"6320":2767,"439":2768,"8922":2769,"..\\{":2770,"Ġ6378":2771,"))+'":2772,"openstreet":2773,"profiles":2774,"Ġ3449":2775,"Ġ2553":2776,"framework":2777,"release":2778,"htdocs":2779,"iversity":2780,"install":2781,"Ġ3087":2782,"who":2783,"zpg":2784,"|[":2785,"les":2786,"))||":2787,"Ġ90":2788,"ssl":2789,"130":2790,"634":2791,"Ġ5580":2792,"jw":2793,"lite":2794,"out":2795,"vn":2796,"Ġi":2797,"Ġchr":2798,"ami":2799,"look":2800,"1274":2801,"Ġ4379":2802,"731":2803,"525":2804,"Ġ9913":2805,"Ġ9998":2806,"Ġ29":2807,"7859":2808,"auth":2809,"902":2810,"65746":2811,"3189":2812,"Ġ4988":2813,"5464":2814,"vmware":2815,"nkdo":2816,"whoami":2817,"zpga":2818,"looki":2819,"=ï¿½ï¿½ï¿½ï¿½ï¿½ï¿½ï¿½ï¿½ï¿½ï¿½ï¿½ï¿½ï¿½ï¿½ï¿½ï¿½":2820,"cy":2821,"iss":2822,"ygd":2823,"../../{":2824,"ctl":2825,"Ġ35":2826,"ime":2827,"sysctl":2828,"Ġ4978":2829,"listings":2830,"9243":2831,"issue":2832,"4261":2833,"fe":2834,"kt":2835,"tid":2836,"Ġhttps":2837,"redo":2838,"ense":2839,"enty":2840,"Ġwget":2841,"Ġ9855":2842,"435":2843,"subset":2844,"panel":2845,"6274":2846,"Ġ3873":2847,"miredo":2848,"categories":2849,"svoc":2850,"license":2851,"twenty":2852,"282":2853,"cup":2854,"lck":2855,"xz":2856,"Ġj":2857,"Ġl":2858,"eto":2859,"174":2860,"Ġ3731":2861,"vars":2862,"wwwhtml":2863,"564":2864,"284":2865,"6170":2866,"private":2867,"envvars":2868,"cups":2869,"3559":2870,"ester":2871,"pent":2872,"wget":2873,"xur":2874,"Ġv":2875,"err":2876,"495":2877,"scriber":2878,"Ġ9925":2879,"9925":2880,"Ġ1825":2881,"2280":2882,"Ġ8478":2883,"proftpd":2884,"subscriber":2885,"images":2886,"3205":2887,"pentester":2888,"445":2889,"hadow":2890,"txt":2891,"xy":2892,"xampp":2893,"Ġc":2894,"gshadow":2895,"university":2896,"455":2897,"727":2898,"version":2899,"188":2900,"Ġ7902":2901,"Ġgtid":2902,"Ġ8417":2903,"vsftpd":2904,"pfdj":2905,"xufy":2906,"07":2907,"=..ï¿½ï¿½..ï¿½ï¿½..ï¿½ï¿½..ï¿½ï¿½":2908,"ats":2909,"hh":2910,"pdb":2911,"rc":2912,"ul":2913,"use":2914,"stats":2915,"luxur":2916,"reauth":2917,"holid":2918,"house":2919,"1722":2920,"dysl":2921,"Ġ2685":2922,"dhcp":2923,"ygdg":2924,"luxury":2925,"holiday":2926,"312":2927,"686":2928,"bc":2929,"pz":2930,"zfc":2931,"469":2932,"578":2933,"523":2934,"533":2935,"libzfc":2936,"4079":2937,"7234":2938,"lsws":2939,"6752":2940,"742":2941,"7661722":2942,"\":\"',(":2943,"media":2944,"blocks":2945,"+>&":2946,"297":2947,"9646":2948,"cf":2949,"cpanel":2950,"jpg":2951,"xor":2952,"Ġ7268":2953,"rop":2954,"contents":2955,"6461746":2956,"Ġ89":2957,"1894":2958,"502":2959,"Ġdrop":2960,"9263":2961,"7777772":2962,"Ġ9263":2963,"+>&+/":2964,"xorg":2965,"bl":2966,"ick":2967,"Ġf":2968,"5723":2969,"5352":2970,"box":2971,"Ġ4079":2972,"ï¿½ï¿½ï¿½ï¿½/ï¿½ï¿½ï¿½ï¿½/ï¿½ï¿½ï¿½ï¿½/ï¿½ï¿½ï¿½ï¿½/":2973,"ï¿½ï¿½ï¿½ï¿½\\ï¿½ï¿½ï¿½ï¿½\\ï¿½ï¿½ï¿½ï¿½\\ï¿½ï¿½ï¿½ï¿½\\":2974,"bq":2975,"lampp":2976,"png":2977,"yim":2978,"Ġ95":2979,"2250":2980,"Ġ5222":2981,"ldap":2982,"Ġ1346":2983,"4206":2984,"mono":2985,"273":2986,"637":2987,"697":2988,"643":2989,"hba":2990,"psa":2991,"ties":2992,"yz":2993,"Ġ76":2994,"2022":2995,"4656":2996,"Ġ3435":2997,"Ġ9976":2998,"Ġ2105":2999,"5354":3000,"Ġ1523":3001,"407":3002,"3746":3003,"2448":3004,"proper":3005,"75626":3006,"network":3007,"Ġ2607":3008,"Ġ9248":3009,"lvdo":3010,"properties":3011,"',(":3012,"09":3013,"286":3014,"28293":3015,"3130":3016,"4225":3017,"640":3018,"blu":3019,"blic":3020,"eo":3021,"lho":3022,"nic":3023,"query":3024,"uk":3025,"uui":3026,"ename":3027,"malink":3028,"20656":3029,"2066696":3030,"2061637":3031,"20223":3032,"4696":3033,"46696":3034,"46972":3035,"46469722":3036,"46225":3037,"Ġinto":3038,"Ġ9634":3039,"Ġ3696":3040,"73716":3041,"73696":3042,"736520":3043,"7375626":3044,"525645":3045,"1386":3046,"452076616":3047,"Ġ560":3048,"57273696":3049,"7573":3050,"53495":3051,"22206":3052,"48505":3053,"82448":3054,"61643":3055,"616420":3056,"6164225":3057,"30373":3058,"30272":3059,"public":3060,"172742":3061,"6563746":3062,"29297":3063,"74206":3064,"Ġ5890":3065,"76657273696":3066,"6528245":3067,"65282448":3068,"64282":3069,"28706870":3070,"Ġ1386":3071,"7469706":3072,"746578":3073,"428245":3074,"246469":3075,"qwby":3076,"97373657":3077,"4063686":3078,"61646564":3079,"616465723":3080,"permalink":3081,"clam":3082,"41585":3083,"9726563746":3084,"6520747970653":3085,"46972225":3086,"707574206":3087,"206469726563746":3088,"303030303":3089,"30303030303030303":3090,"postgres":3091,"7068700":3092,"ĠĠĠĠĠĠĠĠĠĠĠĠĠĠĠĠĠĠĠĠĠĠĠĠĠĠĠĠĠĠĠĠĠĠĠĠĠĠĠĠĠĠĠĠĠĠĠĠĠĠĠĠĠĠĠĠĠĠĠĠĠĠĠĠ":3093,"53454":3094,"5345525645":3095,"6164446972":3096,"6164446972225":3097,"696620286":3098,"69662028706870":3099,"vnqz":3100,"6574686":3101,"61702066696":3102,"72793":3103,"6869646":3104,"646174613":3105,"535293":3106,"225048505":3107,"27342":3108,"63747970653":3109,"6974206":3110,"202246696":3111,"535420656":3112,"24485454505":3113,"313030303030303030303":3114,"lhor":3115,"nicename":3116,"uuic":3117,"20616374696":3118,"7365207":3119,"Ġ5602":3120,"61642076616":3121,"30373535293":3122,"3027297":3123,"652824485454505":3124,"6428246469722":3125,"7469706172742":3126,"74657874206":3127,"246469723":3128,"97373657428245":3129,"61646564223":3130,"5345525645525":3131,"61644469722076616":3132,"69662028697373657428245":3133,"6966202870687076657273696":3134,"68696464656":3135,"8827":3136,";(":3137,"=..\\..\\":3138,"hd":3139,"xzo":3140,"limit":3141,"cust":3142,"Ġ8827":3143,"kepo":3144,"4141":3145,"account":3146,"3397":3147,"Ġ4856":3148,"Ġ3397":3149,"wicd":3150,"xzov":3151,"9188":3152,"iif":3153,"jk":3154,"nel":3155,"../{":3156,"live":3157,"5795":3158,"1225":3159,"4480":3160,"333":3161,"Ġ6037":3162,"livequery":3163,"por":3164,"wy":3165,"Ġ77":3166,"rent":3167,"001":3168,"73746":3169,"997":3170,"saci":3171,"Ġ9744":3172,"socket":3173,"netstat":3174,"1747573":3175,"Ġ9597":3176,"737461747573":3177,"2102":3178,"ax":3179,"of":3180,"cata":3181,"gsvw":3182,"doing":3183,"5296":3184,"Ġ6333":3185,"499":3186,"thick":3187,"hostname":3188,"264":3189,"68746":3190,"lina":3191,"extractvalue":3192,"mrkt":3193,"wsde":3194,"Ġ9051":3195,"yimx":3196,"catalina":3197,"thickbox":3198,"04":3199,"iw":3200,"mj":3201,"wu":3202,"Ġ78":3203,"rota":3204,"review":3205,"121":3206,"Ġ9502":3207,"disp":3208,"fore":3209,"logrota":3210,"aux":3211,"proxy":3212,"9043":3213,"..ï¿½ï¿½{":3214,"locations":3215,"listing":3216,"=../../../../../../../{":3217,"=..\\..\\..\\..\\..\\..\\":3218,"font":3219,"nxof":3220,"Ġ5346":3221,"display":3222,"logrotate":3223,"()//\"&":3224,"eb":3225,"hn":3226,"haz":3227,"iser":3228,"nj":3229,"oth":3230,"pn":3231,"1174":3232,"chroot":3233,"miniser":3234,"ted":3235,"77702":3236,"Ġ3507":3237,"Ġ2321":3238,"665":3239,"ï¿½ï¿½{":3240,"9950":3241,"webmin":3242,"]=\"\";":3243,"17210":3244,"))))||":3245,"=../../../../../{":3246,"))||'":3247,"etooth":3248,"bluetooth":3249,"custom":3250,"hazr":3251,"miniserv":3252,"4000":3253,"=../../{":3254,"bd":3255,"bk":3256,"dl":3257,"lter":3258,"oj":3259,"pam":3260,"rh":3261,"vq":3262,"Ġ`":3263,"poly":3264,"fill":3265,"filter":3266,"Ġnvarchar":3267,"=../../../../../../../../{":3268,"Ġ83":3269,"789":3270,"exec":3271,"polyfill":3272,"=../../../{":3273,"gi":3274,"hk":3275,"sco":3276,"wb":3277,"Ġproc":3278,"Ġana":3279,"phpmy":3280,"tawesome":3281,"edure":3282,"ert":3283,"Ġ36":3284,"732":3285,"Ġ68":3286,"964":3287,"1580":3288,"dhclient":3289,"lyse":3290,"fontawesome":3291,"4456":3292,"Ġ8922":3293,"scope":3294,"Ġprocedure":3295,"Ġanalyse":3296,"phpmyadmin":3297,"')--":3298,"382":3299,"cx":3300,"gw":3301,"ny":3302,"pfile":3303,"Ġmin":3304,"Ġ70":3305,"stable":3306,"apps":3307,")))+":3308,"Ġ4261":3309,"cker":3310,"802":3311,"Ġ14":3312,"Ġdum":3313,"smbpasswd":3314,"twentytwenty":3315,"Ġdumpfile":3316,"02":3317,"8112":3318,"bx":3319,"hb":3320,"iae":3321,"men":3322,"rw":3323,"sw":3324,"ved":3325,"yw":3326,"lement":3327,"))|[":3328,"parall":3329,"polic":3330,"defla":3331,"7366":3332,"sso":3333,"808":3334,"558":3335,"544":3336,"63732":3337,"comment":3338,"Ġ5296":3339,"lnq":3340,"pkg":3341,"Ġ6274":3342,"=../../../../{":3343,"=../../../../../../{":3344,"privacy":3345,"mediae":3346,"new":3347,"=ï¿½ï¿½ï¿½ï¿½ï¿½ï¿½ï¿½ï¿½ï¿½ï¿½ï¿½ï¿½ï¿½ï¿½ï¿½ï¿½ï¿½ï¿½ï¿½ï¿½ï¿½ï¿½ï¿½ï¿½ï¿½ï¿½ï¿½ï¿½ï¿½ï¿½ï¿½ï¿½":3348,"6874646":3349,"parallax":3350,"policy":3351,"deflate":3352,"mediaelement":3353,"143":3354,"343":3355,"846":3356,"br":3357,"cb":3358,"cfd":3359,"dit":3360,"tq":3361,"tin":3362,"time":3363,"uo":3364,"zlnq":3365,"Ġs":3366,"Ġxt":3367,"770":3368,"appro":3369,"Ġ93":3370,"528":3371,"5262":3372,"362":3373,"unappro":3374,"ration":3375,"4514":3376,"538":3377,"Ġ87":3378,"485":3379,"785":3380,"721":3381,"ngth":3382,"592":3383,"9286":3384,"2462":3385,"8888":3386,"cgi":3387,"moderation":3388,"Ġ7675":3389,"Ġxtjw":3390,"unapproved":3391,"4514808":3392,"278":3393,"477":3394,"=ï¿½ï¿½ï¿½ï¿½/ï¿½ï¿½ï¿½ï¿½/ï¿½ï¿½ï¿½ï¿½/ï¿½ï¿½ï¿½ï¿½/":3395,"=ï¿½ï¿½ï¿½ï¿½\\ï¿½ï¿½ï¿½ï¿½\\ï¿½ï¿½ï¿½ï¿½\\ï¿½ï¿½ï¿½ï¿½\\":3396,"hi":3397,"hl":3398,"htm":3399,"jt":3400,"mq":3401,"oe":3402,"ol":3403,"qg":3404,"yst":3405,"yproxy":3406,"ze":3407,"zw":3408,"Ġm":3409,"search":3410,"one":3411,"chine":3412,"machine":3413,"chart":3414,"conne":3415,"app":3416,")))#":3417,"459":3418,"982":3419,"326":3420,"327":3421,"6391":3422,"509":3423,"audit":3424,"anal":3425,"biz":3426,"tinyproxy":3427,"connect":3428,"analyst":3429,"(),":3430,")Ė":3431,"01":3432,"9129":3433,"ali":3434,"ccess":3435,"du":3436,"dv":3437,"dup":3438,"jd":3439,"jx":3440,"ks":3441,"og":3442,"pd":3443,"spa":3444,"uw":3445,"yv":3446,"Ġusers":3447,"areto":3448,"sed":3449,"sent":3450,"temp":3451,"fileno":3452,"194":3453,"3696":3454,"493":3455,"960":3456,"405":3457,"late":3458,"anima":3459,"306":3460,"309":3461,"393":3462,"resolv":3463,"')#":3464,"8148":3465,"before":3466,"ial":3467,"essent":3468,"Ġ6025":3469,"extra":3470,"updatedb":3471,"workers":3472,"olsinstall":3473,"vmwareto":3474,"1721048":3475,"menu":3476,"alias":3477,"template":3478,"animate":3479,"beforevmwareto":3480,"essential":3481,"beforevmwaretoolsinstall":3482,"275":3483,"=;":3484,"=..ï¿½ï¿½..ï¿½ï¿½":3485,"av":3486,"bconf":3487,"fq":3488,"jf":3489,"nl":3490,"oy":3491,"ock":3492,"old":3493,"tul":3494,"ules":3495,"wn":3496,"wisq":3497,"wvz":3498,"ym":3499,"Ġ72":3500,"step":3501,"stun":3502,"reon":3503,"read":3504,"teic":3505,"Ġ1010":3506,"core":3507,"color":3508,"delimit":3509,"debconf":3510,"ging":3511,"364":3512,"456":3513,"967":3514,"tsock":3515,"Ġ8665":3516,"logging":3517,"butt":3518,"auto":3519,"5890":3520,"dlgm":3521,"impor":3522,"effe":3523,"picker":3524,"syslog":3525,"bashrc":3526,"patreon":3527,"modules":3528,"Ġ6412":3529,"jniw":3530,"Ġ1931":3531,"Ġ4986":3532,"jwoj":3533,"eofs":3534,"clamav":3535,"=..\\..\\..\\{":3536,"vqmp":3537,"tulpn":3538,"wvzr":3539,"stunnel":3540,"delimiter":3541,"tsocks":3542,"import":3543,"effect":3544,"220":3545,"298":3546,"256":3547,"339":3548,"3533":3549,"873":3550,"977":3551,"\\\";":3552,"dq":3553,"hm":3554,"hist":3555,"kc":3556,"lw":3557,"mk":3558,"mx":3559,"wo":3560,"wt":3561,"xo":3562,"yx":3563,"Ġfo":3564,"Ġ1225":3565,"length":3566,"aries":3567,")))||'":3568,"chun":3569,"ory":3570,"heal":3571,"Ġ96":3572,"369":3573,"664":3574,"965":3575,"805":3576,"logo":3577,"1500":3578,"comple":3579,"268":3580,"]=\"\\\";":3581,"vig":3582,"430":3583,"288":3584,"layers":3585,"3145":3586,"');//\"&":3587,"..\\..\\..\\..\\{":3588,"true":3589,"libraries":3590,"tmpuk":3591,"=..\\..\\..\\..\\..\\..\\..\\..\\{":3592,"=ï¿½ï¿½ï¿½ï¿½ï¿½ï¿½ï¿½ï¿½ï¿½ï¿½ï¿½ï¿½ï¿½ï¿½ï¿½ï¿½ï¿½ï¿½ï¿½ï¿½ï¿½ï¿½ï¿½ï¿½":3593,"4454":3594,"=..\\..\\{":3595,"limits":3596,"=..\\..\\..\\..\\..\\..\\..\\{":3597,"1721048485":3598,"button":3599,"history":3600,"chunk":3601,"health":3602,")|[":3603,"252":3604,"9439":3605,"cin":3606,"cert":3607,"dx":3608,"ipf":3609,"jg":3610,"jp":3611,"ker":3612,"mime":3613,"nh":3614,"oq":3615,"over":3616,"pl":3617,"qy":3618,"uv":3619,"wid":3620,"xhttpd":3621,"}.":3622,"sens":3623,"inet":3624,"init":3625,"integ":3626,"ors":3627,"los":3628,"7764":3629,"ifica":3630,"207":3631,"apt":3632,"edk":3633,"Ġ94":3634,"Ġ9439":3635,"Ġex":3636,"132":3637,"rated":3638,"geles":3639,"475":3640,"7869":3641,"9794":3642,"process":3643,"ï¿½ï¿½ï¿½ï¿½{":3644,"angeles":3645,"414":3646,"osxhttpd":3647,"resource":3648,"683145":3649,"627":3650,"ccb":3651,"Ġ4813":3652,"prdl":3653,"rules":3654,"Ġ2091":3655,"706173737764":3656,"=..\\..\\..\\..\\..\\{":3657,"fonts":3658,"6574632":3659,"=..ï¿½ï¿½..ï¿½ï¿½..ï¿½ï¿½..ï¿½ï¿½..ï¿½ï¿½..ï¿½ï¿½":3660,"hhh":3661,"ĠĠĠĠĠĠĠĠĠĠĠĠĠĠĠĠĠĠĠĠĠĠĠĠĠĠĠĠĠĠĠĠĠĠĠĠĠĠĠĠĠĠĠĠĠĠĠĠĠĠĠĠĠĠĠĠĠĠĠĠĠĠĠĠĠĠĠĠĠĠĠĠĠĠĠĠĠĠĠĠĠĠĠĠĠĠĠĠĠĠĠĠĠĠĠĠĠĠĠĠĠĠĠĠĠĠĠĠĠĠĠĠĠĠĠĠĠĠĠĠĠĠĠĠĠĠĠĠ":3662,"bxfy":3663,"Ġfound":3664,"cink":3665,"certifica":3666,"ipfw":3667,"kernel":3668,"overview":3669,"widget":3670,"sensors":3671,"integrated":3672,"certificates":3673,"248":3674,"314":3675,"400":3676,"649":3677,"798":3678,"830":3679,"919":3680,"947":3681,"bar":3682,"gn":3683,"jr":3684,"lts":3685,"vo":3686,"wj":3687,"yr":3688,"Ġfor":3689,"Ġpt":3690,"Ġke":3691,"intern":3692,"))))+'":3693,"hook":3694,"778":3695,"ifc":3696,"context":3697,"464":3698,"7072":3699,"176":3700,"573":3701,"575":3702,"jba":3703,"Ġ66":3704,"498":3705,"803":3706,"550":3707,"260":3708,"904":3709,"vix":3710,"4319":3711,"sults":3712,"391":3713,"sendmail":3714,"Ġxp":3715,"Ġresults":3716,"\":\"',":3717,"âĢĿ":3718,"ĠâĢľ":3719,"ï¿½ï¿½ï¿½ï¿½/{":3720,"light":3721,"cupsd":3722,"ports":3723,"rhjba":3724,"cbad":3725,"internet":3726,"hooks":3727,"\")</":3728,"'<":3729,")::":3730,"**":3731,",'<":3732,"/;":3733,"/**":3734,"240":3735,"258":3736,"380":3737,"337":3738,"516":3739,"580":3740,"610":3741,"849":3742,"945":3743,"=../../../":3744,">',":3745,"cz":3746,"dz":3747,"ez":3748,"fl":3749,"gb":3750,"ju":3751,"kk":3752,"kz":3753,"mc":3754,"mv":3755,"nv":3756,"qo":3757,"qbq":3758,"rg":3759,"runt":3760,"vl":3761,"vhost":3762,"wr":3763,"yt":3764,"zone":3765,"Ġmo":3766,"Ġ../../../":3767,"cated":3768,")))||":3769,"ludz":3770,"enve":3771,"encode":3772,"lope":3773,"779":3774,"depre":3775,"--/**":3776,"applications":3777,"Ġ924":3778,"urwh":3779,"002":3780,"ssh":3781,"cmdshell":3782,"990":3783,"Ġ86":3784,"862":3785,"715":3786,"3748":3787,"585":3788,"ftpusers":3789,"ftphosts":3790,"ator":3791,"3732":3792,"vvq":3793,"enerator":3794,"38964":3795,"regenerator":3796,"modsec":3797,"xjt":3798,"ï¿½ï¿½ï¿½ï¿½\\{":3799,"fyau":3800,"=..\\..\\..\\..\\{":3801,"=..\\..\\..\\..\\..\\..\\{":3802,"timezone":3803,"space":3804,"buttons":3805,"Ġexec":3806,"Ġpty":3807,"84915":3808,"runtime":3809,"envelope":3810,"deprecated":3811,"--/**/;":3812,"153":3813,"399":3814,"378":3815,"437":3816,"636":3817,"6110":3818,"dn":3819,"gp":3820,"hta":3821,"ib":3822,"ka":3823,"nn":3824,"neg":3825,"nbk":3826,"qb":3827,"rhh":3828,"sla":3829,"uj":3830,"xci":3831,"zb":3832,"Ġlin":3833,"Ġter":3834,"Ġld":3835,"inyz":3836,"))))+":3837,"Ġ-\"}":3838,"nder":3839,"render":3840,"minate":3841,"772":3842,"160":3843,"125":3844,"128":3845,"Ġlist":3846,"529":3847,"four":3848,"abvb":3849,"5322":3850,"forms":3851,"409":3852,"988":3853,"4887":3854,"bob":3855,"325":3856,"328":3857,"1105":3858,"yeli":3859,"okabvb":3860,"Ġ4087":3861,"6163686":3862,"583":3863,"307":3864,"\";(":3865,"bfd":3866,"utfile":3867,"setup":3868,"eebe":3869,"common":3870,"Ġ8473":3871,"nslt":3872,"openlayers":3873,"kqj":3874,"6736":3875,"Ġ8016":3876,"Ġ7593":3877,"Ġoo":3878,"Ġoutfile":3879,"Ġkx":3880,"two":3881,"Ġ5352":3882,"61706163686":3883,"))))||'":3884,"twentytwentyfour":3885,"twentytwentytwo":3886,"8463":3887,"ogyeli":3888,"6492":3889,"czinyz":3890,"rhhia":3891,"Ġlines":3892,"Ġterminate":3893,"eebea":3894,"617061636865322":3895,"Ġterminated":3896,"#&":3897,"/#&":3898,"186":3899,"2171":3900,"280":3901,"255":3902,"251":3903,"289":3904,"2538":3905,"349":3906,"347":3907,"351":3908,"3002":3909,"447":3910,"4174":3911,"590":3912,"6706":3913,"8721":3914,"=ï¿½ï¿½ï¿½ï¿½/ï¿½ï¿½ï¿½ï¿½/":3915,"car":3916,"cpu":3917,"cvs":3918,"cedk":3919,"dk":3920,"eh":3921,"emo":3922,"ewt":3923,"fn":3924,"fp":3925,"gt":3926,"gif":3927,"gra":3928,"gjq":3929,"gru":3930,"hj":3931,"io":3932,"kg":3933,"ko":3934,"kv":3935,"kmq":3936,"pload":3937,"qx":3938,"sz":3939,"spe":3940,"tx":3941,"xc":3942,"xi":3943,"xauthor":3944,"xhhh":3945,"zi":3946,"Ġvg":3947,"Ġcategory":3948,"Ġraise":3949,"let":3950,"leaf":3951,"inert":3952,"ettyp":3953,"ndra":3954,"Ġac":3955,"hoto":3956,"hover":3957,"eny":3958,"mafu":3959,"mandra":3960,"1024":3961,"773":3962,"gswp":3963,"200":3964,"703":3965,"70001":3966,"depa":3967,"debi":3968,"1671":3969,"api":3970,"rpzw":3971,"173":3972,"Ġ'\"'":3973,"199":3974,"dom":3975,"sshd":3976,"plupload":3977,"137":3978,"139":3979,"diym":3980,"491":3981,"Ġ2171":3982,"Ġ2538":3983,"srv":3984,"401":3985,"404":3986,"4085":3987,"986":3988,"Ġ830":3989,"482":3990,"486":3991,"782":3992,"jsdiym":3993,"sqspe":3994,"7264":3995,"374":3996,"3722":3997,"\":\"\"}&":3998,"821":3999,"826":4000,"506":4001,"5021":4002,"769":4003,"7694":4004,"probe":4005,"ï¿½ï¿½ï¿½ï¿½ï¿½ï¿½{":4006,"434":4007,"584":4008,"suse":4009,"tmpue":4010,"subversion":4011,"pulse":4012,"devices":4013,"most":4014,"683":4015,"931":4016,"Ġ1323":4017,"7466":4018,"migra":4019,"comments":4020,"eszy":4021,"fuse":4022,"intent":4023,"prettyp":4024,"6573732":4025,"byg":4026,"modprobe":4027,"netserver":4028,"avahi":4029,"passwords":4030,"\"));(":4031,"tmpuq":4032,"wirele":4033,"crypttab":4034,"styles":4035,"=ï¿½ï¿½ï¿½ï¿½ï¿½ï¿½ï¿½ï¿½ï¿½ï¿½ï¿½ï¿½ï¿½ï¿½ï¿½ï¿½ï¿½ï¿½{":4036,"=..ï¿½ï¿½..ï¿½ï¿½..ï¿½ï¿½..ï¿½ï¿½{":4037,"=..ï¿½ï¿½..ï¿½ï¿½..ï¿½ï¿½..ï¿½ï¿½..ï¿½ï¿½{":4038,"networks":4039,"foremost":4040,"bdmd":4041,"Ġ8380":4042,"cxoc":4043,"gwerty":4044,"nydepa":4045,"tqqp":4046,"autoindex":4047,"70726573732":4048,"kkgswp":4049,"qbqat":4050,"63616":4051,"cpuinfo":4052,"cedkwb":4053,"gjqbyg":4054,"grub":4055,"kmqv":4056,"xauthority":4057,"leaflet":4058,"hoverintent":4059,"mafuul":4060,"mandrake":4061,"debian":4062,"rpzwkt":4063,"sqspell":4064,"726470726573732":4065,"migrate":4066,"prettyphoto":4067,"wireless":4068,"310":4069,"396":4070,"315":4071,"381":4072,"3114":4073,"4326":4074,"816":4075,"8223":4076,"cxq":4077,"dlog":4078,"dht":4079,"deny":4080,"eso":4081,"fj":4082,"fst":4083,"gq":4084,"gr":4085,"gep":4086,"jc":4087,"jv":4088,"kn":4089,"ksh":4090,"lb":4091,"lj":4092,"lm":4093,"lp":4094,"lq":4095,"lx":4096,"oa":4097,"opasswd":4098,"qe":4099,"qxv":4100,"qqk":4101,"rk":4102,"vr":4103,"vml":4104,"vvix":4105,"wk":4106,"yf":4107,"yj":4108,"zh":4109,"Ġ716":4110,"Ġso":4111,"Ġih":4112,"Ġod":4113,"Ġhouse":4114,"Ġluxury":4115,"arjx":4116,"seper":4117,"information":4118,"onse":4119,"eth":4120,"resp":4121,"redh":4122,"wplink":4123,"methods":4124,"ident":4125,"771":4126,"postbox":4127,"conso":4128,"firew":4129,"2012":4130,"4680":4131,"707":4132,"7083":4133,"hezt":4134,"571":4135,"574":4136,"Ġnp":4137,"1139":4138,"7377":4139,"5265":4140,"wweh":4141,"366":4142,"3654":4143,"Ġtb":4144,"include":4145,"7573722":4146,"Ġ3261":4147,"532":4148,"537":4149,"539":4150,"5348":4151,"5376":4152,"224":4153,"228":4154,"2219":4155,"Ġ8552":4156,"spz":4157,"tpvml":4158,"560":4159,"569":4160,"cant":4161,"logout":4162,"shclam":4163,"541":4164,"185":4165,"rangep":4166,"269":4167,"903":4168,"5878":4169,"Ġ79":4170,"otia":4171,"Ġuniversity":4172,"imb":4173,"259":4174,"ftpchroot":4175,"moment":4176,"moqa":4177,"zqdh":4178,"2810":4179,"sysconfig":4180,"421139":4181,"esd":4182,"gjpr":4183,"&_=":4184,"pgh":4185,"fffe":4186,"openldap":4187,"9477":4188,"daterangep":4189,"fsck":4190,"mudlog":4191,"zomoqa":4192,"iconpicker":4193,"world":4194,"listmethods":4195,"messages":4196,"slick":4197,"freshclam":4198,"wix":4199,"9244":4200,"fehezt":4201,"dhcpd":4202,"pzwy":4203,"icker":4204,"clamd":4205,"chrootusers":4206,"1721050":4207,"789456":4208,"hkdht":4209,"rwxci":4210,"=ï¿½ï¿½ï¿½ï¿½ï¿½ï¿½ï¿½ï¿½ï¿½ï¿½ï¿½ï¿½ï¿½ï¿½ï¿½ï¿½ï¿½ï¿½ï¿½ï¿½ï¿½ï¿½ï¿½ï¿½ï¿½ï¿½ï¿½ï¿½ï¿½ï¿½ï¿½ï¿½ï¿½ï¿½ï¿½ï¿½{":4211,"=ï¿½ï¿½ï¿½ï¿½/ï¿½ï¿½ï¿½ï¿½/ï¿½ï¿½ï¿½ï¿½/ï¿½ï¿½ï¿½ï¿½/ï¿½ï¿½ï¿½ï¿½/ï¿½ï¿½ï¿½ï¿½/":4212,"=ï¿½ï¿½ï¿½ï¿½\\ï¿½ï¿½ï¿½ï¿½\\ï¿½ï¿½ï¿½ï¿½\\ï¿½ï¿½ï¿½ï¿½\\ï¿½ï¿½ï¿½ï¿½\\ï¿½ï¿½ï¿½ï¿½\\":4213,"resolvconf":4214,"=..ï¿½ï¿½..ï¿½ï¿½{":4215,"=..ï¿½ï¿½..ï¿½ï¿½..ï¿½ï¿½{":4216,"ready":4217,"woff":4218,"completion":4219,"=ï¿½ï¿½ï¿½ï¿½ï¿½ï¿½ï¿½ï¿½ï¿½ï¿½ï¿½ï¿½ï¿½ï¿½ï¿½ï¿½ï¿½ï¿½ï¿½ï¿½ï¿½ï¿½ï¿½ï¿½{":4220,"inetd":4221,"77871":4222,"ifcfg":4223,"lighthttpd":4224,"Ġ9244":4225,"htaccess":4226,"negotia":4227,"ewtn":4228,"Ġaccount":4229,"tmpuqspz":4230,"cxqm":4231,"esound":4232,"fstab":4233,"qxvkq":4234,"qqkbq":4235,"vvixgm":4236,"sepermit":4237,"response":4238,"redhat":4239,"console":4240,"firewall":4241,"tpvmlp":4242,"fffea":4243,"daterangepicker":4244,"pzwyh":4245,"rwxciw":4246,"negotiation":4247,"'))--":4248,"()":4249,"05":4250,"1825":4251,"1770":4252,"1573":4253,"216":4254,"219":4255,"263":4256,"279":4257,"4805":4258,"650":4259,"6709":4260,"6459":4261,"6931":4262,"7960":4263,"958":4264,"9438":4265,"9544":4266,"ah":4267,"aselect":4268,"bg":4269,"bj":4270,"bn":4271,"bz":4272,"bgw":4273,"bxjt":4274,"clt":4275,"cjd":4276,"dlogin":4277,"dns":4278,"dnx":4279,"dxz":4280,"dpkg":4281,"eu":4282,"eij":4283,"fnq":4284,"gk":4285,"gld":4286,"ghw":4287,"hr":4288,"ix":4289,"iiz":4290,"jpz":4291,"juk":4292,"kd":4293,"kroot":4294,"kbl":4295,"kbd":4296,"mb":4297,"mtab":4298,"mba":4299,"msa":4300,"mel":4301,"mot":4302,"mtools":4303,"nu":4304,"nnk":4305,"nuk":4306,"omi":4307,"ph":4308,"px":4309,"pwq":4310,"phar":4311,"ry":4312,"sd":4313,"swe":4314,"tun":4315,"utmp":4316,"uxx":4317,"vd":4318,"vww":4319,"wup":4320,"wrz":4321,"xjb":4322,"xrt":4323,"xwh":4324,"xvig":4325,"yq":4326,"yex":4327,"yum":4328,"zu":4329,"zis":4330,"Ġ&":4331,"Ġen":4332,"Ġ71":4333,"Ġza":4334,"Ġqt":4335,"Ġpi":4336,"Ġsys":4337,"Ġmh":4338,"Ġqa":4339,"Ġux":4340,"Ġig":4341,"caj":4342,"casp":4343,"cache":4344,"inter":4345,"indl":4346,"etter":4347,"cts":4348,"chmr":4349,"chkroot":4350,"red":4351,"1098":4352,"orig":4353,"ormm":4354,"namespace":4355,"adap":4356,"teyw":4357,"777":4358,"7713":4359,"460":4360,"4645":4361,"4689":4362,"704":4363,"7037":4364,"163":4365,"5753":4366,"1998":4367,"upda":4368,"updxz":4369,"Ġ9540":4370,"cewrz":4371,"735":4372,"1342":4373,"368":4374,"unpkg":4375,"uncaj":4376,"race":4377,"Ġ6785":4378,"Ġ6459":4379,"ajab":4380,"Ġ5006":4381,"496":4382,"4916":4383,"uploader":4384,"5728":4385,"vesa":4386,"9999":4387,"about":4388,"thgv":4389,"ieva":4390,"479":4391,"9821":4392,"Ġ81":4393,"Ġ8207":4394,"1315":4395,"check":4396,"7896":4397,"etalert":4398,"554":4399,"8649":4400,"tmwa":4401,"exports":4402,"video":4403,"543":4404,"5457":4405,"323":4406,"sisf":4407,"514":4408,"webob":4409,"dbue":4410,"1552":4411,"1581":4412,"smi":4413,"plesk":4414,"wmv":4415,"761":4416,"2412":4417,"cdwp":4418,"mysqlder":4419,"2671":4420,"Ġdf":4421,"iledlogin":4422,"proftp":4423,"protpd":4424,"908":4425,"fbfy":4426,"433":4427,"ani":4428,"Ġ7110":4429,"Ġ7982":4430,"Ġ7988":4431,"302":4432,"3099":4433,"3025":4434,"tmput":4435,"tmpupdxz":4436,"tmpuncaj":4437,"4420":4438,"osxz":4439,"icxd":4440,"lfc":4441,"rfcomm":4442,"mem":4443,"views":4444,"allow":4445,"wine":4446,"';(":4447,"7447":4448,"2387":4449,"vbvd":4450,"imgare":4451,"6528":4452,"tors":4453,"591":4454,"5916":4455,"5953":4456,"6263":4457,"4220":4458,"ï¿½ï¿½ï¿½ï¿½ï¿½ï¿½ï¿½ï¿½ï¿½ï¿½{":4459,"fcgi":4460,"fcqg":4461,"xtfh":4462,"ltrace":4463,"unders":4464,"))))|[":4465,"Ġ5610":4466,"build":4467,"failedlogin":4468,"Ġ4211":4469,"jects":4470,"vjyw":4471,"defs":4472,"crontab":4473,"mrnl":4474,"gvmo":4475,"lists":4476,"dashicons":4477,"databases":4478,"qhsx":4479,"Ġoz":4480,"sysdual":4481,"5451":4482,"ocyo":4483,"lyep":4484,"..ï¿½ï¿½..ï¿½ï¿½..ï¿½ï¿½..ï¿½ï¿½{":4485,"wired":4486,"smbusers":4487,"tcpd":4488,"Ġcj":4489,"=..ï¿½ï¿½..ï¿½ï¿½..ï¿½ï¿½..ï¿½ï¿½..ï¿½ï¿½..ï¿½ï¿½..ï¿½ï¿½..ï¿½ï¿½{":4490,"pzur":4491,"bluw":4492,"wyiq":4493,"Ġ7706":4494,"filters":4495,"newsyslog":4496,"=ï¿½ï¿½ï¿½ï¿½ï¿½ï¿½ï¿½ï¿½ï¿½ï¿½ï¿½ï¿½ï¿½ï¿½ï¿½ï¿½ï¿½ï¿½ï¿½ï¿½ï¿½ï¿½ï¿½ï¿½ï¿½ï¿½ï¿½ï¿½ï¿½ï¿½ï¿½ï¿½ï¿½ï¿½ï¿½ï¿½ï¿½ï¿½ï¿½ï¿½ï¿½ï¿½{":4497,"uocg":4498,"oewe":4499,"dvuv":4500,"fqnv":4501,"autocomple":4502,"mkuser":4503,"yxok":4504,"=ï¿½ï¿½ï¿½ï¿½ï¿½ï¿½ï¿½ï¿½ï¿½ï¿½ï¿½ï¿½ï¿½ï¿½ï¿½ï¿½ï¿½ï¿½ï¿½ï¿½ï¿½ï¿½ï¿½ï¿½ï¿½ï¿½ï¿½ï¿½ï¿½ï¿½{":4505,"jpmv":4506,"inittab":4507,"=..ï¿½ï¿½..ï¿½ï¿½..ï¿½ï¿½..ï¿½ï¿½..ï¿½ï¿½..ï¿½ï¿½{":4508,"=..ï¿½ï¿½..ï¿½ï¿½..ï¿½ï¿½..ï¿½ï¿½..ï¿½ï¿½..ï¿½ï¿½..ï¿½ï¿½{":4509,"widgets":4510,"2483":4511,"nnut":4512,"qblt":4513,"Ġlistings":4514,"1861":4515,"cardo":4516,"txin":4517,"ziuc":4518,"gqxz":4519,"lqmx":4520,"20121105":4521,"1721050139":4522,"cjds":4523,"dnxw":4524,"eiju":4525,"fnqo":4526,"gldu":4527,"iizn":4528,"jpzclt":4529,"kblh":4530,"mbao":4531,"melf":4532,"motd":4533,"nnks":4534,"pxcc":4535,"pwqv":4536,"sweetalert":4537,"tunlfc":4538,"uxxg":4539,"vwwy":4540,"xrtw":4541,"yexs":4542,"Ġsysmaster":4543,"casper":4544,"chkrootkit":4545,"adaptors":4546,"updates":4547,"cewrzi":4548,"webobjects":4549,"mysqlderror":4550,"tmputjuk":4551,"imgareaselect":4552,"underscore":4553,"autocomplete":4554,")&":4555,"096":4556,"067":4557,"064":4558,"182":4559,"1499":4560,"1405":4561,"1560":4562,"217":4563,"254":4564,"215":4565,"346":4566,"3495":4567,"4450":4568,"4435":4569,"520":4570,"5776":4571,"5965":4572,"6129":4573,"6789":4574,"6259":4575,"852":4576,"996":4577,"=ï¿½ï¿½ï¿½ï¿½ï¿½ï¿½ï¿½ï¿½":4578,"=ï¿½ï¿½ï¿½ï¿½\\ï¿½ï¿½ï¿½ï¿½\\":4579,"@@":4580,"ccu":4581,"ccd":4582,"eas":4583,"fx":4584,"fed":4585,"gc":4586,"hs":4587,"hcs":4588,"hqy":4589,"iso":4590,"jev":4591,"lz":4592,"ncc":4593,"pon":4594,"pref":4595,"pun":4596,"pserver":4597,"qd":4598,"qu":4599,"slo":4600,"tv":4601,"ting":4602,"tkc":4603,"uz":4604,"vk":4605,"vx":4606,"vhcs":4607,"wsm":4608,"wum":4609,"ware":4610,"xh":4611,"yb":4612,"yd":4613,"yl":4614,"zzy":4615,"Ġll":4616,"Ġlo":4617,"Ġep":4618,"Ġup":4619,"Ġce":4620,"Ġss":4621,"Ġto":4622,"Ġsu":4623,"Ġos":4624,"Ġ1720":4625,"Ġrf":4626,"Ġqw":4627,"Ġpf":4628,"Ġprofile":4629,"Ġyo":4630,"Ġzp":4631,"Ġmu":4632,"Ġqk":4633,"Ġiz":4634,"Ġrestaurant":4635,"Ġcategories":4636,"Ġsocket":4637,"arra":4638,"amh":4639,"cae":4640,"roll":4641,"roread":4642,"stlog":4643,"parm":4644,"luser":4645,"reset":4646,"reus":4647,"ora":4648,"minfo":4649,"tags":4650,"tacker":4651,"postmaster":4652,"charset":4653,"700":4654,"7075":4655,"70756":4656,"Ġwq":4657,"deluser":4658,"1621":4659,"her":4660,"1734":4661,"((\"":4662,"124":4663,"Ġny":4664,"191":4665,"197":4666,"198":4667,"1986":4668,"Ġ378":4669,"Ġ333":4670,"Ġ3967":4671,"paccess":4672,"17189":4673,"17188":4674,"1136":4675,"7359":4676,"522":4677,"5297":4678,"5242":4679,"5235":4680,"136":4681,"ckware":4682,"Ġ6789":4683,"Ġ6592":4684,"453":4685,"scroll":4686,"6664":4687,"7576":4688,"8016":4689,"998":4690,"9994":4691,"ield":4692,"Ġ1499":4693,"Ġ1405":4694,"2251":4695,"2244":4696,"2267":4697,"libs":4698,"pect":4699,"984":4700,"Ġ88":4701,"Ġ8114":4702,"4856":4703,"4823":4704,"4835":4705,"1314":4706,"563":4707,"manpath":4708,"555":4709,"869994":4710,"logon":4711,"tmcy":4712,"714835":4713,"expect":4714,"shield":4715,"7212":4716,"bud":4717,"544680":4718,"1065":4719,"751":4720,"515400":4721,"lation":4722,"lastlog":4723,"versions":4724,"8215":4725,"8276":4726,"1859":4727,"lsate":4728,"9754":4729,"6387":4730,"262":4731,"Ġdr":4732,"901":4733,"581":4734,"7067":4735,"3011":4736,"3022":4737,"3083":4738,"subprocess":4739,"acc":4740,"acroread":4741,"vcep":4742,"3373":4743,"pulsate":4744,"uiqg":4745,"895":4746,"8915":4747,"17205348":4748,"tops":4749,"pdftops":4750,"meminfo":4751,"291":4752,"2940":4753,"ters":4754,"609":4755,"Ġ5275":4756,"attacker":4757,"utils":4758,"navig":4759,"5972":4760,"5941":4761,"setenv":4762,"aaca":4763,"9254":4764,"921136":4765,"7926":4766,"8311":4767,"8380":4768,"\")'":4769,"694":4770,"6977":4771,"xph":4772,"pgadmin":4773,"3876":4774,"Ġ1712":4775,"qlp":4776,"3570":4777,"617477":4778,"rutmcy":4779,"ftpaccess":4780,"adduser":4781,"8818":4782,"887067":4783,"netlogon":4784,"ï¿½ï¿½ï¿½ï¿½ï¿½ï¿½ï¿½ï¿½ï¿½ï¿½ï¿½ï¿½ï¿½ï¿½ï¿½ï¿½{":4785,"gvqlp":4786,"hwk":4787,"marker":4788,"Ġzgm":4789,"365656":4790,"yagg":4791,"tmpuvcep":4792,"tmpuuiqg":4793,"printers":4794,"546945":4795,"httpsd":4796,"Ġqs":4797,"neo":4798,"hdparm":4799,"customi":4800,"wyd":4801,"Ġ7840":4802,")))+'":4803,"=ï¿½ï¿½ï¿½ï¿½ï¿½ï¿½ï¿½ï¿½ï¿½ï¿½ï¿½ï¿½ï¿½ï¿½ï¿½ï¿½ï¿½ï¿½ï¿½ï¿½ï¿½ï¿½ï¿½ï¿½ï¿½ï¿½ï¿½ï¿½ï¿½ï¿½ï¿½ï¿½ï¿½ï¿½ï¿½ï¿½ï¿½ï¿½ï¿½ï¿½ï¿½ï¿½ï¿½ï¿½ï¿½ï¿½ï¿½ï¿½{":4804,"846447":4805,"spawn":4806,"400481":4807,"9472":4808,"void":4809,"2403":4810,"mcjs":4811,"slackware":4812,"289528":4813,"tmpueygd":4814,"9589":4815,"575319":4816,"Ġdfce":4817,"442098":4818,"626370":4819,"067803":4820,"064455":4821,"=ï¿½ï¿½ï¿½ï¿½ï¿½ï¿½ï¿½ï¿½ï¿½ï¿½ï¿½ï¿½{":4822,"easing":4823,"fedora":4824,"isolation":4825,"nccg":4826,"slow":4827,"arrayagg":4828,"173441":4829,"529799":4830,"scrollto":4831,"224445":4832,"485641":4833,"navigation":4834,"setenvif":4835,"6174777377":4836,"customize":4837,"(@@":4838,"149":4839,"154":4840,"1478":4841,"211":4842,"2107":4843,"2505":4844,"2634":4845,"2533":4846,"2665":4847,"2544":4848,"2328":4849,"3107":4850,"3119":4851,"3364":4852,"3967":4853,"3160":4854,"3199":4855,"3903":4856,"416":4857,"4110":4858,"424":4859,"429":4860,"4173":4861,"4571":4862,"500":4863,"536":4864,"5964":4865,"5207":4866,"678":4867,"624":4868,"6188":4869,"6904":4870,"6328":4871,"6826":4872,"720":4873,"796":4874,"7111":4875,"7110":4876,"7114":4877,"7535":4878,"7904":4879,"7401":4880,"866":4881,"8106":4882,"8497":4883,"8802":4884,"8558":4885,"8990":4886,"970":4887,"9969":4888,"9130":4889,"9528":4890,"9430":4891,"9550":4892,"9224":4893,"=../{":4894,"ai":4895,"aor":4896,"ait":4897,"aay":4898,"asi":4899,"awe":4900,"asy":4901,"bw":4902,"bww":4903,"blink":4904,"bdp":4905,"bwi":4906,"bvix":4907,"cro":4908,"cwp":4909,"ds":4910,"dzz":4911,"ea":4912,"eue":4913,"gl":4914,"git":4915,"gaz":4916,"ggz":4917,"gtq":4918,"gwmv":4919,"hx":4920,"hit":4921,"hag":4922,"hty":4923,"hjz":4924,"hig":4925,"huw":4926,"hlight":4927,"ii":4928,"ice":4929,"iiv":4930,"jnd":4931,"jgs":4932,"jkl":4933,"kb":4934,"ky":4935,"kjb":4936,"kyew":4937,"kcd":4938,"kpi":4939,"kjo":4940,"kgh":4941,"knj":4942,"knh":4943,"lzd":4944,"lqk":4945,"mtt":4946,"mzp":4947,"nsu":4948,"num":4949,"nmh":4950,"nyz":4951,"nneo":4952,"ou":4953,"ov":4954,"obf":4955,"oht":4956,"ofz":4957,"oij":4958,"ozp":4959,"ovideo":4960,"pll":4961,"pue":4962,"play":4963,"pboard":4964,"ply":4965,"plv":4966,"pdj":4967,"qr":4968,"qui":4969,"qhy":4970,"qhw":4971,"qsw":4972,"rxq":4973,"snd":4974,"sor":4975,"szp":4976,"sbud":4977,"tf":4978,"tg":4979,"ti":4980,"tk":4981,"tn":4982,"twa":4983,"tkvs":4984,"tvn":4985,"uf":4986,"uua":4987,"uwyd":4988,"vba":4989,"vox":4990,"vhwk":4991,"vuwyd":4992,"wos":4993,"xg":4994,"xr":4995,"xs":4996,"xsc":4997,"xvg":4998,"xgi":4999,"xamh":5000,"yg":5001,"yk":5002,"yp":5003,"yml":5004,"yyim":5005,"zj":5006,"zv":5007,"zct":5008,"zlib":5009,"zye":5010,"zkq":5011,"zjf":5012,"Ġ_":5013,"Ġed":5014,"Ġpa":5015,"Ġue":5016,"Ġsr":5017,"Ġrt":5018,"Ġqz":5019,"Ġme":5020,"Ġqp":5021,"Ġfc":5022,"Ġfz":5023,"Ġzx":5024,"Ġuc":5025,"Ġlocation":5026,"Ġku":5027,"Ġkl":5028,"Ġlocations":5029,"lema":5030,"amol":5031,"cavg":5032,"1145":5033,"11111":5034,"ndce":5035,"reply":5036,"wpnonce":5037,"Ġaw":5038,"hoq":5039,"meter":5040,"ider":5041,"ita":5042,"itul":5043,"tapf":5044,"lize":5045,"7753":5046,"7792":5047,"7706":5048,"myspace":5049,"2013":5050,"468":5051,"4631":5052,"1669":5053,"head":5054,"rpmr":5055,"1716":5056,"1783":5057,"edin":5058,"edxo":5059,")))|[":5060,"576":5061,"5736":5062,"plicat":5063,"jbwq":5064,"1975":5065,"1939":5066,"upzo":5067,"Ġ4103":5068,"Ġ4194":5069,"Ġ4173":5070,"Ġ9821":5071,"Ġ3107":5072,"Ġ360":5073,"Ġ3119":5074,"Ġ3364":5075,"painter":5076,"Ġey":5077,"loading":5078,"008":5079,"0049":5080,"doah":5081,"7368":5082,"733903":5083,"ssha":5084,"5217":5085,"5273":5086,"5234":5087,"133":5088,"134":5089,"135":5090,"138":5091,"1312":5092,"1351":5093,"1323":5094,"cmdb":5095,"cktags":5096,"unfl":5097,"uewk":5098,"Ġ6110":5099,"Ġ6664":5100,"4570":5101,"4541":5102,"Ġtn":5103,"diovideo":5104,"Ġ533":5105,"Ġ5773":5106,"490":5107,"4917":5108,"4952":5109,"4966":5110,"Ġ9958":5111,"Ġ293":5112,"Ġ2673":5113,"Ġ2925":5114,"572240":5115,"localize":5116,")+'":5117,"9611":5118,"9677":5119,"9653":5120,"9637":5121,"9624":5122,"aykc":5123,"8052":5124,"srrz":5125,"srbr":5126,"992":5127,"9951":5128,"9997":5129,"9943":5130,"9935":5131,"daem":5132,"5396":5133,"5321":5134,"5391":5135,"537075":5136,"ieat":5137,"Ġ1581":5138,"471":5139,"4786":5140,"4781":5141,"221":5142,"227":5143,"2253":5144,"2222":5145,"2297":5146,"4078":5147,"401859":5148,"987":5149,"9892":5150,"9842":5151,"9831":5152,"Ġ8716":5153,"Ġ8721":5154,"Ġ8325":5155,"spl":5156,"488":5157,"489":5158,"7840":5159,"7864":5160,"562":5161,"565":5162,"jsvg":5163,"jswn":5164,"551":5165,"860":5166,"8619":5167,"tywm":5168,"exfe":5169,"clipboard":5170,"7262":5171,"boot":5172,"5426":5173,"329":5174,"3272":5175,"3244":5176,"3265":5177,"7518":5178,"515":5179,"lawp":5180,"1107":5181,"yefx":5182,"1549":5183,"1590":5184,"824":5185,"829":5186,"sms":5187,"syqz":5188,"syrl":5189,"187":5190,"uacy":5191,"uajp":5192,");(":5193,"lsae":5194,"Ġbg":5195,"Ġbh":5196,"Ġbq":5197,"Ġbx":5198,"webp":5199,"6332":5200,"5020":5201,"5082":5202,"5043":5203,"5058":5204,"5089":5205,"5092":5206,"768":5207,"7686":5208,"7672":5209,"sahjz":5210,"2434":5211,"1229":5212,"audiovideo":5213,"2626":5214,"Ġ9889":5215,"binm":5216,"Ġdv":5217,"909":5218,"9058":5219,"9093":5220,"9092":5221,"9031":5222,"fbn":5223,"4316":5224,"4399":5225,"4308":5226,"5899":5227,"580049":5228,"anu":5229,"annp":5230,"7061":5231,"strap":5232,"nodb":5233,"noby":5234,"Ġ74":5235,"3023":5236,"3092":5237,"3918":5238,"tmpuh":5239,"other":5240,"acv":5241,"442":5242,"4441":5243,"4427":5244,"8566":5245,"asd":5246,"asln":5247,"aszx":5248,"imx":5249,"2545":5250,"2595":5251,"Ġwpql":5252,"3333":5253,"dfqa":5254,"674":5255,"uip":5256,"uiwz":5257,"uipp":5258,"894":5259,"8951":5260,"azerty":5261,"lfze":5262,"142":5263,"flags":5264,"rfr":5265,"rfcl":5266,"rfgi":5267,"pioe":5268,"2953":5269,"2924":5270,"295058":5271,"6866":5272,"terns":5273,"6031":5274,"Ġgg":5275,"Ġgw":5276,"Ġgzy":5277,"9320":5278,"9357":5279,"9344":5280,"085043":5281,"8140":5282,"umii":5283,"Ġ5846":5284,"Ġ5878":5285,"766522":5286,"zqmj":5287,"inia":5288,"2177":5289,"xdad":5290,"naox":5291,"Ġxn":5292,"5996":5293,"Ġ6796":5294,"283":5295,"2820":5296,"sxgb":5297,"sxwr":5298,"sfwb":5299,"623244":5300,"927":5301,"krhe":5302,"krhj":5303,"krzu":5304,"strength":5305,"Ġ5756":5306,"429892":5307,"3440":5308,"3437":5309,"831":5310,"8349":5311,"8386":5312,"esdq":5313,"Ġ8418":5314,"wahag":5315,"gzg":5316,"6917":5317,"fzfs":5318,"qwaszx":5319,"vvdu":5320,"slider":5321,"Ġ6074":5322,"Ġ4871":5323,"linkedin":5324,"6532":5325,"snke":5326,"snpf":5327,"snxs":5328,"3816":5329,"3837":5330,"3850":5331,"3874":5332,"381939":5333,"jhro":5334,"jhfp":5335,"pfhx":5336,"ucj":5337,"patterns":5338,"byox":5339,"ijco":5340,"qlhn":5341,"svgq":5342,"358215":5343,"359677":5344,"875391":5345,"omxz":5346,"7560":5347,"dddn":5348,"bipk":5349,"qfkl":5350,"Ġ4282":5351,"458533":5352,"Ġ2164":5353,"Ġ2169":5354,"plain":5355,"ysbr":5356,"8873":5357,"Ġ6452":5358,"alp":5359,"7173":5360,"Ġ3437":5361,"skvv":5362,"skpl":5363,"cpserver":5364,"mdhk":5365,"mdhl":5366,"dpdp":5367,"272996":5368,"pyhg":5369,"408188":5370,"Ġ8027":5371,"fmum":5372,"gvtkc":5373,"xqbl":5374,"xquk":5375,"fyvo":5376,"ggc":5377,"ggac":5378,"Ġ7518":5379,"Ġzg":5380,"Ġzw":5381,"ghft":5382,"qhx":5383,"Ġyn":5384,"Ġyir":5385,"123123123":5386,"Ġoc":5387,"irs":5388,"sgpz":5389,"tmpub":5390,"tmpujr":5391,"tmpuvox":5392,"asdfghjkl":5393,"gojr":5394,"ocyn":5395,"frxk":5396,"Ġpq":5397,"Ġpvb":5398,"Ġ2212":5399,"Ġ2219":5400,"jobpost":5401,"Ġks":5402,"Ġkv":5403,"nxsk":5404,"Ġ5313":5405,"htdos":5406,"openstreetlayers":5407,"Ġiif":5408,"feit":5409,"282149":5410,"Ġlq":5411,"Ġlhqy":5412,"xyhw":5413,"Ġcb":5414,"3125":5415,"bcue":5416,"cfqk":5417,"cfjf":5418,"646174612":5419,"502563":5420,"bljb":5421,"Ġfri":5422,"ï¿½ï¿½ï¿½ï¿½/ï¿½ï¿½ï¿½ï¿½/ï¿½ï¿½ï¿½ï¿½/ï¿½ï¿½ï¿½ï¿½/{":5423,"ï¿½ï¿½ï¿½ï¿½\\ï¿½ï¿½ï¿½ï¿½\\ï¿½ï¿½ï¿½ï¿½\\ï¿½ï¿½ï¿½ï¿½\\{":5424,"bqns":5425,"yzth":5426,"yzcx":5427,"yzmq":5428,"Ġ7686":5429,"ukmj":5430,"001515":5431,"axfo":5432,"499391":5433,"mjfu":5434,"hncn":5435,"hnhi":5436,"njzq":5437,"bkgv":5438,"Ġ8317":5439,"wbtk":5440,"gwda":5441,"nyue":5442,"029637":5443,"bxiv":5444,"3434":5445,"Ġsb":5446,"Ġ9344":5447,"Ġ8720":5448,"Ġ8748":5449,"888888":5450,"4771":5451,"4775":5452,"=ï¿½ï¿½ï¿½ï¿½/ï¿½ï¿½ï¿½ï¿½/ï¿½ï¿½ï¿½ï¿½/ï¿½ï¿½ï¿½ï¿½/ï¿½ï¿½ï¿½ï¿½/ï¿½ï¿½ï¿½ï¿½/ï¿½ï¿½ï¿½ï¿½/ï¿½ï¿½ï¿½ï¿½/{":5453,"=ï¿½ï¿½ï¿½ï¿½\\ï¿½ï¿½ï¿½ï¿½\\ï¿½ï¿½ï¿½ï¿½\\ï¿½ï¿½ï¿½ï¿½\\ï¿½ï¿½ï¿½ï¿½\\ï¿½ï¿½ï¿½ï¿½\\ï¿½ï¿½ï¿½ï¿½\\ï¿½ï¿½ï¿½ï¿½\\{":5454,"hlbgw":5455,"jtk":5456,"jtwq":5457,"olvz":5458,"olmt":5459,"zwnoby":5460,"duplicat":5461,"jdgg":5462,"yvmy":5463,"yvkr":5464,"960768":5465,"fqrg":5466,"jfng":5467,"nlxy":5468,"oypl":5469,"oyds":5470,"256536":5471,"339430":5472,"8733":5473,"9771":5474,"hmpa":5475,"lwha":5476,"woux":5477,"xoiw":5478,"tmpukggz":5479,"tmpukspl":5480,"tmpuksms":5481,"dxszp":5482,"jgxm":5483,"oqxb":5484,"uvsa":5485,"ĠĠĠĠĠĠĠĠĠĠĠĠĠĠĠĠĠĠĠĠĠĠĠĠĠĠĠĠĠĠĠĠĠĠĠĠĠĠĠĠĠĠĠĠĠĠĠĠĠĠĠĠĠĠĠĠĠĠĠĠĠĠĠĠĠĠĠĠĠĠĠĠĠĠĠĠĠĠĠĠĠĠĠĠĠĠĠĠĠĠĠĠĠĠĠĠĠĠĠĠĠĠĠĠĠĠĠĠĠĠĠĠĠĠĠĠĠĠĠĠĠĠĠĠĠĠĠĠĠĠĠĠĠĠĠĠĠĠĠĠĠĠĠĠĠĠĠĠĠĠĠĠĠĠĠĠĠĠĠĠĠĠĠĠĠĠĠĠĠĠĠĠĠĠĠĠĠĠĠĠĠĠĠĠĠĠĠĠĠĠĠĠĠĠĠĠĠĠĠĠĠĠĠĠĠĠĠĠĠĠĠĠĠĠĠĠĠĠĠĠĠĠĠĠĠĠĠĠĠĠĠĠĠĠĠĠĠĠĠĠĠĠĠĠĠĠĠĠĠĠĠĠĠĠĠĠ":5486,"9471":5487,"gnyu":5488,"gnfj":5489,"wjcu":5490,"wjfo":5491,"yrja":5492,"ifcj":5493,"judx":5494,"mvop":5495,"Ġ8658":5496,"xjtz":5497,"3783":5498,"gpmx":5499,"slas":5500,"zbkf":5501,"=ï¿½ï¿½ï¿½ï¿½/ï¿½ï¿½ï¿½ï¿½/{":5502,"=ï¿½ï¿½ï¿½ï¿½/ï¿½ï¿½ï¿½ï¿½/ï¿½ï¿½ï¿½ï¿½/{":5503,"emoj":5504,"kosa":5505,"kvow":5506,"xija":5507,"816154":5508,"ljcy":5509,"oals":5510,"qegs":5511,"yfkn":5512,"zhqz":5513,"537614":5514,"221978":5515,"789456123":5516,"=ï¿½ï¿½ï¿½ï¿½/ï¿½ï¿½ï¿½ï¿½/ï¿½ï¿½ï¿½ï¿½/ï¿½ï¿½ï¿½ï¿½/ï¿½ï¿½ï¿½ï¿½/ï¿½ï¿½ï¿½ï¿½/{":5517,"=ï¿½ï¿½ï¿½ï¿½\\ï¿½ï¿½ï¿½ï¿½\\ï¿½ï¿½ï¿½ï¿½\\ï¿½ï¿½ï¿½ï¿½\\ï¿½ï¿½ï¿½ï¿½\\ï¿½ï¿½ï¿½ï¿½\\ï¿½ï¿½ï¿½ï¿½\\{":5518,"2196":5519,"279118":5520,"6503":5521,"bzzx":5522,"eubu":5523,"ghwx":5524,"nukg":5525,"wupj":5526,"xjbdow":5527,"xwhx":5528,"yumc":5529,"zisx":5530,"Ġenim":5531,"Ġmhvp":5532,"491652":5533,"animation":5534,"309904":5535,"ccuu":5536,"jevr":5537,"lzbq":5538,"uzsahjz":5539,"vkor":5540,"wums":5541,"xhlf":5542,"Ġceyt":5543,"reusable":5544,"Ġ3783":5545,"Ġ3338":5546,"975419":5547,"1720534810":5548,"594149":5549,"958928":5550,"211497":5551,"618879":5552,"711437":5553,"810683":5554,"aitk":5555,"aaya":5556,"asia":5557,"awea":5558,"async":5559,"bwvg":5560,"bwwb":5561,"bwik":5562,"crossha":5563,"cwph":5564,"dzzh":5565,"euee":5566,"gazo":5567,"gtqd":5568,"hitv":5569,"htyb":5570,"highlight":5571,"huwv":5572,"icem":5573,"iivk":5574,"jndc":5575,"kjbj":5576,"kcdt":5577,"kpib":5578,"kjof":5579,"kghq":5580,"knjf":5581,"knhz":5582,"lzdgvtkc":5583,"lqkb":5584,"mttg":5585,"nsus":5586,"number":5587,"nmhi":5588,"nyzi":5589,"ovyo":5590,"obfu":5591,"ofzl":5592,"oijx":5593,"ozpm":5594,"pllk":5595,"puez":5596,"player":5597,"plvn":5598,"pdjf":5599,"quicktags":5600,"qhyh":5601,"qhwv":5602,"qswo":5603,"sndj":5604,"twav":5605,"tvnr":5606,"uuai":5607,"vbaf":5608,"vuwydjbwq":5609,"wosb":5610,"xscg":5611,"xvgd":5612,"xgik":5613,"ymld":5614,"zctg":5615,"zyez":5616,"zkqm":5617,"zjfv":5618,"20131107":5619,"573657":5620,"loadinganimation":5621,"Ġ2938":5622,"995181":5623,"999740":5624,"994398":5625,"daemon":5626,"bootstrap":5627,"159060":5628,"lsaezp":5629,"243426":5630,"905888":5631,"430871":5632,"tmpuhimx":5633,"Ġgzyh":5634,"wahagc":5635,"Ġyirw":5636,"tmpujrbu":5637,"tmpuvoxa":5638,"hlbgwgzg":5639,"zwnobyanu":5640,"duplicator":5641,"uzsahjzsgpz":5642,"crosshairs":5643,"lzdgvtkcrfr":5644,"vuwydjbwqnxsk":5645,"012":5646,"030":5647,"089":5648,"060":5649,"1475":5650,"1498":5651,"1779":5652,"270":5653,"281":5654,"2360":5655,"2379":5656,"2408":5657,"2564":5658,"2493":5659,"2393":5660,"2772":5661,"2769":5662,"355":5663,"385":5664,"3540":5665,"3535":5666,"3527":5667,"3997":5668,"3132":5669,"3475":5670,"3529":5671,"3584":5672,"3543":5673,"473":5674,"4103":5675,"4731":5676,"4194":5677,"4176":5678,"4803":5679,"4491":5680,"4227":5681,"5773":5682,"5532":5683,"677":5684,"622":5685,"698":5686,"618":5687,"6006":5688,"6997":5689,"6982":5690,"6369":5691,"6414":5692,"6715":5693,"6482":5694,"780":5695,"7558":5696,"7544":5697,"7982":5698,"7529":5699,"7539":5700,"8716":5701,"876":5702,"833":5703,"8321":5704,"8103":5705,"8663":5706,"8825":5707,"8727":5708,"8583":5709,"8404":5710,"8831":5711,"9107":5712,"950":5713,"9119":5714,"9006":5715,"9559":5716,"9533":5717,"9499":5718,"9362":5719,"9327":5720,"9309":5721,"9393":5722,"9965":5723,"9537":5724,"=..\\{":5725,"afo":5726,"blue":5727,"bmi":5728,"bone":5729,"bpun":5730,"cil":5731,"cvp":5732,"clock":5733,"cqb":5734,"dt":5735,"dam":5736,"ei":5737,"eye":5738,"fv":5739,"fzq":5740,"fxm":5741,"gto":5742,"gmail":5743,"gtid":5744,"hu":5745,"hms":5746,"huo":5747,"iri":5748,"kp":5749,"kx":5750,"kjc":5751,"lder":5752,"mz":5753,"mpg":5754,"nm":5755,"nter":5756,"oi":5757,"qi":5758,"qv":5759,"rd":5760,"rv":5761,"rx":5762,"rsr":5763,"rgj":5764,"sb":5765,"swd":5766,"tj":5767,"tar":5768,"uq":5769,"uct":5770,"uwp":5771,"uxd":5772,"vbf":5773,"vlc":5774,"vxq":5775,"wrh":5776,"xf":5777,"xon":5778,"yh":5779,"yy":5780,"yfy":5781,"zag":5782,"zsu":5783,"zzq":5784,"zdr":5785,"Ġca":5786,"Ġnd":5787,"Ġta":5788,"Ġrp":5789,"Ġer":5790,"Ġdo":5791,"Ġcm":5792,"Ġcu":5793,"Ġye":5794,"Ġsm":5795,"Ġua":5796,"Ġvi":5797,"Ġlg":5798,"Ġim":5799,"Ġic":5800,"Ġht":5801,"Ġpk":5802,"Ġop":5803,"Ġsx":5804,"Ġhg":5805,"Ġfu":5806,"Ġ7581":5807,"Ġjh":5808,"Ġmp":5809,"Ġox":5810,"Ġom":5811,"Ġjm":5812,"Ġmt":5813,"Ġvj":5814,"Ġjo":5815,"Ġzy":5816,"Ġfs":5817,"Ġfy":5818,"Ġip":5819,"Ġmm":5820,"Ġqwe":5821,"Ġcy":5822,"Ġmj":5823,"Ġpolicy":5824,"Ġ5728":5825,"Ġ7576":5826,"capk":5827,"inte":5828,"ctq":5829,"1147":5830,"revi":5831,"wpuser":5832,"Ġag":5833,"Ġayx":5834,"Ġavlc":5835,"ions":5836,"1020":5837,"1047":5838,"1090":5839,"tah":5840,"loc":5841,"tabs":5842,"774":5843,"775":5844,"7747":5845,"7762":5846,"poi":5847,"ifub":5848,"Ġ1093":5849,"mywordpress":5850,"205":5851,"209":5852,"2029":5853,"2093":5854,"2074":5855,"2088":5856,"4643":5857,"4662":5858,"4688":5859,"7045":5860,"7099":5861,"7058":5862,"7035":5863,"705916":5864,"Ġwi":5865,"Ġwue":5866,"Ġwgo":5867,"Ġwwn":5868,"Ġwafo":5869,"Ġwdam":5870,"Ġwvbf":5871,"166":5872,"1697":5873,"1667":5874,"179":5875,"1768":5876,"1792":5877,"178558":5878,"5799":5879,"5786":5880,"5734":5881,"1281":5882,"123654":5883,"Ġnh":5884,"Ġnn":5885,"195":5886,"1952":5887,"1955":5888,"1971":5889,"1992":5890,"Ġ478":5891,"Ġ4728":5892,"Ġ4326":5893,"Ġ4761":5894,"ilj":5895,"Ġ9107":5896,"Ġ9696":5897,"Ġ9119":5898,"Ġ9272":5899,"Ġ9559":5900,"Ġ9533":5901,"Ġ9499":5902,"Ġ9544":5903,"Ġ9309":5904,"Ġ9862":5905,"Ġ9468":5906,"Ġ3997":5907,"Ġ3132":5908,"Ġ3205":5909,"pagen":5910,"Ġew":5911,"urkjc":5912,"007":5913,"1130":5914,"739":5915,"7360":5916,"7364":5917,"ssions":5918,"cmh":5919,"5254":5920,"5224":5921,"5259":5922,"5295":5923,"5291":5924,"1346":5925,"1395":5926,"1369":5927,":///":5928,"361":5929,"3663":5930,"3633":5931,"3689":5932,"3659":5933,"36130":5934,"rating":5935,"Ġ624":5936,"Ġ6006":5937,"Ġ6676":5938,"baby":5939,"gez":5940,"rim":5941,"4550":5942,"454427":5943,"Ġtg":5944,"Ġtk":5945,"Ġ5532":5946,"Ġ5163":5947,"Ġ5197":5948,"4918":5949,"4959":5950,"4995":5951,"4934":5952,"4984":5953,"Ġ9947":5954,"Ġ2107":5955,"Ġ2102":5956,"Ġ2379":5957,"Ġ2634":5958,"Ġ2564":5959,"Ġ2493":5960,"Ġ2769":5961,"Ġ2829":5962,"6658":5963,"6689":5964,"6614":5965,"6692":5966,"backbone":5967,"9696":5968,"9630":5969,"9625":5970,"9659":5971,"9638":5972,"757507":5973,"807":5974,"8018":5975,"8058":5976,"8095":5977,"8027":5978,"Ġ3292":5979,"folder":5980,"9947":5981,"abcd":5982,"531":5983,"5313":5984,"5349":5985,"5339":5986,"537864":5987,"Ġ1776":5988,"Ġ1862":5989,"4755":5990,"4761":5991,"4787":5992,"2212":5993,"2286":5994,"2275":5995,"4052":5996,"4055":5997,"4021":5998,"4087":5999,"405021":6000,"9811":6001,"9810":6002,"9844":6003,"9885":6004,"9862":6005,"Ġ873":6006,"Ġ8104":6007,"Ġ8321":6008,"Ġ8103":6009,"Ġ8320":6010,"Ġ8902":6011,"Ġ8727":6012,"Ġ8001":6013,"Ġ8558":6014,"Ġ8583":6015,"484":6016,"7873":6017,"7856":6018,"7832":6019,"7824":6020,"7887":6021,"5640":6022,"5637":6023,"5577":6024,"5556":6025,"8627":6026,"7275":6027,"7233":6028,"buu":6029,"boe":6030,"5442":6031,"3270":6032,"3292":6033,"321342":6034,"375":6035,"376":6036,"3798":6037,"1061":6038,"7584":6039,"7507":6040,"5159":6041,"5184":6042,"wes":6043,"dbc":6044,"1206":6045,"110413":6046,"yeq":6047,"okhs":6048,"1570":6049,"1003":6050,"823":6051,"8231":6052,"smile":6053,"1813":6054,"1854":6055,"1875":6056,"1844":6057,"Ġbb":6058,"Ġbe":6059,"Ġbk":6060,"Ġbxo":6061,"webfont":6062,"9798":6063,"6349":6064,"6347":6065,"5026":6066,"compon":6067,"764":6068,"7611":6069,"7600":6070,"7699":6071,"7671":6072,"7604":6073,"sav":6074,"267":6075,"2640":6076,"2676":6077,"Ġ9885":6078,"Ġdk":6079,"Ġdw":6080,"Ġdyfy":6081,"907":6082,"9047":6083,"9038":6084,"lgy":6085,"lgnh":6086,"1231":6087,"4383":6088,"5880":6089,"5814":6090,"58798":6091,"success":6092,"siteeditor":6093,"7062":6094,"Ġ4710":6095,"Ġ4780":6096,"noti":6097,"Ġ7960":6098,"Ġ7805":6099,"304":6100,"3094":6101,"3952":6102,"397792":6103,"4180":6104,"4143":6105,"tmpuc":6106,"tmpux":6107,"tmpurkjc":6108,"xtlb":6109,"acy":6110,"6510":6111,"6592":6112,"655376":6113,"658231":6114,"pux":6115,"puku":6116,"Ġ5477":6117,"6749":6118,"6796":6119,"6755":6120,"674755":6121,"893":6122,"8945":6123,"8978":6124,"8958":6125,"1721":6126,"17288":6127,"2936":6128,"2966":6129,"6845":6130,"Ġ5011":6131,"Ġ5094":6132,"606":6133,"6056":6134,"Ġgzzy":6135,"editors":6136,"9386":6137,"9371":6138,"Ġ5259":6139,"Ġ5295":6140,"Ġ5235":6141,"7437":6142,"7426":6143,"744643":6144,"2352":6145,"238566":6146,"8180":6147,"Ġ5814":6148,"Ġ5548":6149,"Ġ5556":6150,"drnx":6151,"xdhuo":6152,"4483":6153,"nav":6154,"ngb":6155,"Ġxh":6156,"Ġxq":6157,"Ġxsw":6158,"Ġxmpg":6159,"1179":6160,"5943":6161,"59437":6162,"9519":6163,"2857":6164,"2813":6165,"2840":6166,"2830":6167,"eea":6168,"opj":6169,"6282":6170,"6239":6171,"621952":6172,"9219":6173,"9272":6174,"927713":6175,"618058":6176,"Ġ3857":6177,"Ġ3874":6178,"Ġ5734":6179,"427":6180,"7943":6181,"3436":6182,"3443":6183,"347747":6184,"mik":6185,"missions":6186,"838311":6187,"038":6188,"esvf":6189,"gjn":6190,"gjp":6191,"ltr":6192,"9141":6193,"fzb":6194,"hgh":6195,"qwer":6196,"mary":6197,"47447":6198,"sly":6199,"wqa":6200,"Ġ4916":6201,"Ġ4918":6202,"8473":6203,"snrd":6204,"rzs":6205,"rzz":6206,"3857":6207,"3898":6208,"3881":6209,"2720":6210,"2796":6211,"275234":6212,"jhw":6213,"Ġ1697":6214,"\");(":6215,"Ġ7320":6216,"whm":6217,"white":6218,"Ġrj":6219,"Ġrr":6220,"Ġrci":6221,"Ġrwes":6222,"Ġ5916":6223,"Ġ5996":6224,"Ġ5943":6225,"Ġ6940":6226,"shot":6227,"3547":6228,"8748":6229,"8795":6230,"Ġ2352":6231,"jmw":6232,"qfk":6233,"40625":6234,"joqd":6235,"9452":6236,"9449":6237,"qak":6238,"permissions":6239,"8815":6240,"Ġ2070":6241,"Ġ2029":6242,"qka":6243,"screenshot":6244,"Ġ2640":6245,"Ġ2830":6246,"Ġ2549":6247,"Ġ2596":6248,"Ġ8018":6249,"Ġ8021":6250,"models":6251,"klr":6252,"ggable":6253,"generation":6254,"izcy":6255,"izxtlb":6256,"8785":6257,"Ġ7584":6258,"Ġze":6259,"Ġzj":6260,"Ġzz":6261,"pencil":6262,"Ġ9266":6263,"Ġyj":6264,"Ġyv":6265,"Ġycvp":6266,"Ġywrh":6267,"Ġydbc":6268,"Ġysav":6269,"Ġywhm":6270,"Ġ1955":6271,"Ġ1906":6272,"547198":6273,"Ġovxq":6274,"samsun":6275,"Ġ1813":6276,"Ġ1882":6277,"eyw":6278,"mouse":6279,"330416":6280,"archive":6281,"tmpubob":6282,"tmpudrnx":6283,"tmpujoqd":6284,"233876":6285,"primary":6286,"Ġ4984":6287,"draggable":6288,"Ġpqak":6289,"authors":6290,"5466":6291,"546281":6292,"Ġkm":6293,"Ġkjmw":6294,"Ġqb":6295,"Ġqe":6296,"Ġqhgh":6297,"Ġqrzs":6298,"Ġqjhw":6299,"Ġud":6300,"Ġug":6301,"Ġuo":6302,"Ġutah":6303,"Ġuqka":6304,"Ġhb":6305,"Ġ9045":6306,"Ġian":6307,"Ġiyt":6308,"2829":6309,"Ġjdp":6310,"Ġjwqa":6311,"Ġlb":6312,"Ġljtk":6313,"174119":6314,"Ġvt":6315,"Ġcsly":6316,"bcca":6317,"Ġ7699":6318,"Ġ7604":6319,"096664":6320,"eodi":6321,"Ġ7762":6322,"Ġ7896":6323,"Ġ7824":6324,"bkij":6325,"girl":6326,"hkm":6327,"Ġ6845":6328,"Ġ7072":6329,"menus":6330,"592573":6331,"88888888":6332,"=ï¿½ï¿½ï¿½ï¿½/ï¿½ï¿½ï¿½ï¿½/ï¿½ï¿½ï¿½ï¿½/ï¿½ï¿½ï¿½ï¿½/ï¿½ï¿½ï¿½ï¿½/{":6333,"=ï¿½ï¿½ï¿½ï¿½\\ï¿½ï¿½ï¿½ï¿½\\ï¿½ï¿½ï¿½ï¿½\\ï¿½ï¿½ï¿½ï¿½\\ï¿½ï¿½ï¿½ï¿½\\{":6334,"Ġmz":6335,"509291":6336,"uwg":6337,"Ġ7290":6338,"Ġ7262":6339,"hmc":6340,"mkj":6341,"Ġ9624":6342,"dxh":6343,"Ġ9452":6344,"Ġ9449":6345,"62747447":6346,"248262":6347,"798223":6348,"798622":6349,"8305":6350,"9190":6351,"9193":6352,"9197":6353,"barrating":6354,"Ġkeih":6355,"Ġkehr":6356,"Ġ6692":6357,"550166":6358,"5163":6359,"Ġmovf":6360,"Ġ9243":6361,"9905":6362,"ibs":6363,"Ġldnm":6364,"125128":6365,"Ġlisting":6366,"Ġoocl":6367,"Ġkxeo":6368,"2551":6369,"447217":6370,"emoji":6371,"kozsu":6372,"Ġvguo":6373,"Ġvglm":6374,"Ġ8305":6375,"Ġ7163":6376,"Ġ7164":6377,"Ġtbhy":6378,"canton":6379,"269964":6380,"mudlogd":6381,"=ï¿½ï¿½ï¿½ï¿½/ï¿½ï¿½ï¿½ï¿½/ï¿½ï¿½ï¿½ï¿½/ï¿½ï¿½ï¿½ï¿½/ï¿½ï¿½ï¿½ï¿½/ï¿½ï¿½ï¿½ï¿½/ï¿½ï¿½ï¿½ï¿½/{":6382,"=ï¿½ï¿½ï¿½ï¿½\\ï¿½ï¿½ï¿½ï¿½\\ï¿½ï¿½ï¿½ï¿½\\ï¿½ï¿½ï¿½ï¿½\\ï¿½ï¿½ï¿½ï¿½\\ï¿½ï¿½ï¿½ï¿½\\{":6383,"2164":6384,"phone":6385,"Ġ7186":6386,"Ġzasm":6387,"Ġqawy":6388,"Ġigxc":6389,"735491":6390,"999999":6391,"Ġ8141":6392,"323118":6393,"Ġozhb":6394,"Ġcjur":6395,"852117":6396,"=ï¿½ï¿½ï¿½ï¿½\\ï¿½ï¿½ï¿½ï¿½\\{":6397,"Ġssaz":6398,"Ġrfvc":6399,"Ġqwih":6400,"Ġyolw":6401,"Ġmudq":6402,"198602":6403,"52427045":6404,"482343":6405,"Ġzgmk":6406,"Ġqswz":6407,"253352":6408,"254429":6409,"7202":6410,"8661":6411,"jgsi":6412,"Ġpazk":6413,"Ġuewa":6414,"Ġfcyg":6415,"Ġklhp":6416,"Ġeypz":6417,"Ġtnvj":6418,"Ġdvdv":6419,"909296":6420,"254520":6421,"Ġgwnj":6422,"381665":6423,"Ġzgdc":6424,"Ġocsf":6425,"Ġpvbl":6426,"Ġsbce":6427,"012496":6428,"030591":6429,"089504":6430,"060409":6431,"358446":6432,"6985":6433,"780945":6434,"752914":6435,"hmsw":6436,"iris":6437,"target":6438,"Ġdoji":6439,"Ġicfc":6440,"Ġhgmn":6441,"Ġfule":6442,"Ġjhhb":6443,"Ġoxuc":6444,"Ġipdy":6445,"Ġqwec":6446,"revisions":6447,"Ġayxh":6448,"ifubn":6449,"208834":6450,"Ġwuea":6451,"Ġwgog":6452,"Ġwwnb":6453,"179215":6454,"pagenow":6455,"361309":6456,"babygirl":6457,"5159715":6458,"Ġbxob":6459,"components":6460,"notices":6461,"tmpucilj":6462,"tmpuxeyw":6463,"172888":6464,"Ġxswn":6465,"59437653":6466,"Ġrcix":6467,"samsung":6468,"tmpubobs":6469,"013":6470,"146":6471,"151":6472,"1474":6473,"1497":6474,"1776":6475,"1559":6476,"1564":6477,"1578":6478,"1802":6479,"1558":6480,"1456":6481,"1401":6482,"1541":6483,"1460":6484,"1514":6485,"249":6486,"2110":6487,"2100":6488,"2117":6489,"2450":6490,"2127":6491,"2527":6492,"2559":6493,"2525":6494,"2502":6495,"2770":6496,"2982":6497,"2194":6498,"2805":6499,"2575":6500,"2498":6501,"2391":6502,"2779":6503,"2137":6504,"2491":6505,"2506":6506,"2574":6507,"2537":6508,"2185":6509,"2704":6510,"2323":6511,"2761":6512,"2136":6513,"2992":6514,"2909":6515,"2142":6516,"316":6517,"3171":6518,"3572":6519,"340":6520,"356":6521,"3123":6522,"3222":6523,"3709":6524,"3867":6525,"3505":6526,"3001":6527,"3789":6528,"3721":6529,"3459":6530,"3509":6531,"3369":6532,"3414":6533,"3715":6534,"3482":6535,"3539":6536,"3777":6537,"3700":6538,"3895":6539,"3987":6540,"3179":6541,"4192":6542,"4101":6543,"4572":6544,"4107":6545,"4706":6546,"4115":6547,"4321":6548,"4494":6549,"4284":6550,"4802":6551,"4327":6552,"4493":6553,"4364":6554,"4125":6555,"4703":6556,"4735":6557,"4700":6558,"4283":6559,"566":6560,"596":6561,"5107":6562,"5123":6563,"5109":6564,"5172":6565,"5450":6566,"5902":6567,"5176":6568,"5703":6569,"5860":6570,"6113":6571,"6757":6572,"655":6573,"6104":6574,"6406":6575,"6905":6576,"6103":6577,"6229":6578,"6705":6579,"6284":6580,"6001":6581,"6785":6582,"6475":6583,"6585":6584,"6125":6585,"6988":6586,"6200":6587,"6137":6588,"6185":6589,"6291":6590,"6824":6591,"6894":6592,"6007":6593,"7101":6594,"754":6595,"7100":6596,"7119":6597,"7474":6598,"7229":6599,"7521":6600,"7459":6601,"7194":6602,"7409":6603,"7199":6604,"7139":6605,"7433":6606,"812":6607,"8192":6608,"8129":6609,"854":6610,"875":6611,"8172":6612,"8119":6613,"8709":6614,"8458":6615,"8466":6616,"8001":6617,"8964":6618,"8770":6619,"8493":6620,"8967":6621,"8369":6622,"8430":6623,"8207":6624,"8414":6625,"8575":6626,"8002":6627,"8772":6628,"8325":6629,"8486":6630,"8821":6631,"8771":6632,"8366":6633,"8539":6634,"8541":6635,"8479":6636,"8191":6637,"8453":6638,"8998":6639,"8555":6640,"8488":6641,"8551":6642,"8442":6643,"916":6644,"9757":6645,"926":6646,"939":6647,"9000":6648,"933":6649,"9540":6650,"9360":6651,"9497":6652,"9478":6653,"9467":6654,"9660":6655,"9333":6656,"9001":6657,"9802":6658,"9485":6659,"9326":6660,"9509":6661,"9664":6662,"9404":6663,"9486":6664,"9782":6665,"9434":6666,"9496":6667,"9433":6668,"9591":6669,"9751":6670,"9135":6671,"9489":6672,"9329":6673,"9209":6674,"=..ï¿½ï¿½{":6675,"=ï¿½ï¿½ï¿½ï¿½ï¿½ï¿½{":6676,"=&_=":6677,"aj":6678,"aq":6679,"aw":6680,"aer":6681,"asm":6682,"ajj":6683,"akv":6684,"ahoq":6685,"bth":6686,"bla":6687,"bfb":6688,"bmt":6689,"bkq":6690,"bpy":6691,"bny":6692,"cj":6693,"cq":6694,"cle":6695,"clu":6696,"cij":6697,"cjz":6698,"cir":6699,"cvvq":6700,"cwmv":6701,"crim":6702,"cbuu":6703,"dw":6704,"dba":6705,"dge":6706,"dme":6707,"dzy":6708,"dgh":6709,"dggc":6710,"ek":6711,"ew":6712,"ewp":6713,"eva":6714,"ehy":6715,"eiq":6716,"eal":6717,"eqbq":6718,"ecae":6719,"euip":6720,"fh":6721,"fk":6722,"flu":6723,"fcu":6724,"fve":6725,"fdb":6726,"fvg":6727,"fng":6728,"fsf":6729,"fhg":6730,"flw":6731,"feea":6732,"fhkm":6733,"ga":6734,"gf":6735,"gy":6736,"ghp":6737,"gap":6738,"gdi":6739,"grf":6740,"gkey":6741,"gfu":6742,"gbm":6743,"gpy":6744,"gux":6745,"ggv":6746,"gfr":6747,"gyim":6748,"gcar":6749,"gacy":6750,"gklr":6751,"hz":6752,"hma":6753,"hue":6754,"hfo":6755,"hum":6756,"hxd":6757,"hji":6758,"hih":6759,"hki":6760,"hxb":6761,"hnx":6762,"hxz":6763,"hmq":6764,"hkqj":6765,"hgez":6766,"hlgy":6767,"ik":6768,"iu":6769,"ill":6770,"iun":6771,"iaz":6772,"irf":6773,"iwh":6774,"ioq":6775,"iib":6776,"iacv":6777,"jil":6778,"jic":6779,"jzt":6780,"jvp":6781,"jdj":6782,"juip":6783,"km":6784,"kw":6785,"ket":6786,"kch":6787,"ksr":6788,"ktm":6789,"klf":6790,"kvb":6791,"kut":6792,"kpk":6793,"khy":6794,"kxl":6795,"kdc":6796,"kdh":6797,"kalp":6798,"kpux":6799,"lma":6800,"lad":6801,"lpo":6802,"lpe":6803,"lqz":6804,"lza":6805,"lrl":6806,"ljo":6807,"lbb":6808,"lpz":6809,"lqo":6810,"lhma":6811,"lkdh":6812,"mce":6813,"mfo":6814,"mso":6815,"mvv":6816,"mzd":6817,"msl":6818,"mcn":6819,"mbb":6820,"mgd":6821,"mbl":6822,"mflu":6823,"nb":6824,"nr":6825,"nw":6826,"nay":6827,"nve":6828,"nls":6829,"nile":6830,"nces":6831,"naz":6832,"nsf":6833,"nem":6834,"nrl":6835,"nih":6836,"nbi":6837,"nbl":6838,"njk":6839,"ncmh":6840,"nmkj":6841,"oh":6842,"oet":6843,"ots":6844,"oab":6845,"oui":6846,"odr":6847,"ooht":6848,"pc":6849,"pj":6850,"pdo":6851,"pfo":6852,"pile":6853,"prefere":6854,"pqa":6855,"pxk":6856,"qm":6857,"qn":6858,"qs":6859,"qse":6860,"qon":6861,"qil":6862,"qlg":6863,"qcss":6864,"qop":6865,"qwc":6866,"qhg":6867,"qbb":6868,"qig":6869,"qnj":6870,"qbr":6871,"qez":6872,"qvl":6873,"qmzp":6874,"quwg":6875,"rwd":6876,"rupp":6877,"rrm":6878,"rybf":6879,"rji":6880,"rkf":6881,"rvj":6882,"rnj":6883,"rswd":6884,"ryeq":6885,"rqfk":6886,"rbfb":6887,"sca":6888,"sdb":6889,"sjq":6890,"sgj":6891,"sbi":6892,"sjy":6893,"tc":6894,"tu":6895,"tz":6896,"tta":6897,"trp":6898,"tww":6899,"tve":6900,"tcd":6901,"tnp":6902,"tgh":6903,"tjw":6904,"tnl":6905,"tlw":6906,"tuv":6907,"uch":6908,"uim":6909,"ucvb":6910,"uvf":6911,"uzw":6912,"uzb":6913,"udme":6914,"uggv":6915,"vet":6916,"vile":6917,"vwh":6918,"vngb":6919,"vtnl":6920,"wl":6921,"wv":6922,"wed":6923,"wep":6924,"wok":6925,"wzx":6926,"wje":6927,"wuk":6928,"wkz":6929,"wgjp":6930,"xja":6931,"xck":6932,"xie":6933,"xsp":6934,"xtm":6935,"xbu":6936,"xsa":6937,"xef":6938,"xzq":6939,"xyu":6940,"xux":6941,"xaor":6942,"xfzb":6943,"ywp":6944,"yae":6945,"ylg":6946,"yih":6947,"ydp":6948,"yxk":6949,"yxu":6950,"yvn":6951,"yxz":6952,"ymj":6953,"zm":6954,"zn":6955,"zpo":6956,"zmy":6957,"zhe":6958,"zsi":6959,"zwe":6960,"zlg":6961,"zfs":6962,"zsry":6963,"zkl":6964,"zbb":6965,"zsg":6966,"zgo":6967,"zwu":6968,"znj":6969,"zhb":6970,"zrg":6971,"zsd":6972,"zopj":6973,"Ġle":6974,"Ġar":6975,"Ġch":6976,"Ġho":6977,"Ġit":6978,"Ġgs":6979,"Ġif":6980,"Ġtt":6981,"Ġml":6982,"Ġur":6983,"Ġck":6984,"Ġra":6985,"Ġri":6986,"Ġdi":6987,"Ġjs":6988,"Ġsq":6989,"Ġsh":6990,"Ġsi":6991,"Ġdb":6992,"Ġ122":6993,"Ġfb":6994,"Ġ7670":6995,"Ġpu":6996,"Ġlf":6997,"Ġln":6998,"Ġzq":6999,"Ġxd":7000,"Ġkr":7001,"Ġrl":7002,"Ġvv":7003,"Ġcc":7004,"Ġrz":7005,"Ġflo":7006,"Ġhy":7007,"Ġvz":7008,"Ġund":7009,"Ġij":7010,"Ġql":7011,"Ġ7054":7012,"Ġqnd":7013,"Ġvw":7014,"Ġys":7015,"Ġft":7016,"Ġcw":7017,"Ġpy":7018,"Ġjn":7019,"Ġkh":7020,"Ġupn":7021,"Ġfg":7022,"Ġub":7023,"Ġcs":7024,"Ġjw":7025,"Ġ7859":7026,"Ġ1315":7027,"Ġ1231":7028,"legacy":7029,"amxl":7030,"cazt":7031,"roa":7032,"rot":7033,"stp":7034,"stmn":7035,"onza":7036,"onuj":7037,"onry":7038,"etsl":7039,"ctjt":7040,"ctjr":7041,"ctyp":7042,"1177":7043,"1120":7044,"1117":7045,"1171":7046,"1190":7047,"ndex":7048,"chkg":7049,"wpo":7050,"wpat":7051,"vaq":7052,"Ġax":7053,"Ġate":7054,"Ġaev":7055,"Ġacu":7056,"Ġape":7057,"Ġagz":7058,"Ġaedk":7059,"Ġakz":7060,"Ġabkq":7061,"Ġahxd":7062,"Ġaioq":7063,"Ġalrl":7064,"mazj":7065,"1019":7066,"1032":7067,"1037":7068,"1089":7069,"1083":7070,"1038":7071,"orh":7072,"orld":7073,"itq":7074,"itot":7075,"itsz":7076,"Ġandm":7077,"tag":7078,"tact":7079,"taun":7080,"taln":7081,"tavl":7082,"lozx":7083,"7780":7084,"7751":7085,"7715":7086,"7776":7087,"7729":7088,"7761":7089,"7704":7090,"Ġ1177":7091,"Ġ1130":7092,"evn":7093,"contact":7094,"fiyw":7095,"ttnx":7096,"2052":7097,"2036":7098,"2037":7099,"2043":7100,"2039":7101,"2085":7102,"2033":7103,"209254":7104,"463":7105,"4657":7106,"4663":7107,"4644":7108,"4633":7109,"4628":7110,"4692":7111,"701":7112,"708":7113,"7017":7114,"7048":7115,"7090":7116,"7039":7117,"7075706":7118,"7002":7119,"Ġwk":7120,"Ġww":7121,"Ġwx":7122,"Ġwex":7123,"Ġwlf":7124,"Ġwqw":7125,"Ġwfy":7126,"Ġwjk":7127,"Ġwol":7128,"Ġwka":7129,"Ġwsrv":7130,"Ġwita":7131,"Ġwlqo":7132,"Ġwnbi":7133,"Ġworld":7134,"cojq":7135,"dehy":7136,"1649":7137,"1699":7138,"1647":7139,"1659":7140,"1694":7141,"1601":7142,"heso":7143,"Ġasdo":7144,"rpz":7145,"175":7146,"1711":7147,"1752":7148,"1740":7149,"1755":7150,"1767":7151,"1769":7152,"mlss":7153,"mlcf":7154,"579":7155,"5757":7156,"5756":7157,"5758":7158,"5741":7159,"5765":7160,"5733":7161,"5735":7162,"1271":7163,"1241":7164,"12109":7165,"1264":7166,"Ġnj":7167,"Ġnq":7168,"Ġnw":7169,"Ġnas":7170,"Ġnise":7171,"Ġnxur":7172,"Ġnrh":7173,"Ġngp":7174,"Ġnbdp":7175,"Ġnmzp":7176,"Ġnggc":7177,"Ġnuct":7178,"Ġnzfs":7179,"jbbk":7180,"jbdk":7181,"jbzu":7182,"196":7183,"1900":7184,"1915":7185,"1950":7186,"1944":7187,"1967":7188,"1959":7189,"1901":7190,"upfo":7191,"Ġ4101":7192,"Ġ4110":7193,"Ġ4706":7194,"Ġ433":7195,"Ġ429":7196,"Ġ4246":7197,"Ġ4222":7198,"Ġ4494":7199,"Ġ4979":7200,"Ġ4130":7201,"Ġ4525":7202,"Ġ4802":7203,"Ġ4327":7204,"Ġ4364":7205,"Ġ4550":7206,"Ġ4826":7207,"Ġ4479":7208,"Ġ4302":7209,"Ġ4893":7210,"6466":7211,"Ġ9113":7212,"Ġ963":7213,"Ġ9653":7214,"Ġ938":7215,"Ġ9617":7216,"Ġ9206":7217,"Ġ9360":7218,"Ġ9478":7219,"Ġ9006":7220,"Ġ9467":7221,"Ġ9438":7222,"Ġ9320":7223,"Ġ9525":7224,"Ġ9802":7225,"Ġ9362":7226,"Ġ9509":7227,"Ġ9369":7228,"Ġ9779":7229,"Ġ9404":7230,"Ġ9486":7231,"Ġ9771":7232,"Ġ9751":7233,"Ġ9135":7234,"Ġ9471":7235,"Ġ9187":7236,"Ġ9674":7237,"Ġ9775":7238,"Ġ3171":7239,"Ġ373":7240,"Ġ3572":7241,"Ġ3123":7242,"Ġ3540":7243,"Ġ3709":7244,"Ġ3406":7245,"Ġ3360":7246,"Ġ3663":7247,"Ġ3668":7248,"Ġ3533":7249,"Ġ3640":7250,"Ġ3721":7251,"Ġ3327":7252,"Ġ3509":7253,"Ġ3369":7254,"Ġ3482":7255,"Ġ3434":7256,"Ġ3895":7257,"Ġ3987":7258,"cef":7259,"cebo":7260,"1928":7261,"Ġeb":7262,"Ġeq":7263,"Ġeba":7264,"Ġesc":7265,"Ġexd":7266,"Ġesn":7267,"Ġeand":7268,"Ġefy":7269,"Ġelp":7270,"Ġeacv":7271,"1680":7272,"1688":7273,"009":7274,"dovp":7275,"dooe":7276,"henq":7277,"7313":7278,"7396":7279,"7348":7280,"7386":7281,"7341":7282,"7333":7283,"7308":7284,"7387":7285,"73676":7286,"7304":7287,"735878":7288,"cmpr":7289,"5246":7290,"5270":7291,"5257":7292,"5219":7293,"5255":7294,"5276":7295,"5287":7296,"1377":7297,"1344":7298,"1385":7299,"1328":7300,"1383":7301,"touch":7302,"3640":7303,"3671":7304,"3632":7305,"3644":7306,"3668":7307,"3692":7308,"3684":7309,"3694":7310,"rasz":7311,"Ġ6116":7312,"Ġ6478":7313,"Ġ6229":7314,"Ġ6997":7315,"Ġ6528":7316,"Ġ6369":7317,"Ġ6475":7318,"Ġ6414":7319,"Ġ6715":7320,"Ġ6160":7321,"Ġ6529":7322,"Ġ6590":7323,"Ġ6200":7324,"Ġ6137":7325,"Ġ6782":7326,"Ġ6769":7327,"Ġ6901":7328,"Ġ6490":7329,"Ġ6739":7330,"Ġ6606":7331,"Ġ6038":7332,"baz":7333,"bazt":7334,"geg":7335,"rirm":7336,"451":7337,"4552":7338,"4585":7339,"4568":7340,"4531":7341,"453125":7342,"Ġtx":7343,"Ġtz":7344,"Ġtye":7345,"Ġtqh":7346,"Ġtpd":7347,"Ġtdk":7348,"Ġtstp":7349,"cusv":7350,"dile":7351,"diyl":7352,"scq":7353,"sccc":7354,"Ġ5107":7355,"Ġ5123":7356,"Ġ5109":7357,"Ġ589":7358,"Ġ5172":7359,"Ġ5652":7360,"Ġ5450":7361,"Ġ5406":7362,"Ġ5533":7363,"Ġ5528":7364,"Ġ5464":7365,"Ġ5986":7366,"Ġ5908":7367,"Ġ5984":7368,"Ġ5907":7369,"Ġ5451":7370,"4951":7371,"4943":7372,"4985":7373,"4933":7374,"4962":7375,"4903":7376,"4991":7377,"4904":7378,"493125":7379,"Ġ9949":7380,"Ġ9948":7381,"Ġ9969":7382,"Ġ9931":7383,"Ġ2100":7384,"Ġ2117":7385,"Ġ2973":7386,"Ġ2360":7387,"Ġ2130":7388,"Ġ2525":7389,"Ġ2665":7390,"Ġ2982":7391,"Ġ2393":7392,"Ġ2805":7393,"Ġ2176":7394,"Ġ2498":7395,"Ġ2391":7396,"Ġ2782":7397,"Ġ2506":7398,"Ġ2574":7399,"Ġ2366":7400,"Ġ2569":7401,"Ġ2777":7402,"Ġ2554":7403,"Ġ2694":7404,"Ġ2221":7405,"Ġ2267":7406,"662":7407,"6612":7408,"6680":7409,"6697":7410,"6665":7411,"6674":7412,"6661":7413,"6642":7414,"6634":7415,"6684":7416,"66278":7417,"9617":7418,"9612":7419,"9656":7420,"9672":7421,"9676":7422,"9626":7423,"9603":7424,"9609":7425,"ayib":7426,"8082":7427,"8026":7428,"8033":7429,"8068":7430,"8060":7431,"8081":7432,"8083":7433,"Ġ3253":7434,"Ġ3232":7435,"Ġ3251":7436,"Ġ3239":7437,"srdq":7438,"fof":7439,"fote":7440,"agrz":7441,"agjo":7442,"aggp":7443,"vesk":7444,"vezw":7445,"vefp":7446,"991":7447,"994":7448,"9900":7449,"9949":7450,"9948":7451,"9976":7452,"9921":7453,"9903":7454,"9931":7455,"dack":7456,"abk":7457,"abet":7458,"abjj":7459,"5310":7460,"5357":7461,"5347":7462,"5375":7463,"5341":7464,"5325":7465,"5329":7466,"5381":7467,"5334":7468,"5335":7469,"53584":7470,"Ġ1497":7471,"Ġ1413":7472,"Ġ1878":7473,"Ġ1528":7474,"Ġ1560":7475,"Ġ1514":7476,"Ġ1860":7477,"472":7478,"4716":7479,"4780":7480,"4718":7481,"4741":7482,"4795":7483,"2216":7484,"2248":7485,"2255":7486,"2221":7487,"2279":7488,"question":7489,"peo":7490,"403":7491,"4015":7492,"4050":7493,"4026":7494,"403694":7495,"989":7496,"9870":7497,"9813":7498,"9899":7499,"9854":7500,"9897":7501,"9863":7502,"9830":7503,"9814":7504,"9860":7505,"Ġ8129":7506,"Ġ893":7507,"Ġ8766":7508,"Ġ8663":7509,"Ġ8223":7510,"Ġ8152":7511,"Ġ8802":7512,"Ġ8770":7513,"Ġ8268":7514,"Ġ8430":7515,"Ġ8575":7516,"Ġ8990":7517,"Ġ8772":7518,"Ġ8703":7519,"Ġ8821":7520,"Ġ8571":7521,"Ġ8460":7522,"Ġ8191":7523,"Ġ8453":7524,"Ġ8998":7525,"Ġ8262":7526,"Ġ8824":7527,"Ġ8991":7528,"spk":7529,"4810":7530,"4849":7531,"4866":7532,"4871":7533,"4815":7534,"4863":7535,"4826":7536,"4839":7537,"4827":7538,"4894":7539,"4888":7540,"1318":7541,"1162":7542,"1169":7543,"tpi":7544,"tpmn":7545,"tpkz":7546,"tpxyu":7547,"788":7548,"7811":7549,"7870":7550,"7876":7551,"7823":7552,"7879":7553,"5649":7554,"5653":7555,"5682":7556,"5658":7557,"5630":7558,"5639":7559,"5602":7560,"Ġ1169":7561,"5517":7562,"5519":7563,"5552":7564,"5553":7565,"5514":7566,"5503":7567,"8617":7568,"8657":7569,"8613":7570,"8696":7571,"8658":7572,"8633":7573,"8609":7574,"86475":7575,"861680":7576,"tyco":7577,"tyan":7578,"tyir":7579,"rtd":7580,"rtwe":7581,"7182":7582,"7141":7583,"7184":7584,"sqse":7585,"sqvj":7586,"sqxz":7587,"sha":7588,"shz":7589,"share":7590,"7282":7591,"7230":7592,"7260":7593,"7259":7594,"725503":7595,"buys":7596,"bod":7597,"bofq":7598,"5477":7599,"5433":7600,"5423":7601,"5434":7602,"545262":7603,"3216":7604,"3266":7605,"3253":7606,"3232":7607,"3251":7608,"3239":7609,"3720":7610,"3712":7611,"3713":7612,"3751":7613,"3741":7614,"3762":7615,"71672":7616,"7545":7617,"7598":7618,"7583":7619,"7591":7620,"518":7621,"5148":7622,"5150":7623,"514781":7624,"kejt":7625,"1209":7626,"1104":7627,"1109":7628,"yeu":7629,"150":7630,"1586":7631,"1595":7632,"Ġ4628":7633,"Ġ4631":7634,"8280":7635,"8298":7636,"8268":7637,"8262":7638,"824206":7639,"smh":7640,"smqx":7641,"sygs":7642,"syvv":7643,"1810":7644,"1857":7645,"1878":7646,"Ġ4015":7647,"Ġ4050":7648,"Ġ4093":7649,"1041":7650,"uaxwh":7651,"uakx":7652,"lsdk":7653,"qzpn":7654,"qzbx":7655,"Ġbc":7656,"Ġbm":7657,"Ġbvs":7658,"Ġbrnj":7659,"Ġbbaz":7660,"Ġbshz":7661,"example":7662,"Ġ3957":7663,"Ġ3952":7664,"srcc":7665,"ĠĠĠ":7666,"zah":7667,"974":7668,"9752":7669,"9745":7670,"9743":7671,"9795":7672,"9762":7673,"9742":7674,"6372":7675,"6390":7676,"6388":7677,"503":7678,"5010":7679,"5066":7680,"5065":7681,"5093":7682,"5064":7683,"wmo":7684,"wmep":7685,"compile":7686,"7620":7687,"7616":7688,"7654":7689,"7658":7690,"2446":7691,"2470":7692,"2432":7693,"2430":7694,"2423":7695,"244125":7696,"elne":7697,"cds":7698,"cdfu":7699,"2657":7700,"2699":7701,"2632":7702,"2627":7703,"2694":7704,"Ġ9897":7705,"Ġ9830":7706,"000066":7707,"Ġdm":7708,"Ġdx":7709,"Ġdqk":7710,"Ġdsk":7711,"Ġdcp":7712,"Ġdtr":7713,"Ġdxk":7714,"Ġdnt":7715,"Ġdgpy":7716,"Ġdzbb":7717,"afmr":7718,"afsb":7719,"906":7720,"9046":7721,"9054":7722,"9032":7723,"9090":7724,"9074":7725,"9081":7726,"9062":7727,"9091":7728,"9088":7729,"903436":7730,"viom":7731,"6160":7732,"lgjo":7733,"fbjj":7734,"4340":7735,"4318":7736,"4385":7737,"4381":7738,"4334":7739,"4302":7740,"5846":7741,"5819":7742,"5832":7743,"5897":7744,"5891":7745,"5838":7746,"suf":7747,"anqe":7748,"owta":7749,"owtc":7750,"Ġ4795":7751,"Ġ7118":7752,"Ġ7521":7753,"Ġ7466":7754,"Ġ7558":7755,"Ġ7194":7756,"Ġ7664":7757,"Ġ7904":7758,"Ġ7409":7759,"Ġ7199":7760,"Ġ7908":7761,"3095":7762,"3069":7763,"395":7764,"3958":7765,"3930":7766,"3941":7767,"39453125":7768,"4157":7769,"4140":7770,"tmpuaxwh":7771,"Ġ4570":7772,"4410":7773,"4417":7774,"4449":7775,"4447":7776,"4422":7777,"4440":7778,"859":7779,"6547":7780,"6548":7781,"6597":7782,"vcio":7783,"panv":7784,"imux":7785,"2511":7786,"2517":7787,"2596":7788,"Ġwpir":7789,"3349":7790,"3315":7791,"3338":7792,"3388":7793,"puh":7794,"puwl":7795,"Ġ5457":7796,"Ġ5426":7797,"6790":7798,"uiai":7799,"8920":7800,"8980":7801,"8948":7802,"8975":7803,"8941":7804,"8935":7805,"Ġ9752":7806,"Ġ9745":7807,"Ġ9743":7808,"Ġ9795":7809,"azuj":7810,"azkg":7811,"icqu":7812,"1416":7813,"1448":7814,"1421":7815,"1428":7816,"17205347":7817,"qtbg":7818,"ĠĠĠĠĠĠĠ":7819,"pbdc":7820,"rfan":7821,"efef":7822,"efdc":7823,"uhja":7824,"moqs":7825,"moxie":7826,"meu":7827,"mejs":7828,"meoi":7829,"pij":7830,"pipp":7831,"6560":7832,"6569":7833,"2912":7834,"2973":7835,"2947":7836,"2918":7837,"2930":7838,"2941":7839,"2938":7840,"684":7841,"6873":7842,"6853":7843,"6875":7844,"6851":7845,"6815":7846,"6885":7847,"6887":7848,"Ġ5010":7849,"Ġ5053":7850,"Ġ5026":7851,"Ġ5021":7852,"Ġ5064":7853,"vgtn":7854,"bff":7855,"jqbr":7856,"6020":7857,"6066":7858,"6078":7859,"6033":7860,"6074":7861,"6095":7862,"6038":7863,"Ġgb":7864,"Ġght":7865,"Ġgcc":7866,"Ġghn":7867,"Ġgoj":7868,"Ġgcqb":7869,"Ġgksr":7870,"Ġgpij":7871,"ecxz":7872,"9388":7873,"Ġ5219":7874,"Ġ5218":7875,"Ġ5276":7876,"Ġ5225":7877,"Ġ5242":7878,"Ġ5291":7879,"lnwp":7880,"lnpi":7881,"7443":7882,"742216":7883,"235":7884,"238":7885,"2322":7886,"2344":7887,"atgo":7888,"atbdp":7889,"8152":7890,"8145":7891,"8147":7892,"8143":7893,"umja":7894,"Ġ5857":7895,"Ġ5813":7896,"Ġ5889":7897,"Ġ5838":7898,"utvx":7899,"7662":7900,"7664":7901,"zqv":7902,"Ġ5577":7903,"Ġ5517":7904,"drgo":7905,"Ġ6340":7906,"ztn":7907,"ztxj":7908,"pksf":7909,"pkzp":7910,"pkly":7911,"pkoe":7912,"xdpi":7913,"Ġ1271":7914,"Ġ1285":7915,"4488":7916,"5405":7917,"ngqu":7918,"Ġxe":7919,"Ġxz":7920,"Ġxcat":7921,"Ġxbb":7922,"Ġxgd":7923,"Ġxgk":7924,"Ġxwup":7925,"Ġxrgj":7926,"Ġxlqz":7927,"Ġxgeg":7928,"Ġxmeu":7929,"5523":7930,"Ġ6250":7931,"Ġ6285":7932,"594":7933,"5919":7934,"5900":7935,"5966":7936,"5951":7937,"6419":7938,"6452":7939,"6418":7940,"6425":7941,"9556":7942,"956466":7943,"));(":7944,"2836":7945,"2848":7946,"2886":7947,"2897":7948,"2850":7949,"2890":7950,"2841":7951,"2885":7952,"2842":7953,"Ġ1038":7954,"rmk":7955,"Ġ1377":7956,"Ġ1372":7957,"Ġ1341":7958,"Ġ1367":7959,"Ġ1329":7960,"Ġ1361":7961,"Ġ1302":7962,"sfg":7963,"6220":7964,"6270":7965,"6249":7966,"6290":7967,"6285":7968,"9211":7969,"9277":7970,"9216":7971,"9253":7972,"9271":7973,"9290":7974,"6146":7975,"6147":7976,"1194":7977,"iaox":7978,"Ġ3898":7979,"Ġ3814":7980,"jict":7981,"jiou":7982,"usvf":7983,"uswu":7984,"Ġ5799":7985,"Ġ5798":7986,"Ġ5765":7987,"Ġ5793":7988,"Ġ5735":7989,"4282":7990,"4289":7991,"4274":7992,"42391":7993,"7946":7994,"7917":7995,"7945":7996,"7940":7997,"7942":7998,"794991":7999,"3422":8000,"3423":8001,"4209":8002,"xvrx":8003,"8317":8004,"8312":8005,"8353":8006,"gjx":8007,"gjgf":8008,"Ġ8413":8009,"haqx":8010,"ĠĠĠĠĠĠĠĠĠĠĠĠĠĠĠ":8011,"gzk":8012,"6920":8013,"6973":8014,"6922":8015,"6972":8016,"9180":8017,"9153":8018,"fztt":8019,"wcr":8020,"hgb":8021,"hgn":8022,"hgpn":8023,"hgbr":8024,"hgwo":8025,"qwhn":8026,"qwvq":8027,"rlhb":8028,"vvpl":8029,"474008":8030,"slhm":8031,"Ġ6078":8032,"Ġ6075":8033,"Ġ6063":8034,"wqq":8035,"wqtp":8036,"wqcj":8037,"Ġ4849":8038,"Ġ4866":8039,"Ġ4841":8040,"Ġ4887":8041,"Ġ4951":8042,"Ġ4950":8043,"Ġ4933":8044,"Ġ4959":8045,"zxwq":8046,"8411":8047,"8418":8048,"fuv":8049,"snli":8050,"snyb":8051,"rzbi":8052,"rzyj":8053,"3848":8054,"3814":8055,"3883":8056,"2713":8057,"2797":8058,"hykf":8059,"hygr":8060,"jhis":8061,"pfkf":8062,"pfpc":8063,"Ġ1617":8064,"Ġ1618":8065,"Ġ1624":8066,"Ġ1621":8067,"Ġ1695":8068,"Ġ1669":8069,"Ġ6190":8070,"regul":8071,"mppd":8072,"cnku":8073,"ffnu":8074,"Ġ7382":8075,"Ġ7341":8076,"Ġ7304":8077,"))))#":8078,"whhk":8079,"Ġrhd":8080,"Ġrjd":8081,"Ġrhhh":8082,"Ġrbny":8083,"Ġrhum":8084,"Ġ5640":8085,"crin":8086,"crrk":8087,"crkb":8088,"Ġ8273":8089,"Ġ8280":8090,"Ġ6973":8091,"Ġ4318":8092,"Ġ4449":8093,"Ġ4447":8094,"ijif":8095,"ijfg":8096,"kfsh":8097,"ivity":8098,"ivrh":8099,"fax":8100,"faln":8101,"facebo":8102,"qlrv":8103,"ractivity":8104,"Ġ1194":8105,"3553":8106,"oxh":8107,"oxj":8108,"oxmt":8109,"8720":8110,"8745":8111,"xlq":8112,"Ġ2336":8113,"Ġ2349":8114,"Ġ2322":8115,"omrr":8116,"6174":8117,"6176":8118,"6179":8119,"dyf":8120,"dyok":8121,"dywq":8122,"dyqm":8123,"jmvp":8124,"jmkt":8125,"kiwa":8126,"kiuu":8127,"vwjb":8128,"yoit":8129,"yoan":8130,"yozx":8131,"065726":8132,"qfvr":8133,"jlts":8134,"Ġ4270":8135,"fdin":8136,"fdsh":8137,")),'":8138,"kqg":8139,"kqkr":8140,"mhum":8141,"rudo":8142,"Ġmyrm":8143,"3604":8144,"jook":8145,"rrgz":8146,"9419":8147,"9437":8148,"9418":8149,"9443":8150,"9425":8151,"zygz":8152,"yudt":8153,"Ġ3039":8154,"Ġ3069":8155,"uuyz":8156,"ftin":8157,"ftlu":8158,"ĠĠĠĠĠĠĠĠĠĠĠĠĠĠĠĠĠĠĠĠĠĠĠĠĠĠĠĠĠĠĠ":8159,"673552":8160,"cwxm":8161,"8813":8162,"8854":8163,"8876":8164,"8842":8165,"8879":8166,"clsc":8167,"4159":8168,"Ġ4009":8169,"70757569":8170,"alph":8171,"fszt":8172,"mrxr":8173,"mrga":8174,"Ġ2016":8175,"Ġ2012":8176,"zpy":8177,"');(":8178,"muf":8179,"qkmc":8180,"qktv":8181,"zoa":8182,"Ġ2610":8183,"Ġ2619":8184,"Ġ2699":8185,"Ġ2654":8186,"Ġ2820":8187,"Ġ3423":8188,"Ġ2511":8189,"2726":8190,"monx":8191,"vpcm":8192,"jnua":8193,"jnjv":8194,"jnnw":8195,"uxf":8196,"uxfl":8197,"Ġ8070":8198,"Ġ8068":8199,"Ġ8081":8200,"Ġ8059":8201,"Ġ8083":8202,"Ġ8084":8203,"jzf":8204,"jzpg":8205,"Ġ2446":8206,"Ġ2470":8207,"Ġ2417":8208,"Ġ2432":8209,"Ġ2423":8210,"fmv":8211,"fmmc":8212,"gvh":8213,"gvzd":8214,"hwi":8215,"hwcm":8216,"hwjs":8217,"vfum":8218,"vfut":8219,"jjns":8220,"odwz":8221,"khld":8222,"xqi":8223,"xqsq":8224,"fyep":8225,"fymd":8226,"fyrk":8227,"jytn":8228,"8903":8229,"8906":8230,"8909":8231,"wzwmo":8232,"4130":8233,"4136":8234,"4139":8235,"klmx":8236,"klqn":8237,"Ġmakd":8238,"gmpt":8239,"gmqi":8240,"bbcd":8241,"ggvp":8242,"iziq":8243,"izey":8244,"npra":8245,"Ġ1549":8246,"Ġ1580":8247,"')));(":8248,"igvs":8249,"tryo":8250,"6769":8251,"Ġ7590":8252,"Ġ7583":8253,"Ġ7507":8254,"ppxq":8255,"Ġzno":8256,"Ġzboe":8257,"Ġzfdb":8258,"Ġzhxb":8259,"Ġzlma":8260,"Ġzrwd":8261,"Ġzuzw":8262,"Ġztpi":8263,"Ġzsuf":8264,"Ġzwcr":8265,"Ġzoxh":8266,"Ġzkqg":8267,"Ġzmuf":8268,"Ġzgvh":8269,"8703":8270,"Ġ9216":8271,"Ġ9239":8272,"ipch":8273,"ipbo":8274,"qhc":8275,"Ġyf":8276,"Ġyt":8277,"Ġyy":8278,"Ġyneg":8279,"Ġyfbn":8280,"Ġymik":8281,"Ġyzwu":8282,"Ġyrmk":8283,"Ġyjzf":8284,"Ġyxqi":8285,"Ġ1975":8286,"Ġ1915":8287,"Ġ1967":8288,"7055757":8289,"mmwi":8290,"mmxu":8291,"5479":8292,"xmzv":8293,"Ġoey":8294,"Ġojk":8295,"Ġosmh":8296,"Ġogjx":8297,"Ġohgn":8298,"Ġodyf":8299,"fgxf":8300,"Ġ1857":8301,"eyzn":8302,"Ġ6862":8303,"sgva":8304,"6302":8305,"tmpujk":8306,"tmpuqy":8307,"tmpujvp":8308,"tmpujbbk":8309,"rjtj":8310,"\")));(":8311,"gowd":8312,"ocvc":8313,"ocyu":8314,"privile":8315,"chqn":8316,"ĠĠĠĠĠĠĠĠĠĠĠĠĠĠĠĠĠĠĠĠĠĠĠĠĠĠĠĠĠĠĠĠĠĠĠĠĠĠĠĠĠĠĠĠĠĠĠĠĠĠĠĠĠĠĠĠĠĠĠĠĠĠĠ":8317,"Ġ4985":8318,"frit":8319,"globe":8320,"lyf":8321,"nqsz":8322,"nqyy":8323,"Ġpv":8324,"Ġpw":8325,"Ġpnx":8326,"Ġpxci":8327,"Ġpvx":8328,"Ġpcae":8329,"Ġpmso":8330,"Ġpvaq":8331,"Ġphgb":8332,"Ġpzpy":8333,"Ġpqhc":8334,"444225":8335,"5981":8336,"5986":8337,"Ġ2236":8338,"Ġ2275":8339,"Ġ2279":8340,"Ġkk":8341,"Ġkz":8342,"Ġkbiz":8343,"Ġkaor":8344,"Ġkhoq":8345,"Ġkpeo":8346,"Ġ3154":8347,"ennz":8348,"'));(":8349,"masonry":8350,"nkve":8351,"Ġqvq":8352,"Ġqgfu":8353,"Ġqqbb":8354,"Ġqorh":8355,"Ġqabk":8356,"nxum":8357,"nxgb":8358,"twks":8359,"Ġ5317":8360,"Ġ5348":8361,"Ġ5341":8362,"Ġuq":8363,"Ġuog":8364,"Ġugjn":8365,"Ġuwpo":8366,"Ġurpz":8367,"Ġuzah":8368,"Ġuoxj":8369,"nehd":8370,"djxt":8371,"civv":8372,"Ġhrp":8373,"Ġhctx":8374,"Ġhdq":8375,"Ġhrzz":8376,"Ġhlbb":8377,"Ġhbff":8378,"Ġhzqv":8379,"Ġhuxf":8380,"Ġ9090":8381,"Ġ9074":8382,"Ġ9092":8383,"Ġ9091":8384,"634008":8385,"vnjh":8386,"Ġiwt":8387,"Ġictq":8388,"Ġiyae":8389,"Ġirtd":8390,"Ġipuh":8391,"Ġ2953":8392,"Ġ2947":8393,"Ġ2930":8394,"Ġ3553":8395,"2823":8396,"Ġjfve":8397,"Ġjtuv":8398,"Ġjscq":8399,"Ġjxlq":8400,"Ġlp":8401,"Ġlz":8402,"Ġlapi":8403,"Ġlhmc":8404,"Ġljdj":8405,"Ġlitq":8406,"Ġlspk":8407,"Ġvd":8408,"Ġvphp":8409,"Ġvlp":8410,"Ġvyl":8411,"Ġvrsr":8412,"Ġvxux":8413,"Ġvfof":8414,"Ġvbod":8415,"Ġvcds":8416,"Ġvwqq":8417,"Ġcles":8418,"Ġcju":8419,"Ġcfmv":8420,"ulky":8421,"6869":8422,"pzxt":8423,"pzry":8424,"7421875":8425,"Ġ8920":8426,"Ġ8948":8427,"Ġfp":8428,"Ġfqvl":8429,"Ġfwje":8430,"Ġfroa":8431,"Ġfztn":8432,"Ġfsfg":8433,"Ġffuv":8434,"Ġflyf":8435,"bqgl":8436,"Ġ9556":8437,"yzsd":8438,"ukna":8439,"uksl":8440,"ukff":8441,"ĠĠĠĠĠĠĠĠĠĠĠĠĠĠĠĠĠĠĠĠĠĠĠĠĠĠĠĠĠĠĠĠĠĠĠĠĠĠĠĠĠĠĠĠĠĠĠĠĠĠĠĠĠĠĠĠĠĠĠĠĠĠĠĠĠĠĠĠĠĠĠĠĠĠĠĠĠĠĠĠĠĠĠĠĠĠĠĠĠĠĠĠĠĠĠĠĠĠĠĠĠĠĠĠĠĠĠĠĠĠĠĠĠĠĠĠĠĠĠĠĠĠĠĠĠĠĠ":8442,"hdji":8443,"wym":8444,"Ġ7713":8445,"Ġ7780":8446,"Ġ7729":8447,"axoh":8448,"mjha":8449,"wued":8450,"Ġ7811":8451,"Ġ7873":8452,"Ġ7868":8453,"Ġ7879":8454,"hngs":8455,"bdxt":8456,"bkma":8457,"dlon":8458,"rhz":8459,"Ġ8353":8460,"Ġ8386":8461,"giyk":8462,"Ġ3611":8463,"Ġ6836":8464,"Ġ6866":8465,"Ġ6880":8466,"Ġ6853":8467,"Ġ6875":8468,"Ġ6858":8469,"3821":8470,"nyli":8471,"nyfi":8472,"Ġ7017":8473,"Ġ7080":8474,"Ġ7037":8475,"Ġ7075":8476,"Ġ7039":8477,"hbsm":8478,"rwda":8479,"rwos":8480,"rwkz":8481,"ywvl":8482,"mediaelementplayer":8483,"3433":8484,"8460":8485,"brqr":8486,"cbnv":8487,"tqml":8488,"tqul":8489,"Ġsbgw":8490,"Ġsloc":8491,"Ġszoa":8492,"Ġ9386":8493,"Ġ9381":8494,"Ġ8799":8495,"Ġ8747":8496,"78566278":8497,"2782":8498,"2783":8499,"27842391":8500,"=ï¿½ï¿½ï¿½ï¿½/ï¿½ï¿½ï¿½ï¿½/ï¿½ï¿½ï¿½ï¿½/ï¿½ï¿½ï¿½ï¿½/{":8501,"=ï¿½ï¿½ï¿½ï¿½\\ï¿½ï¿½ï¿½ï¿½\\ï¿½ï¿½ï¿½ï¿½\\ï¿½ï¿½ï¿½ï¿½\\{":8502,"jtbl":8503,"mqou":8504,"olwu":8505,"qgqh":8506,"Ġmlo":8507,"Ġmkdc":8508,"dukq":8509,"duly":8510,"dvlv":8511,"jdvq":8512,"jxbf":8513,"jxrl":8514,"jxnu":8515,"ogfb":8516,"pdjy":8517,"pdqj":8518,"uwrt":8519,"uwig":8520,"yvfc":8521,"yvdd":8522,"oybo":8523,"wnhb":8524,"ymzi":8525,"ymzm":8526,"Ġ7230":8527,"2569":8528,"3391":8529,"8734":8530,"8738":8531,"8739":8532,"9773":8533,"9775":8534,"9779":8535,"yxfv":8536,"Ġ9620":8537,"Ġ9612":8538,"Ġ9632":8539,"viga":8540,"jgde":8541,"jgck":8542,"nhrw":8543,"qyfm":8544,"edkd":8545,"Ġ9419":8546,"Ġexnk":8547,"hhhs":8548,"ĠĠĠĠĠĠĠĠĠĠĠĠĠĠĠĠĠĠĠĠĠĠĠĠĠĠĠĠĠĠĠĠĠĠĠĠĠĠĠĠĠĠĠĠĠĠĠĠĠĠĠĠĠĠĠĠĠĠĠĠĠĠĠĠĠĠĠĠĠĠĠĠĠĠĠĠĠĠĠĠĠĠĠĠĠĠĠĠĠĠĠĠĠĠĠĠĠĠĠĠĠĠĠĠĠĠĠĠĠĠĠĠĠĠĠĠĠĠĠĠĠĠĠĠĠĠĠĠĠĠĠĠĠĠĠĠĠĠĠĠĠĠĠĠĠĠĠĠĠĠĠĠĠĠĠĠĠĠĠĠĠĠĠĠĠĠĠĠĠĠĠĠĠĠĠĠĠĠĠĠĠĠĠĠĠĠĠĠĠĠĠĠĠĠĠĠĠĠĠĠĠĠĠĠĠĠĠĠĠĠĠĠĠĠĠĠĠĠĠĠĠĠĠĠĠĠĠĠĠĠĠĠĠĠĠĠĠĠĠĠĠĠĠĠĠĠĠĠĠĠĠĠĠĠĠ":8549,"2488":8550,"4009":8551,"6490":8552,"7988":8553,"8304":8554,"8308":8555,"9476":8556,"wjxk":8557,"yrty":8558,"yrne":8559,"Ġkeio":8560,"Ġkejv":8561,"Ġ6680":8562,"Ġ6655":8563,"5164":8564,"9454":8565,"ezlc":8566,"flag":8567,"flqg":8568,"kzet":8569,"qoua":8570,"qoip":8571,"rgme":8572,"rgbc":8573,"vlvc":8574,"wrnd":8575,"Ġmoro":8576,"Ġmoyx":8577,"sshx":8578,"1534":8579,"3991":8580,"3788":8581,"4375":8582,"4376":8583,"dnsx":8584,"dnus":8585,"htae":8586,"ibts":8587,"kald":8588,"kahd":8589,"ujri":8590,"ujku":8591,"Ġldme":8592,"Ġldci":8593,"Ġooyw":8594,"Ġkxdf":8595,"1860":8596,"2554":8597,"255065726":8598,"3496":8599,"5907":8600,"5908":8601,"dkwt":8602,"gtvr":8603,"iotp":8604,"qxau":8605,"qxcd":8606,"szeg":8607,"txht":8608,"xcic":8609,"xcxu":8610,"ximy":8611,"xisu":8612,"Ġ8304":8613,"Ġ8308":8614,"5064716":8615,"tmpuextm":8616,"grsh":8617,"grgg":8618,"jcrm":8619,"jvct":8620,"knqt":8621,"lmgs":8622,"lplg":8623,"lxlu":8624,"lxcn":8625,"lxgc":8626,"oavn":8627,"yfrp":8628,"yjdo":8629,"Ġsowb":8630,"Ġsotf":8631,"Ġihcg":8632,"Ġihlv":8633,"Ġihdv":8634,"Ġodmj":8635,"Ġodnr":8636,"Ġodwv":8637,"Ġnpsp":8638,"Ġnphm":8639,"Ġtbdh":8640,"Ġtbhn":8641,"2169":8642,"2635":8643,"2638":8644,"2639":8645,"6501":8646,"bjdb":8647,"bnfr":8648,"eudy":8649,"gkdi":8650,"ghwt":8651,"ixhd":8652,"mbxy":8653,"nutm":8654,"nukz":8655,"ryxk":8656,"sdzk":8657,"xjbo":8658,"yqki":8659,"yqmk":8660,"yumi":8661,"zisw":8662,"Ġ&&":8663,"Ġzaoq":8664,"Ġqtfi":8665,"Ġqtil":8666,"Ġpihk":8667,"Ġqaka":8668,"Ġuxgd":8669,"Ġuxbq":8670,"Ġ8147":8671,"anik":8672,"744766":8673,"744744":8674,"building":8675,"Ġozby":8676,"Ġcjvw":8677,"2179":8678,"5208":8679,"5201314":8680,"8526":8681,"=ï¿½ï¿½ï¿½ï¿½\\ï¿½ï¿½ï¿½ï¿½\\ï¿½ï¿½ï¿½ï¿½\\{":8682,"hswa":8683,"ponp":8684,"punch":8685,"qdjo":8686,"tvxz":8687,"ydun":8688,"zzym":8689,"Ġllld":8690,"Ġloiw":8691,"Ġloyd":8692,"Ġepna":8693,"Ġepea":8694,"Ġupta":8695,"Ġuphi":8696,"Ġsskg":8697,"Ġsuhy":8698,"Ġyohj":8699,"Ġzpcp":8700,"Ġzpzh":8701,"Ġqkaw":8702,"Ġizjw":8703,"Ġizea":8704,"Ġwqpa":8705,"Ġnybm":8706,"Ġnyah":8707,"Ġ8813":8708,"82763671":8709,"Ġdrlu":8710,"Ġdrue":8711,"markerclu":8712,"Ġzgmg":8713,"Ġqsju":8714,"4293":8715,"4295":8716,"5005":8717,"678674":8718,"6242":8719,"6243":8720,"7961":8721,"aipy":8722,"kbcd":8723,"ohtd":8724,"rxqd":8725,"rxqg":8726,"sortable":8727,"sorting":8728,"tfhb":8729,"tgxz":8730,"ufpp":8731,"xgyj":8732,"xrlf":8733,"ykxp":8734,"zjfz":8735,"Ġedvr":8736,"Ġedbn":8737,"Ġsrnv":8738,"Ġmehd":8739,"Ġqphl":8740,"Ġqpgb":8741,"Ġfzrl":8742,"Ġucbf":8743,"Ġkuby":8744,"Ġawxu":8745,"italic":8746,"Ġ3604":8747,"Ġ5334":8748,"Ġ5335":8749,"222222":8750,"Ġbgot":8751,"Ġbgxt":8752,"Ġbhxu":8753,"Ġbqch":8754,"Ġbqml":8755,"Ġbxwq":8756,"fbnf":8757,"333333":8758,"Ġggmp":8759,"Ġxnrk":8760,"92752":8761,"alpha":8762,"Ġzwvf":8763,"Ġynxv":8764,"tmpubsha":8765,"tmpubhwi":8766,"Ġpqio":8767,"Ġksmy":8768,"Ġksda":8769,"Ġkvzq":8770,"Ġkvkl":8771,"Ġcbrl":8772,"Ġfrii":8773,"Ġfriy":8774,"ĠĠĠĠĠĠĠĠĠĠĠĠĠĠĠĠĠĠĠĠĠĠĠĠĠĠĠĠĠĠĠĠĠĠĠĠĠĠĠĠĠĠĠĠĠĠĠĠĠĠĠĠĠĠĠĠĠĠĠĠĠĠĠĠĠĠĠĠĠĠĠĠĠĠĠĠĠĠĠĠĠĠĠĠĠĠĠĠĠĠĠĠĠĠĠĠĠĠĠĠĠĠĠĠĠĠĠĠĠĠĠĠĠĠĠĠĠĠĠĠĠĠĠĠĠĠĠĠĠĠĠĠĠĠĠĠĠĠĠĠĠĠĠĠĠĠĠĠĠĠĠĠĠĠĠĠĠĠĠĠĠĠĠĠĠĠĠĠĠĠĠĠĠĠĠĠĠĠĠĠĠĠĠĠĠĠĠĠĠĠĠĠĠĠĠĠĠĠĠĠĠĠĠĠĠĠĠĠĠĠĠĠĠĠĠĠĠĠĠĠĠĠĠĠĠĠĠĠĠĠĠĠĠĠĠĠĠĠĠĠĠĠĠĠĠĠĠĠĠĠĠĠĠĠĠĠĠĠĠĠĠĠĠĠĠĠĠĠĠĠĠĠĠĠĠĠĠĠĠĠĠĠĠĠĠĠĠĠĠĠĠĠĠĠĠĠĠĠĠĠĠĠĠĠĠĠĠĠĠĠĠĠĠĠĠĠĠĠĠĠĠĠĠĠĠĠĠĠĠĠĠĠĠĠĠĠĠĠĠĠĠĠĠĠĠĠĠĠĠĠĠĠĠĠĠĠĠĠĠĠĠĠĠĠĠĠĠĠĠĠĠĠĠĠĠĠĠĠĠĠĠĠĠĠĠĠĠĠĠĠĠĠĠĠĠĠĠĠĠĠĠĠĠĠĠĠĠĠĠĠĠĠĠĠĠĠĠĠĠĠĠĠĠĠĠĠĠĠĠĠĠĠĠĠĠĠĠĠĠĠĠĠĠĠĠĠĠĠĠĠĠĠĠĠĠĠĠĠĠĠĠĠĠĠĠĠĠĠĠĠĠĠĠĠĠĠĠĠĠĠĠĠĠĠĠĠĠĠĠĠĠĠĠĠĠĠĠĠĠĠĠĠĠĠĠĠĠĠĠĠĠ":8775,"4738":8776,"67786475":8777,"6183":8778,"8335":8779,"950527":8780,"eipt":8781,"fzqi":8782,"fxmj":8783,"gtox":8784,"huqy":8785,"kppk":8786,"mzfy":8787,"qvki":8788,"uqcl":8789,"uwpd":8790,"uxdk":8791,"yhja":8792,"zzqd":8793,"zdrz":8794,"Ġndjm":8795,"Ġtand":8796,"Ġrpps":8797,"Ġermj":8798,"Ġcmep":8799,"Ġcucq":8800,"Ġyelj":8801,"Ġsmju":8802,"Ġuavi":8803,"Ġvipj":8804,"Ġlgoq":8805,"Ġimdv":8806,"Ġpkjp":8807,"Ġopgl":8808,"Ġmpyb":8809,"Ġomgy":8810,"Ġjmje":8811,"Ġvjze":8812,"Ġzyjb":8813,"Ġfygg":8814,"Ġmmwe":8815,"Ġcymb":8816,"Ġmjex":8817,"interactivity":8818,"Ġagyv":8819,"Ġwiyr":8820,"Ġnhfk":8821,"Ġ4787":8822,"Ġewrp":8823,"Ġ6243":8824,"Ġtgnx":8825,"Ġtkxq":8826,"Ġbbsu":8827,"Ġbefi":8828,"Ġbkwr":8829,"Ġdkon":8830,"Ġdwen":8831,"Ġxhvi":8832,"Ġxqeo":8833,"Ġrrcp":8834,"40625000":8835,"Ġzeum":8836,"Ġzjub":8837,"Ġzzse":8838,"Ġyjww":8839,"Ġyvfi":8840,"Ġkmdr":8841,"Ġqbre":8842,"Ġqejm":8843,"Ġugke":8844,"Ġuoon":8845,"Ġhbcg":8846,"Ġianx":8847,"Ġiytf":8848,"Ġjdps":8849,"Ġlbgb":8850,"Ġvtjz":8851,"Ġmzss":8852,"ibsj":8853,"013455":8854,"1465":8855,"151456":8856,"2492":8857,"3568":8858,"378980":8859,"596823":8860,"67574541":8861,"655153":8862,"81250":8863,"8542":8864,"846628":8865,"9161":8866,"97573023":8867,"9392":8868,"900081":8869,"9331":8870,"ajos":8871,"aqdp":8872,"aera":8873,"asmx":8874,"ajjk":8875,"akvk":8876,"bthl":8877,"blau":8878,"bmtd":8879,"bpyk":8880,"cijk":8881,"cjzc":8882,"circle":8883,"dwfj":8884,"dbak":8885,"dgex":8886,"dzyc":8887,"dghb":8888,"ekgs":8889,"ewxb":8890,"ewpr":8891,"evak":8892,"ehyu":8893,"eiqu":8894,"ealk":8895,"fhxo":8896,"fcug":8897,"fvgt":8898,"fngj":8899,"fsfy":8900,"fhgc":8901,"flwr":8902,"ghpo":8903,"gapy":8904,"gdij":8905,"grfj":8906,"gbmr":8907,"guxz":8908,"gfrx":8909,"hzcx":8910,"hueq":8911,"hfoh":8912,"hjig":8913,"hkip":8914,"hnxh":8915,"hxzv":8916,"hmqi":8917,"iuje":8918,"illt":8919,"iung":8920,"iazw":8921,"irfh":8922,"iwhq":8923,"iibw":8924,"jilh":8925,"jicq":8926,"jztd":8927,"kwys":8928,"ketb":8929,"kchy":8930,"ktmr":8931,"klfg":8932,"kvbh":8933,"kutk":8934,"kpky":8935,"khys":8936,"kxlr":8937,"ladw":8938,"lpoh":8939,"lpem":8940,"lzaf":8941,"ljog":8942,"lpzb":8943,"mfos":8944,"mvvw":8945,"mzds":8946,"mslk":8947,"mcnl":8948,"mbbx":8949,"mgdm":8950,"mblz":8951,"nayf":8952,"nveg":8953,"nlsl":8954,"nazq":8955,"nsfh":8956,"nemz":8957,"nrlm":8958,"nihn":8959,"nblx":8960,"njkb":8961,"oetv":8962,"otsy":8963,"ouig":8964,"odrk":8965,"pdoa":8966,"pfou":8967,"preferences":8968,"pqai":8969,"pxkb":8970,"qsea":8971,"qona":8972,"qiln":8973,"qlgi":8974,"qopv":8975,"qwcw":8976,"qhgf":8977,"qigx":8978,"qnjd":8979,"qbrk":8980,"qezn":8981,"rrmt":8982,"rjii":8983,"rkft":8984,"rvjt":8985,"scay":8986,"sdbx":8987,"sjqf":8988,"sbik":8989,"sjyq":8990,"tuyp":8991,"ttal":8992,"trpj":8993,"twwt":8994,"tves":8995,"tcdk":8996,"tnps":8997,"tghi":8998,"tjwr":8999,"tlwk":9000,"uimi":9001,"uvfn":9002,"uzbn":9003,"vetq":9004,"vwhr":9005,"wedb":9006,"wepd":9007,"wokl":9008,"wzxw":9009,"wukg":9010,"wkzc":9011,"xjan":9012,"xckc":9013,"xspy":9014,"xbus":9015,"xefj":9016,"xzqg":9017,"ywpm":9018,"ylgg":9019,"yihd":9020,"ydpm":9021,"yxkc":9022,"yxuz":9023,"yvnm":9024,"yxzg":9025,"ymju":9026,"zpob":9027,"zmyf":9028,"zhey":9029,"zsir":9030,"zweg":9031,"zlgq":9032,"zklh":9033,"zsgn":9034,"zgoe":9035,"znjr":9036,"zhbz":9037,"zrga":9038,"zsdw":9039,"Ġleks":9040,"Ġarfr":9041,"Ġitpn":9042,"Ġifbn":9043,"Ġttxz":9044,"Ġurkc":9045,"Ġrais":9046,"Ġrieg":9047,"Ġdief":9048,"Ġjszx":9049,"Ġsqwr":9050,"Ġdbbj":9051,"Ġpukv":9052,"Ġlnzd":9053,"Ġxdca":9054,"Ġvvuf":9055,"Ġrzzb":9056,"Ġflok":9057,"Ġundd":9058,"Ġqndi":9059,"Ġvwsv":9060,"Ġysjg":9061,"Ġftgc":9062,"Ġcwkm":9063,"Ġjnhi":9064,"Ġupnn":9065,"Ġcsbz":9066,"Ġatex":9067,"Ġaevw":9068,"Ġapeq":9069,"Ġagzr":9070,"Ġakzr":9071,"70757064787":9072,"Ġwexu":9073,"Ġwlfl":9074,"Ġwqwo":9075,"Ġwfyl":9076,"Ġwolx":9077,"Ġwkai":9078,"12109375":9079,"Ġnasb":9080,"Ġnrhv":9081,"Ġngpq":9082,"Ġ4334":9083,"Ġ9388":9084,"Ġ3730":9085,"Ġebau":9086,"Ġescs":9087,"Ġexdj":9088,"Ġesnn":9089,"Ġefyj":9090,"Ġelpc":9091,"Ġtyeo":9092,"Ġtqhu":9093,"Ġtpdt":9094,"Ġtdkm":9095,"Ġ5891":9096,"49434644":9097,"Ġ8935":9098,"tpxyuq":9099,"Ġbvsw":9100,"Ġdqkh":9101,"Ġdskz":9102,"Ġdcpl":9103,"Ġdtrc":9104,"Ġdxkv":9105,"Ġdntc":9106,"90343624":9107,"1720534742":9108,"moxiejs":9109,"Ġghtr":9110,"Ġgccy":9111,"Ġghnu":9112,"Ġgojf":9113,"Ġxbbq":9114,"Ġxgdk":9115,"Ġxgkp":9116,"regular":9117,"Ġrhdz":9118,"Ġrjdn":9119,"facebook":9120,"7075756971672":9121,"alphabet":9122,"Ġoeyx":9123,"Ġojkw":9124,"tmpujknj":9125,"tmpuqyyn":9126,"tmpujvph":9127,"privilege":9128,"Ġpnxi":9129,"Ġpvxa":9130,"Ġqvqv":9131,"Ġuogu":9132,"Ġhdqr":9133,"Ġiwtl":9134,"Ġvlpv":9135,"Ġvylk":9136,"Ġcjug":9137,"25506572636":9138,"82763671875":9139,"markercluster":9140}