{"<s>":0,"<pad>":1,"</s>":2,"<unk>":3,"<mask>":4,"[FLAG_RFI]":5,"[FLAG_LFI]":6,"[FLAG_XSS]":7,"[FLAG_SQLI]":8,"[FLAG_RCE]":9,"[FLAG_TRAVERSAL]":10,"!":11,"\"":12,"#":13,"$":14,"%":15,"&":16,"'":17,"(":18,")":19,"*":20,"+":21,",":22,"-":23,".":24,"/":25,"0":26,"1":27,"2":28,"3":29,"4":30,"5":31,"6":32,"7":33,"8":34,"9":35,":":36,";":37,"<":38,"=":39,">":40,"?":41,"@":42,"A":43,"B":44,"C":45,"D":46,"E":47,"F":48,"G":49,"H":50,"I":51,"J":52,"K":53,"L":54,"M":55,"N":56,"O":57,"P":58,"Q":59,"R":60,"S":61,"T":62,"U":63,"V":64,"W":65,"X":66,"Y":67,"Z":68,"[":69,"\\":70,"]":71,"^":72,"_":73,"`":74,"a":75,"b":76,"c":77,"d":78,"e":79,"f":80,"g":81,"h":82,"i":83,"j":84,"k":85,"l":86,"m":87,"n":88,"o":89,"p":90,"q":91,"r":92,"s":93,"t":94,"u":95,"v":96,"w":97,"x":98,"y":99,"z":100,"{":101,"|":102,"}":103,"~":104,"¡":105,"¢":106,"£":107,"¤":108,"¥":109,"¦":110,"§":111,"¨":112,"©":113,"ª":114,"«":115,"¬":116,"®":117,"¯":118,"°":119,"±":120,"²":121,"³":122,"´":123,"µ":124,"¶":125,"·":126,"¸":127,"¹":128,"º":129,"»":130,"¼":131,"½":132,"¾":133,"¿":134,"À":135,"Á":136,"Â":137,"Ã":138,"Ä":139,"Å":140,"Æ":141,"Ç":142,"È":143,"É":144,"Ê":145,"Ë":146,"Ì":147,"Í":148,"Î":149,"Ï":150,"Ð":151,"Ñ":152,"Ò":153,"Ó":154,"Ô":155,"Õ":156,"Ö":157,"×":158,"Ø":159,"Ù":160,"Ú":161,"Û":162,"Ü":163,"Ý":164,"Þ":165,"ß":166,"à":167,"á":168,"â":169,"ã":170,"ä":171,"å":172,"æ":173,"ç":174,"è":175,"é":176,"ê":177,"ë":178,"ì":179,"í":180,"î":181,"ï":182,"ð":183,"ñ":184,"ò":185,"ó":186,"ô":187,"õ":188,"ö":189,"÷":190,"ø":191,"ù":192,"ú":193,"û":194,"ü":195,"ý":196,"þ":197,"ÿ":198,"Ā":199,"ā":200,"Ă":201,"ă":202,"Ą":203,"ą":204,"Ć":205,"ć":206,"Ĉ":207,"ĉ":208,"Ċ":209,"ċ":210,"Č":211,"č":212,"Ď":213,"ď":214,"Đ":215,"đ":216,"Ē":217,"ē":218,"Ĕ":219,"ĕ":220,"Ė":221,"ė":222,"Ę":223,"ę":224,"Ě":225,"ě":226,"Ĝ":227,"ĝ":228,"Ğ":229,"ğ":230,"Ġ":231,"ġ":232,"Ģ":233,"ģ":234,"Ĥ":235,"ĥ":236,"Ħ":237,"ħ":238,"Ĩ":239,"ĩ":240,"Ī":241,"ī":242,"Ĭ":243,"ĭ":244,"Į":245,"į":246,"İ":247,"ı":248,"Ĳ":249,"ĳ":250,"Ĵ":251,"ĵ":252,"Ķ":253,"ķ":254,"ĸ":255,"Ĺ":256,"ĺ":257,"Ļ":258,"ļ":259,"Ľ":260,"ľ":261,"Ŀ":262,"ŀ":263,"Ł":264,"ł":265,"Ń":266,"et":267,"le":268,"ar":269,"am":270,"..":271,"../":272,"../../":273,"st":274,"ca":275,"in":276,"</":277,"ro":278,"se":279,"on":280,"))":281,"Ġ/":282,"par":283,"param":284,"Ġ-":285,"ct":286,"lu":287,"11":288,"nd":289,"ch":290,"get":291,"re":292,"rom":293,"from":294,"wp":295,"va":296,"Ġa":297,"hp":298,"ll":299,"ho":300,"php":301,"en":302,"lue":303,"value":304,"met":305,"hod":306,"method":307,"ion":308,"ma":309,"10":310,"lect":311,"select":312,"or":313,"ame":314,"name":315,"po":316,"ad":317,"post":318,"ent":319,"../../../../":320,"id":321,"Ġ(":322,"min":323,"it":324,"Ġand":325,"admin":326,"ta":327,"lo":328,"AG":329,"FL":330,"FLAG":331,"li":332,"Ġget":333,"te":334,"tab":335,"77":336,"table":337,"Ġfrom":338,"),":339,"Ġ11":340,"ema":341,"><":342,"></":343,"gs":344,"ev":345,"call":346,"params":347,"if":348,"tion":349,"methodname":350,"methodcall":351,"Ġ10":352,"my":353,"ull":354,"Ġ/?":355,"ndar":356,"=/":357,"null":358,"char":359,"con":360,"sch":361,"schema":362,"rou":363,"ents":364,"rest":365,"lendar":366,"calendar":367,"events":368,"route":369,"fi":370,"20":371,"ction":372,"ser":373,"46":374,"70":375,"for":376,"user":377,"||":378,"Ġw":379,"co":380,"file":381,"de":382,"16":383,"he":384,"action":385,")||":386,"ap":387,"--":388,"Ġas":389,"ord":390,"rp":391,"17":392,"chr":393,"ed":394,"users":395,"Ġ'":396,")))":397,"((":398,"er":399,"edit":400,"ml":401,"cation":402,"ep":403,"57":404,"pli":405,"plication":406,"logs":407,"7770":408,"='":409,"Ġtable":410,"sle":411,"sleep":412,"set":413,"12":414,"Ġn":415,"xml":416,"AL":417,"AV":418,"ER":419,"RAV":420,"SAL":421,"TRAV":422,"ERSAL":423,"TRAVERSAL":424,"jb":425,"../../../../../../../../":426,"'='":427,"application":428,"sjb":429,"Ġ<":430,"cast":431,"tp":432,"Ġwhe":433,"Ġwhere":434,"cont":435,"content":436,"rpc":437,"xmlrpc":438,"blogs":439,"getusers":440,"getusersblogs":441,"19":442,"up":443,"-(":444,"Ġin":445,")))))":446,"ings":447,"ifnull":448,"Ġnchar":449,"mid":450,"Ġli":451,"tings":452,"settings":453,"LI":454,"QLI":455,"SQLI":456,"mit":457,"Ġ4":458,"Ġifnull":459,"=../../../../../../../../":460,"mation":461,"formation":462,"Ġinformation":463,"=../../../../../../../../../":464,"il":465,"646":466,"Ġ9":467,"Ġlimit":468,"Ġ3":469,"gin":470,"ce":471,"192":472,"pa":473,"7770646":474,"77706462":475,"ht":476,"ref":477,"))>":478,"]=":479,"171":480,"Ġe":481,"ur":482,"168":483,"Ġ101":484,"load":485,"http":486,"00":487,"113":488,"//":489,"do":490,"hen":491,"73":492,"ss":493,"cm":494,"plu":495,"plugin":496,"ja":497,"mn":498,"lumn":499,"column":500,"Ġ111":501,"plugins":502,"52":503,"tables":504,"13":505,"cmd":506,"etc":507,"ck":508,"ww":509,"to":510,"url":511,"://":512,"des":513,"36":514,"un":515,"ue":516,"pt":517,"ra":518,"Ġ6":519,"ba":520,"uest":521,"ge":522,"ri":523,"FI":524,"RFI":525,"45":526,"Ġt":527,"aja":528,"ajax":529,"cu":530,"di":531,"inc":532,"inclu":533,"includes":534,"sc":535,"Ġ5":536,"¿½":537,"ï¿½":538,"49":539,"scri":540,"129":541,"script":542,"upload":543,"Ġ99":544,"101":545,"Ġ2":546,"66":547,"conf":548,"572":549,"loca":550,"local":551,")+":552,"back":553,"backup":554,"ï¿½ï¿½":555,"96":556,"ay":557,"Ġ114":558,"757":559,"sit":560,"80":561,"Ġ32":562,"lse":563,"sr":564,"fo":565,"111":566,"112":567,"ag":568,"36572":569,"75736572":570,"Ġ0":571,"test":572,"Ġend":573,"Ġor":574,"Ġelse":575,"cat":576,"ve":577,"99":578,"da":579,"case":580,"Ġwhen":581,"Ġthen":582,"ab":583,">&":584,"th":585,"var":586,"53":587,"dow":588,"Ġ110":589,"Ġ115":590,"ie":591,"pre":592,"Ġ1":593,"email":594,"47":595,"22":596,"quest":597,"request":598,"lib":599,"form":600,"ts":601,"----":602,"pe":603,"40":604,"fromname":605,"fromemail":606,"force":607,"98":608,"www":609,"Ġ8":610,"sp":611,"48":612,"ple":613,"131":614,"Ġ100":615,"116":616,"che":617,"path":618,"78":619,"56":620,"ment":621,"js":622,"man":623,"ordpre":624,"ordpress":625,"eta":626,"ils":627,"\":":628,"\"}":629,"={":630,"deta":631,"refurl":632,"refdeta":633,"requests":634,"={\"":635,"refdetails":636,"docu":637,"columns":638,"Ġ116":639,"data":640,"=\"":641,"55":642,"86":643,"107":644,"document":645,"ty":646,"77705":647,"7573657273":648,"rt":649,"can":650,"log":651,"ache":652,"apache":653,"canto":654,"ager":655,"manager":656,"71":657,"nload":658,"download":659,"spath":660,"abspath":661,"ex":662,"\":\"":663,"cli":664,"client":665,"sq":666,"tm":667,"vid":668,"sh":669,"/&":670,"wordpress":671,"72":672,"Ġpost":673,"bu":674,"bo":675,"54":676,"32":677,"37":678,"106":679,"716":680,"75":681,"lert":682,"si":683,"page":684,"so":685,"51":686,"la":687,"code":688,"focu":689,"we":690,"ke":691,"ver":692,"SS":693,"XSS":694,"guest":695,"\":\"\"}":696,"type":697,"db":698,"120":699,"110":700,"ye":701,"alert":702,"focus":703,"ok":704,"15":705,"100":706,"Ġ46":707,"hell":708,"82":709,"sm":710,"sy":711,"18":712,"Ġ40":713,"118":714,"104":715,"host":716,"sql":717,"ua":718,");":719,"Ġon":720,"Ġ41":721,"ls":722,"bug":723,"debug":724,"qz":725,"Ġb":726,"ples":727,"exam":728,"cook":729,"cookie":730,"examples":731,"Ġ39":732,"wd":733,"ing":734,"ae":735,"smtp":736,"uploads":737,"web":738,"yay":739,"src":740,"yaysmtp":741,"ĠĠ":742,"za":743,"97":744,"63":745,"50":746,"wm":747,"=<":748,"non":749,"nonce":750,"fig":751,"config":752,"vts":753,"com":754,"inde":755,"index":756,"mail":757,"76":758,"sa":759,"kit":760,"yew":761,"24":762,"el":763,"mqz":764,"mza":765,"undar":766,"evmqz":767,"unh":768,"aymza":769,"formbo":770,"webkit":771,"yewevmqz":772,"undaryewevmqz":773,"formboundaryewevmqz":774,"webkitformboundaryewevmqz":775,"webkitformboundaryewevmqzunh":776,"Ġsrc":777,"122":778,"ran":779,"shell":780,"au":781,"usr":782,"cd":783,"mysql":784,"26":785,"rect":786,"direct":787,"Ġ98":788,"0000":789,"bin":790,"Ġaction":791,"Ġd":792,"ile":793,"af":794,"pro":795,"\"&":796,"90":797,"rovid":798,"maile":799,"rprovid":800,"]=\"":801,"localhost":802,"forcefromname":803,"forcefromemail":804,"save":805,"mailerprovid":806,"mailerprovider":807,",(":808,"vi":809,"616":810,"dev":811,"ï¿½ï¿½ï¿½ï¿½":812,"=-":813,"Ġ102":814,"Ġ104":815,"Ġ108":816,"Ġ105":817,"lg":818,"123":819,"spo":820,"Ġname":821,"Ġform":822,"dispo":823,"sition":824,"------":825,"disposition":826,"fb":827,"Ġchar":828,"43":829,"58":830,"su":831,"site":832,"an":833,"ow":834,"105":835,"Ġselect":836,"pass":837,"Ġby":838,"706":839,"Ġid":840,"Ġ47":841,"ual":842,"Ġdual":843,"str":844,"rand":845,"der":846,"no":847,"Ġ7":848,"val":849,"unt":850,"30":851,"39":852,"1337":853,"Ġcolumn":854,"dlg":855,"ist":856,"concat":857,"41":858,"tmp":859,")--":860,"login":861,"\";":862,"count":863,"ot":864,"Ġun":865,"Ġ45":866,"xt":867,"115":868,"Ġ107":869,"Ġunion":870,"109":871,"Ġlike":872,"..%":873,"info":874,"ac":875,"sub":876,"696":877,"!=":878,"))!=":879,"ima":880,"httpd":881,"44":882,"85":883,"Ġ//":884,"65":885,"102":886,"image":887,"string":888,"vc":889,"as":890,"ndor":891,"vendor":892,"pan":893,"im":894,"000":895,"pwd":896,"seo":897,"sib":898,"25":899,"Ġwp":900,"Ġnull":901,"row":902,"Ġwpdb":903,"mple":904,"Ġorder":905,"simple":906,"))),":907,"java":908,"7670":909,"wow":910,"xx":911,"33":912,"7871":913,"767071":914,"ftp":915,"art":916,"heart":917,"df":918,"pu":919,"elt":920,"compan":921,"company":922,"Ġ54":923,"8000":924,"reso":925,"scripts":926,"proc":927,"67":928,"ui":929,"Ġ\"":930,"Ġonfocus":931,"89":932,"os":933,"172":934,"ars":935,"Ġ97":936,"ces":937,"resour":938,"az":939,"757365725":940,"($":941,"/../../../../../../../../":942,"datatables":943,"rank":944,"resources":945,"//\"&":946,"redirect":947,"dir":948,"res":949,"||(":950,"me":951,"ror":952,"ic":953,"lf":954,"14":955,"fla":956,"1720":957,"(*":958,"+/":959,"error":960,"qt":961,"ĠĠĠĠ":962,"Ġcount":963,"send":964,"Ġ117":965,"Ġ61":966,"Ġ112":967,"pb":968,"rf":969,"devi":970,"top":971,"pid":972,"pdf":973,"uid":974,"tofocus":975,"cdm":976,"full":977,"self":978,"brow":979,"fvts":980,"gtm":981,"ktop":982,"lvts":983,"pvid":984,"wma":985,"caction":986,"ctra":987,"rec":988,"orid":989,"idn":990,"refts":991,"desktop":992,"gears":993,"sitorid":994,"wmcaction":995,"wmctra":996,"visitorid":997,"siteid":998,"device":999,"fullref":1000,"browser":1001,"gtms":1002,"wmctrack":1003,"upp":1004,")||(":1005,"ef":1006,"uh":1007,"eval":1008,"submit":1009,"Ġlog":1010,"testcookie":1011,"syst":1012,"mo":1013,"pi":1014,"ity":1015,"656":1016,"29":1017,"68":1018,"Ġ50":1019,"lin":1020,"ter":1021,"passwd":1022,")</":1023,"vg":1024,"vie":1025,"istra":1026,"view":1027,"bf":1028,"jq":1029,"60":1030,"Ġg":1031,"all":1032,"win":1033,"dist":1034,"';":1035,"..\\":1036,"864":1037,"')":1038,"editor":1039,"dows":1040,"windows":1041,"ec":1042,"1536":1043,"autofocus":1044,"93":1045,"Ġ52":1046,"08":1047,"2024":1048,"css":1049,"Ġ|":1050,"ech":1051,"ln":1052,"echo":1053,"74":1054,"23":1055,"vb":1056,"root":1057,"(\"":1058,"at":1059,"81":1060,"fromchar":1061,"fromcharcode":1062,"um":1063,"ut":1064,"Ġ58":1065,"']":1066,"['":1067,"($_":1068,"766":1069,"zq":1070,"Ġ55":1071,"dr":1072,"zt":1073,"ini":1074,"Ġ63":1075,"pk":1076,"))--":1077,"img":1078,"ld":1079,"lah":1080,"\"=\"":1081,"373":1082,"=(":1083,"21":1084,"able":1085,"652":1086,"xd":1087,"Ġ12":1088,"director":1089,"448":1090,"fileview":1091,")>&":1092,"540":1093,"na":1094,"ng":1095,"tor":1096,"Ġx":1097,"117":1098,"552":1099,"Ġ62":1100,"59":1101,"64":1102,"12345":1103,"pbzq":1104,"))=":1105,"sets":1106,"assets":1107,"Ġall":1108,"95":1109,"is":1110,"126":1111,"cfb":1112,"));":1113,"chrom":1114,"7389":1115,"fbb":1116,"1720540":1117,"5527389":1118,"chrome":1119,"1720540192":1120,"pupp":1121,"administra":1122,"puppet":1123,"administrator":1124,"\\\"":1125,"ure":1126,"172106":1127,"Ġ67":1128,"rdb":1129,"28":1130,"Ġ192":1131,"Ġ1337":1132,"0448":1133,"Ġ103":1134,"1721060448":1135,"+-":1136,"Ġ109":1137,"..\\..\\":1138,"gran":1139,"ee":1140,"ere":1141,"vagran":1142,"vagrant":1143,"rm":1144,"orac":1145,"oracle":1146,"1111":1147,"/../../../../../../../../../../":1148,"ansib":1149,"ansible":1150,"Ġ(((":1151,"azure":1152,"(*)":1153,"azureuser":1154,"op":1155,"sx":1156,"Ġ13":1157,"adm":1158,"sf":1159,"]=\"<":1160,"50000":1161,"aa":1162,"62":1163,"ybf":1164,"key":1165,"ncat":1166,"ybfg":1167,"qp":1168,"746":1169,"Ġ\"}":1170,"92":1171,"sys":1172,"kr":1173,"fiel":1174,"field":1175,"61":1176,"7777":1177,"sfqp":1178,"be":1179,"119":1180,"ia":1181,"Ġ38":1182,"ji":1183,"stre":1184,"ron":1185,"bv":1186,"us":1187,"Ġ57":1188,"schemata":1189,"bvpk":1190,"inct":1191,"distinct":1192,"eric":1193,"Ġnum":1194,"html":1195,"Ġnumeric":1196,"cess":1197,"42":1198,"sock":1199,"+\"":1200,"79":1201,"34":1202,"em":1203,"Ġdistinct":1204,"420":1205,"xv":1206,");+":1207,"\";+":1208,"mi":1209,"roup":1210,"ster":1211,"cvb":1212,"pno":1213,"5275":1214,"ï¿½ï¿½ï¿½ï¿½ï¿½ï¿½ï¿½ï¿½":1215,"pnoo":1216,"fc":1217,"cvbn":1218,"system":1219,">/":1220,"Ġ>/":1221,"/%":1222,"83":1223,"prom":1224,"prompt":1225,"03":1226,"Ġsleep":1227,"comm":1228,"\")":1229,"es":1230,"gj":1231,"Ġ84":1232,"sysib":1233,"sysibm":1234,"ha":1235,"tes":1236,"xtf":1237,"<?":1238,"?>":1239,"stpe":1240,"75706":1241,"Ġ*":1242,"wa":1243,"66696":1244,"ĠĠĠĠĠĠĠĠ":1245,"=%":1246,"gz":1247,"))+":1248,"69":1249,"lxtf":1250,"ns":1251,"lt":1252,"91":1253,"wc":1254,"hg":1255,"rfp":1256,"fz":1257,"yrfp":1258,"246":1259,"1882":1260,"ate":1261,"base":1262,"321":1263,"qw":1264,"stream":1265,"rl":1266,"Ġ@":1267,"114":1268,"unity":1269,"uiwc":1270,"community":1271,"vv":1272,"Ġ$":1273,"Ġls":1274,"refere":1275,"123456":1276,"mar":1277,"Ġap":1278,"[]":1279,"aed":1280,"oct":1281,"vs":1282,"Ġfile":1283,"afef":1284,"notes":1285,"gjuh":1286,"referer":1287,"Ġapplication":1288,"[]\";":1289,"octet":1290,"Ġfilename":1291,"cc":1292,"..ï¿½ï¿½":1293,"&_":1294,"euh":1295,"euhd":1296,"zd":1297,"Ġcase":1298,"5429":1299,">\"&":1300,"))//\"&":1301,"535":1302,"474":1303,"sl":1304,"ith":1305,"108":1306,"Ġ60":1307,"Ġconcat":1308,"main":1309,"teg":1310,"wq":1311,"Ġ</":1312,"ener":1313,"iia":1314,"Ġ48":1315,"Ġonerror":1316,"iiaj":1317,"len":1318,"Ġ49":1319,"elen":1320,"65225":1321,"xp":1322,"9706":1323,"pg":1324,"zx":1325,"Ġ85":1326,"categ":1327,"ies":1328,"nghg":1329,"rlzd":1330,"categor":1331,"'))":1332,"sion":1333,")//\"&":1334,"Ġwordpress":1335,"ext":1336,"\"))":1337,"84":1338,"domain":1339,"link":1340,"('":1341,"*(":1342,"Ġ2024":1343,"hpvv":1344,"653":1345,"fu":1346,"sn":1347,"erty":1348,"7581":1349,"rz":1350,"222":1351,"Ġis":1352,"adow":1353,")*":1354,"isq":1355,"38":1356,"flo":1357,"Ġ;":1358,"access":1359,"27":1360,"hy":1361,"vz":1362,"systable":1363,"Ġgroup":1364,"floor":1365,"systables":1366,"\\%":1367,"jh":1368,"opt":1369,"pf":1370,"Ġ16":1371,"directory":1372,"\",":1373,"ms":1374,"Ġ619":1375,"lwq":1376,"bash":1377,"lwqg":1378,"Ġ>&":1379,"reg":1380,"3030":1381,"ftpd":1382,"\");":1383,"Ġre":1384,"idye":1385,"dbms":1386,"/../../../../../../../../../../../../":1387,"mp":1388,"int":1389,"qwerty":1390,"fun":1391,"6340":1392,"function":1393,"cn":1394,"ff":1395,"uc":1396,"und":1397,"4697":1398,"hello":1399,"723":1400,"ary":1401,"isqn":1402,"Ġ73":1403,"onna":1404,"))))":1405,"wh":1406,"')))":1407,"wge":1408,"Ġ17":1409,"wgeb":1410,"pr":1411,"pat":1412,"open":1413,"..ï¿½ï¿½..ï¿½ï¿½":1414,"657":1415,"ih":1416,"tzt":1417,"Ġr":1418,"ctx":1419,")))--":1420,"Ġ59":1421,"6655":1422,"tztk":1423,"Ġ56":1424,"cr":1425,"Ġcast":1426,")+(":1427,"(*),":1428,"drith":1429,"ctxsys":1430,"drithsx":1431,"Ġ82":1432,"Ġ8373":1433,"xdsl":1434,"sions":1435,"vzzt":1436,"jhld":1437,"cnf":1438,"by":1439,"Ġ69":1440,"tern":1441,"bit":1442,"profile":1443,"Ġbase":1444,"::":1445,"sho":1446,"))||(":1447,"Ġ43":1448,"fuck":1449,"conver":1450,"Ġ44":1451,"icji":1452,"directorist":1453,"12345678":1454,"convert":1455,"ij":1456,"kf":1457,"envi":1458,"buil":1459,"environ":1460,")>":1461,"iv":1462,"ensions":1463,"extensions":1464,"fa":1465,"ql":1466,"ract":1467,"rtcode":1468,"shortcode":1469,"svg":1470,"Ġ119":1471,"7054":1472,"shadow":1473,"ucxv":1474,"Ġ51":1475,"\":\"'":1476,"ractvalue":1477,"45535":1478,"Ġ121":1479,"));</":1480,"35":1481,"iq":1482,"pagebuil":1483,"pattern":1484,"pagebuilder":1485,")#":1486,"Ġint":1487,"ger":1488,"ox":1489,"))::":1490,"idjs":1491,"709":1492,"Ġonload":1493,"validjs":1494,"87":1495,"xl":1496,"ihno":1497,"973":1498,"lay":1499,"Ġ23":1500,"om":1501,"500000000":1502,"hash":1503,"450":1504,"tmiv":1505,"eees":1506,"mt":1507,"uer":1508,"uery":1509,"\")))":1510,"Ġ9932":1511,"5000000":1512,"whmp":1513,"9113":1514,"qnd":1515,"itts":1516,"iqve":1517,"31":1518,"617":1519,"756":1520,"dy":1521,"âĢ":1522,"Ġ=":1523,"jm":1524,"ki":1525,"qndq":1526,"5059":1527,"mod":1528,"/?":1529,"dd":1530,"vw":1531,"xxw":1532,"bi":1533,"sxxw":1534,"4674":1535,"1610":1536,"Ġ1014":1537,"73709":1538,"4073709":1539,"551610":1540,"auxx":1541,"2619":1542,"777777":1543,"Ġ844674":1544,"4073709551610":1545,"Ġ8446744073709551610":1546,"mkf":1547,"yo":1548,"|/":1549,"stat":1550,"ifo":1551,"cmjq":1552,"494":1553,"mkfifo":1554,"06":1555,"qf":1556,"206":1557,"jl":1558,"lc":1559,"sec":1560,"Ġ42":1561,"406":1562,"uln":1563,"Ġext":1564,"458":1565,"uana":1566,"marij":1567,"Ġextractvalue":1568,"marijuana":1569,"fd":1570,"ĠâĢ":1571,"184":1572,"ulns":1573,"Ġ33":1574,"Ġ216":1575,"Ġ(\"":1576,"Ġ((\"":1577,"Ġ5049":1578,"kikr":1579,"=..%":1580,"je":1581,"Ġ('":1582,"4691":1583,">\";+":1584,"firef":1585,"46494":1586,"6696":1587,"479706":1588,"17205429":1589,"vgmt":1590,"Ġ((('":1591,"2466696":1592,"lcjq":1593,"firefox":1594,"47970653":1595,"1720542970":1596,")),":1597,"strings":1598,"\"+":1599,"+=":1600,"+}":1601,"+($_":1602,";+}":1603,">>":1604,"kq":1605,"{+":1606,")){+":1607,"die":1608,"2673":1609,"']);+":1610,"'])){+":1611,"isset":1612,"+\"<?":1613,"?>\"+":1614,"+=+($_":1615,";+}?>\"+":1616,">>+/":1617,";+}?>\"+>>+/":1618,"mh":1619,"ru":1620,"Ġmy":1621,"series":1622,"urity":1623,"upper":1624,"Ġgener":1625,"security":1626,"Ġgenerate":1627,"vj":1628,"360":1629,"10500":1630,"jlpb":1631,"Ġ2167":1632,"+\\\"":1633,">\\":1634,"jo":1635,"rr":1636,"Ġrdb":1637,"def":1638,"226":1639,"61646":1640,"17210500":1641,">\\\";+":1642,"1721050086":1643,"94":1644,"are":1645,"497":1646,"line":1647,"ĠâĢĵ":1648,"/(":1649,"pla":1650,"zy":1651,"qa":1652,"ard":1653,"board":1654,"jquery":1655,"gen":1656,"xss":1657,"yu":1658,"json":1659,"hypf":1660,"nc":1661,"ys":1662,"Ġdbms":1663,"uiop":1664,"(\"/":1665,"qwertyuiop":1666,"Ġ30":1667,"Ġ3233":1668,"ault":1669,"affz":1670,"default":1671,"place":1672,"bm":1673,"dc":1674,"uu":1675,"master":1676,"text":1677,"xxd":1678,"keygen":1679,"byrr":1680,"Ġsysibm":1681,"itcount":1682,"1757":1683,"1212":1684,"379":1685,"Ġbitcount":1686,"binary":1687,"Ġ6384":1688,"aaaa":1689,"bitstring":1690,"Ġjson":1691,"afrm":1692,"fsock":1693,"per":1694,"Ġde":1695,"Ġfunction":1696,"1624":1697,"Ġ'$":1698,"Ġ<&":1699,"4598":1700,"rfmh":1701,"ĠĠĠĠĠĠĠĠĠĠĠĠĠĠĠĠ":1702,"\");'":1703,"fsockopen":1704,"459898":1705,"673":1706,"cw":1707,"jmy":1708,"add":1709,"you":1710,"88":1711,"cl":1712,"ping":1713,"itfor":1714,"love":1715,"Ġ9945":1716,"Ġ2766":1717,"303":1718,"Ġ(((\"":1719,"waitfor":1720,"Ġdelay":1721,"jmyd":1722,"7118":1723,"ico":1724,"Ġ(('":1725,"ball":1726,"ï¿½ï¿½ï¿½ï¿½/":1727,"415":1728,"ft":1729,"wsx":1730,"zcr":1731,"Ġ'/":1732,"category":1733,"bmvw":1734,"uugz":1735,"zcrh":1736,"972":1737,"=&":1738,"curl":1739,"Ġte":1740,"lig":1741,"Ġ400":1742,"4944":1743,"478":1744,"lnet":1745,"Ġtelnet":1746,"hnd":1747,"the":1748,"wxd":1749,"Ġsystem":1750,"Ġ?>":1751,"Ġ-----":1752,"location":1753,"date":1754,"=\"\"":1755,"=\"_":1756,"Ġ7497":1757,"']);":1758,"yuld":1759,"cwfc":1760,"hndr":1761,"wxdm":1762,"Ġ------":1763,"'||(":1764,"and":1765,"blo":1766,"qaz":1767,"tevj":1768,"Ġ64":1769,"zxcvbn":1770,"Ġ4004":1771,"70757":1772,"boex":1773,"biys":1774,"al":1775,"ase":1776,"fs":1777,"xj":1778,"status":1779,"cron":1780,"hev":1781,"mr":1782,"Ġ20":1783,"905":1784,"ï¿½ï¿½ï¿½ï¿½\\":1785,"Ġ5017":1786,"hevy":1787,"zp":1788,"../../../":1789,"1746":1790,"1313":1791,"9855":1792,"vbgz":1793,"/../../../../../../../../../../../../../../":1794,"');":1795,"717":1796,"747970653":1797,"mu":1798,"ley":1799,"server":1800,"Ġ37":1801,"2266696":1802,"54321":1803,"6520":1804,"Ġ6199":1805,"469722":1806,"dcpu":1807,"70757420":1808,"mcat":1809,"net":1810,"qk":1811,"tomcat":1812,"zo":1813,"reen":1814,"mat":1815,"screen":1816,"5555":1817,"Ġ2905":1818,"7248":1819,"heartbe":1820,"heartbeat":1821,"uwa":1822,"Ġcode":1823,"ined":1824,"Ġalert":1825,"Ġ26":1826,"Ġ28":1827,"867":1828,"61637":1829,"efe":1830,"efined":1831,"lnim":1832,"Ġ1303":1833,"undefined":1834,"kqdy":1835,"6739":1836,"lighttpd":1837,"724855":1838,"uwak":1839,"(\\\"":1840,"has":1841,"tho":1842,"Ġnot":1843,"Ġinter":1844,"Ġ34":1845,"32723":1846,"9332723":1847,"\\\")</":1848,"..\\..\\..\\..\\":1849,"Ġinterval":1850,"1690":1851,"update":1852,"6666":1853,"qavs":1854,"sv":1855,"Ġ25":1856,"',":1857,"sk":1858,"103":1859,"Ġ2867":1860,"vczy":1861,"beql":1862,"ï¿½ï¿½ï¿½ï¿½ï¿½ï¿½ï¿½ï¿½ï¿½ï¿½ï¿½ï¿½ï¿½ï¿½ï¿½ï¿½":1863,"cp":1864,"icon":1865,"md":1866,"some":1867,"wesome":1868,"Ġ1765":1869,"xjrz":1870,"5400":1871,"_-":1872,"dp":1873,"kar":1874,"2016":1875,"jakar":1876,"2606":1877,"jakarta":1878,"+(":1879,"272":1880,"mon":1881,"py":1882,"1718":1883,"663":1884,"223":1885,"libc":1886,"mivg":1887,"Ġ6058":1888,"mfz":1889,"Ġ1718":1890,"408":1891,"mfzy":1892,"ku":1893,"vp":1894,"inad":1895,"ress":1896,"utl":1897,"mods":1898,"address":1899,"inaddr":1900,"8184":1901,"ava":1902,"jn":1903,"ux":1904,"ers":1905,"5272":1906,"9615":1907,"sry":1908,"7268":1909,"istere":1910,"dret":1911,"jiq":1912,"registere":1913,"ï¿½ï¿½ï¿½ï¿½/ï¿½ï¿½ï¿½ï¿½/":1914,"registered":1915,"ejiq":1916,"Ġ80":1917,"Ġla":1918,"Ġrow":1919,"Ġctxsys":1920,"Ġ4720":1921,")>(":1922,"\"'":1923,"/{":1924,"8546":1925,"prlg":1926,"false":1927,"Ġ6417":1928,"cre":1929,"jz":1930,"lsry":1931,"wor":1932,"Ġst":1933,"repe":1934,"1653":1935,"3686":1936,"Ġ6420":1937,"gexp":1938,"Ġ24":1939,"cdd":1940,"5881":1941,"substring":1942,"Ġ5786":1943,"Ġregexp":1944,"repeat":1945,"cg":1946,"fm":1947,"etur":1948,"hex":1949,"rict":1950,"uage":1951,"504":1952,"507":1953,"anxl":1954,"Ġ5077":1955,"nguage":1956,"Ġreplace":1957,"Ġretur":1958,"ï¿½ï¿½ï¿½ï¿½\\ï¿½ï¿½ï¿½ï¿½\\":1959,"','":1960,"Ġlanguage":1961,"create":1962,"Ġstrict":1963,"Ġreturns":1964,"318":1965,"gv":1966,"hw":1967,"vf":1968,"3607":1969,"ber":1970,"jj":1971,"lid":1972,"list":1973,"17373":1974,"Ġ1450":1975,"61696":1976,"70617373":1977,"Ġ7415":1978,"mode":1979,"krst":1980,"xvqf":1981,"9458":1982,"age":1983,"onerror":1984,"006":1985,"ssage":1986,"message":1987,"istration":1988,"mark":1989,"registration":1990,"od":1991,"sing":1992,"ilable":1993,"Ġelt":1994,"5726":1995,"available":1996,"single":1997,"psi":1998,"xq":1999,"zpe":2000,"inpu":2001,"Ġ5408":2002,"5343":2003,"229":2004,"zpee":2005,"input":2006,")//":2007,"75726":2008,"`><":2009,"dce":2010,"fy":2011,"jy":2012,"kh":2013,"uss":2014,"lic":2015,"ripsi":2016,"7586":2017,"6355":2018,"]=\"\"'":2019,"javascript":2020,"68474":2021,"';</":2022,"4211":2023,"skripsi":2024,"work":2025,")//';</":2026,"ussx":2027,"]=\"\"'`><":2028,"skripsiku":2029,"245":2030,"890":2031,"wz":2032,"word":2033,"thon":2034,"Ġben":2035,"password":2036,"Ġ6193":2037,"zpvi":2038,"python":2039,"qj":2040,"sli":2041,"chmark":2042,"20646":2043,"666":2044,"varchar":2045,"5645":2046,"726":2047,"728":2048,"8293":2049,"6378":2050,"76616":2051,"30303030":2052,"75653":2053,"70757420747970653":2054,"Ġbenchmark":2055,"413":2056,"awesome":2057,"eg":2058,"ive":2059,"kl":2060,"Ġma":2061,")||'":2062,"ceb":2063,"-+-":2064,">+-":2065,"gm":2066,"kvs":2067,"ving":2068,"Ġha":2069,"Ġ6656":2070,"Ġ260":2071,"8028":2072,"5580":2073,"7219":2074,"khfs":2075,"-+-+":2076,">+-+-":2077,"Ġhaving":2078,"=../../../../":2079,"bb":2080,"gg":2081,"gener":2082,"iz":2083,"Ġ966":2084,"Ġ9474":2085,"8021":2086,"9998":2087,"dash":2088,"updatexml":2089,"Ġmake":2090,"4379":2091,"np":2092,"npu":2093,"udp":2094,"rece":2095,"decl":2096,"Ġ2728":2097,"661746":2098,"Ġ15":2099,"979":2100,"pipe":2101,"zxq":2102,"fffm":2103,"4697661746":2104,"6579":2105,"qkvp":2106,"616374697661746":2107,"jzus":2108,"jjxt":2109,"qjzxq":2110,"Ġ9669":2111,"npuz":2112,"receive":2113,"declare":2114,"qkvpq":2115,"61637469766174696":2116,"467":2117,"')));":2118,"ation":2119,"ekvs":2120,"ig":2121,"lmail":2122,"rre":2123,"tr":2124,"4978":2125,"squi":2126,"Ġ5018":2127,"bfxx":2128,"Ġ1282":2129,"general":2130,"rrelmail":2131,"squirrelmail":2132,"676":2133,"878":2134,"td":2135,"utofocus":2136,"Ġtab":2137,"Ġ75":2138,"Ġpg":2139,"Ġupdatexml":2140,"Ġautofocus":2141,"646973":2142,"libr":2143,"481":2144,"sout":2145,"focusout":2146,"Ġonfocusout":2147,"Ġ7229":2148,"6037":2149,"rzjy":2150,"61795":2151,"8907":2152,"slice":2153,"Ġtabindex":2154,"646973706":2155,"pp":2156,"Ġz":2157,"postg":2158,"Ġ((":2159,"Ġ6226":2160,"Ġ8979":2161,"505":2162,"4426":2163,"odjm":2164,"tdpt":2165,"]-(":2166,"let":2167,"776":2168,"127":2169,"Ġ3467":2170,"aeaf":2171,"508":2172,"dashboard":2173,")/(":2174,"925":2175,"ujn":2176,"ine":2177,"1726":2178,"hosts":2179,"5839":2180,"3731":2181,"Ġ6043":2182,"ujnr":2183,"\"));":2184,"152":2185,"870":2186,"gh":2187,"lor":2188,"pen":2189,"tabase":2190,"Ġ92":2191,"database":2192,"util":2193,"icons":2194,"8478":2195,"=`":2196,"`=`":2197,"dh":2198,"group":2199,"Ġut":2200,"upn":2201,"527":2202,"Ġ1508":2203,"9014":2204,"otvf":2205,">//\"&":2206,"ead":2207,"ip":2208,"qh":2209,"Ġy":2210,"Ġ19":2211,"Ġbo":2212,"Ġus":2213,"660":2214,"33006":2215,"4134":2216,"aur":2217,"nupn":2218,"ole":2219,"xb":2220,"Ġconvert":2221,"Ġmode":2222,"llation":2223,"popen":2224,"),(":2225,"Ġ1124":2226,"restaur":2227,"705":2228,"70152":2229,"collation":2230,"1918":2231,"jack":2232,"types":2233,"2685":2234,"ant":2235,"linux":2236,"Ġ1354":2237,"keys":2238,"fields":2239,"+\"<":2240,"+\"</":2241,"functions":2242,"jeqz":2243,">\";+$":2244,"_-&":2245,"wznp":2246,"egja":2247,"92570152":2248,"Ġutf":2249,"Ġboole":2250,"Ġusing":2251,"restaurant":2252,"collations":2253,"9257015258":2254,"Ġboolean":2255,"8481":2256,"mm":2257,"1712":2258,"cmdline":2259,"4957":2260,"foot":2261,"123123":2262,"706870":2263,"football":2264,"547":2265,"ols":2266,"xm":2267,"Ġo":2268,"random":2269,"8552":2270,"blob":2271,"zocu":2272,"randomblob":2273,"fg":2274,"ica":2275,"sam":2276,"7320":2277,"Ġ18":2278,"sqlid":2279,"sqlhash":2280,"acbb":2281,"pure":2282,"+\\\"<":2283,"+\\\"</":2284,">\\\";+$":2285,"monkey":2286,"67696":2287,"utility":2288,"%'='":2289,"3507":2290,"=</":2291,"ey":2292,"Ġupper":2293,"xmltype":2294,"3656":2295,"scrip":2296,"mou":2297,"330":2298,"ampp":2299,"rew":2300,"home":2301,"Ġ6716":2302,"438":2303,"asdf":2304,"sysd":2305,"xlmr":2306,"fre":2307,"arch":2308,"Ġ27":2309,"Ġ3214":2310,"Ġ4618":2311,"=('":2312,"8300":2313,"hwgm":2314,"library":2315,"\">\"&":2316,"545":2317,"ese":2318,"ir":2319,"ilove":2320,"qwe":2321,"ws":2322,"yag":2323,"zk":2324,"521":2325,"Ġ686":2326,"cheese":2327,"\":-":2328,"Ġonmou":2329,"mysqld":2330,"vicon":2331,"6536":2332,"seover":2333,"xxs":2334,"')\">\"&":2335,"favicon":2336,"121212":2337,"aaaaaa":2338,"theme":2339,"samba":2340,"iloveyou":2341,"Ġonmouseover":2342,"sg":2343,"xk":2344,"lecg":2345,"doers":2346,"4768":2347,"Ġ8617":2348,"630":2349,"sudoers":2350,"Ġ7527":2351,"tmpu":2352,"6756":2353,"6271":2354,"2727":2355,"ise":2356,"rj":2357,"sun":2358,"vm":2359,"enable":2360,"abc":2361,"typ":2362,"1234":2363,"fuckme":2364,"\")));":2365,"svgs":2366,"asdfgh":2367,"enabled":2368,"(~":2369,"233":2370,"go":2371,"nie":2372,"oc":2373,"pri":2374,"uname":2375,"chq":2376,"minec":2377,"ilf":2378,"Ġexp":2379,"5222":2380,"5231":2381,"raft":2382,"danie":2383,"ranger":2384,"261":2385,"111111":2386,"prin":2387,"fuckyou":2388,"ĠĠĠĠĠĠĠĠĠĠĠĠĠĠĠĠĠĠĠĠĠĠĠĠĠĠĠĠĠĠĠĠ":2389,"klxb":2390,"trcc":2391,"ipjm":2392,"Ġ6868":2393,"(~(":2394,"minecraft":2395,"daniel":2396,"'--":2397,"2105":2398,"654321":2399,"9206":2400,"ash":2401,"har":2402,"rilf":2403,"ylor":2404,"taylor":2405,"Ġ498":2406,"Ġ4521":2407,"ssy":2408,"raise":2409,"225":2410,"fbrj":2411,"6969":2412,"6963656":2413,"pussy":2414,"ummy":2415,"Ġ1241":2416,"1234567":2417,"Ġ3836":2418,"xpnc":2419,"1234567890":2420,"5471":2421,"sysdummy":2422,"ashley":2423,"2120":2424,"=..\\..\\..\\..\\":2425,"fr":2426,"glo":2427,"ly":2428,"nq":2429,"sup":2430,"yn":2431,"zchq":2432,"orge":2433,"erman":2434,"unts":2435,"uncategor":2436,"george":2437,"969":2438,"804":2439,"Ġ8630":2440,"7844":2441,"8630":2442,"shine":2443,"3951":2444,"mounts":2445,"pkza":2446,"9248":2447,"Ġ8477":2448,"..ï¿½ï¿½..ï¿½ï¿½..ï¿½ï¿½..ï¿½ï¿½":2449,"Ġ2382":2450,"7777777":2451,"andrew":2452,"ized":2453,"yagh":2454,"sunshine":2455,"superman":2456,"uncategorized":2457,"`)":2458,"dra":2459,"nico":2460,"pep":2461,"wi":2462,"Ġp":2463,"chae":2464,"magg":2465,"lie":2466,"charlie":2467,"203":2468,"edom":2469,"112233":2470,"827":2471,"autho":2472,"444":2473,"michae":2474,"domains":2475,"123456789":2476,"zxcvbnm":2477,"Ġ8017":2478,"gvwp":2479,"freedom":2480,"nicole":2481,"pepper":2482,"maggie":2483,"author":2484,"michael":2485,"546":2486,"598":2487,"623":2488,"jord":2489,"ub":2490,"ypt":2491,"zz":2492,"Ġk":2493,"star":2494,"2076616":2495,"73657":2496,"5245":2497,"528293":2498,"Ġ22":2499,"6620":2500,"9634":2501,"96528293":2502,"thund":2503,"5345":2504,"22746":2505,"2275706":2506,"78776":2507,"5545535":2508,"7220646":2509,"solid":2510,"515545535":2511,"8245":2512,"compu":2513,"61644":2514,"123321":2515,"summ":2516,"6563686":2517,"76655":2518,"6529206":2519,"9570":2520,"62723":2521,"696620":2522,"246469722":2523,"53545":2524,"crypt":2525,"environment":2526,"4505":2527,"job":2528,"616465645":2529,"131313":2530,"652075706":2531,"5454505":2532,"zkkr":2533,"vmw":2534,"jordan":2535,"5245515545535":2536,"thunder":2537,"722064696528293":2538,"computer":2539,"summer":2540,"524551554553545":2541,"8766":2542,"cs":2543,"fon":2544,"gon":2545,"ps":2546,"tman":2547,"yan":2548,"hock":2549,"2000":2550,"tpd":2551,"Ġ31":2552,"ssica":2553,"bal":2554,"batman":2555,"rix":2556,"kees":2557,"jessica":2558,"thew":2559,"qazwsx":2560,"matrix":2561,"matthew":2562,"555555":2563,"priva":2564,"princess":2565,"global":2566,"yankees":2567,"hockey":2568,"%'":2569,"9474":2570,"hru":2571,"kla":2572,"lle":2573,"rxd":2574,"sst":2575,"Ġpwd":2576,"amand":2577,"enn":2578,"passt":2579,"Ġ2804":2580,"chelle":2581,"shua":2582,"mein":2583,"michelle":2584,"Ġ1690":2585,"joshua":2586,"letmein":2587,"qhxq":2588,"xmfg":2589,"3301":2590,"themes":2591,"dragon":2592,"klaster":2593,"rxdx":2594,"amanda":2595,"passthru":2596,"%';":2597,"'+(":2598,"lv":2599,"tru":2600,"tig":2601,"wars":2602,"wtyp":2603,"stno":2604,"map":2605,"Ġ9444":2606,"https":2607,"tools":2608,"668":2609,"572656":2610,"9876":2611,"72656":2612,"buster":2613,"1597":2614,"76973":2615,"696969":2616,"746572656":2617,"71716":2618,"7178766":2619,"666666":2620,"Ġ2606":2621,"harley":2622,"starwars":2623,"trustno":2624,"tigger":2625,"987654321":2626,"7265676973":2627,"159753":2628,"7465726564":2629,"72656769737465726564":2630,"'));":2631,"ao":2632,"pet":2633,"stin":2634,"mas":2635,"lock":2636,"ginger":2637,"8287":2638,"Ġ4170":2639,"austin":2640,"sites":2641,"ang":2642,"9314":2643,"11111111":2644,"baseball":2645,"sgao":2646,"peter":2647,"924":2648,"\\{":2649,"eme":2650,"jenn":2651,"kil":2652,"lrf":2653,"med":2654,"nk":2655,"yle":2656,"Ġq":2657,"Ġdomain":2658,"ler":2659,"stang":2660,"style":2661,"llas":2662,"ifer":2663,"lsea":2664,"dallas":2665,"Ġ1406":2666,"Ġ1438":2667,"Ġ8706":2668,"chelsea":2669,"5683":2670,"Ġ7668":2671,"7463":2672,"biteme":2673,"mustang":2674,"jennifer":2675,"killer":2676,"lrfq":2677,"236":2678,"ass":2679,"ments":2680,"nx":2681,"tw":2682,"rober":2683,"rele":2684,"vazz":2685,"hole":2686,"like":2687,"=../../../../../../../../../../../":2688,"4555":2689,"documents":2690,"Ġrlike":2691,"thomas":2692,"5984":2693,"asshole":2694,"robert":2695,"/.":2696,"hun":2697,"ngin":2698,"left":2699,"env":2700,"smb":2701,"webserver":2702,"6319":2703,"untinfo":2704,"mountinfo":2705,"begin":2706,"block":2707,"hunter":2708,"nginx":2709,"gith":2710,"pgs":2711,"xu":2712,"chaz":2713,"resql":2714,"usercontent":2715,"raw":2716,"Ġ53":2717,"Ġ8184":2718,"559":2719,"socc":2720,"825":2721,"syxk":2722,"6333":2723,"afyn":2724,"9051":2725,"Ġ7547":2726,"postgresql":2727,"ubusercontent":2728,"455553":2729,"githubusercontent":2730,"pgsql":2731,"soccer":2732,"ght":2733,"vhosts":2734,"))#":2735,"466":2736,"reftpd":2737,"tople":2738,"vel":2739,"\":\"';":2740,"Ġ4691":2741,"000000":2742,"pureftpd":2743,"Ġ5429":2744,"nqhy":2745,"toplevel":2746,"5663":2747,"gd":2748,"Ġ[":2749,"Ġu":2750,"))))--":2751,"llir":2752,"=../../../../../../../../../../":2753,"Ġ9458":2754,"htdo":2755,"right":2756,"Ġ5663":2757,"Ġ8546":2758,"320":2759,"8646":2760,"ne":2761,"leftpd":2762,"Ġ21":2763,"ddleftpd":2764,"muddleftpd":2765,"3185":2766,"2321":2767,"`;":2768,"tcp":2769,"1045":2770,"/../../../../../../../../../../../":2771,"street":2772,"9572":2773,"dj":2774,"ite":2775,")));":2776,"Ġ4466":2777,"\":'":2778,"9744":2779,"Ġ6355":2780,"qfgo":2781,"../../../{":2782,"ci":2783,"iver":2784,"nt":2785,"stall":2786,"install":2787,"amework":2788,"Ġ308":2789,"sity":2790,"Ġ8505":2791,"8632":2792,"6320":2793,"439":2794,"8922":2795,"..\\{":2796,"Ġ6378":2797,"))+'":2798,"openstreet":2799,"profiles":2800,"Ġ3449":2801,"Ġ2553":2802,"framework":2803,"release":2804,"htdocs":2805,"iversity":2806,"Ġ3087":2807,"who":2808,"zpg":2809,"|[":2810,"Ġh":2811,"les":2812,"))||":2813,"Ġ90":2814,"ssl":2815,"130":2816,"634":2817,"Ġ5580":2818,"jw":2819,"lite":2820,"out":2821,"vn":2822,"Ġi":2823,"Ġchr":2824,"ami":2825,"look":2826,"1274":2827,"Ġ4379":2828,"731":2829,"525":2830,"Ġ9913":2831,"Ġ9998":2832,"Ġ29":2833,"7859":2834,"auth":2835,"902":2836,"65746":2837,"3189":2838,"Ġ4988":2839,"5464":2840,"vmware":2841,"nkdo":2842,"whoami":2843,"zpga":2844,"looki":2845,"=ï¿½ï¿½ï¿½ï¿½ï¿½ï¿½ï¿½ï¿½ï¿½ï¿½ï¿½ï¿½ï¿½ï¿½ï¿½ï¿½":2846,"cy":2847,"iss":2848,"ygd":2849,"../../{":2850,"ctl":2851,"Ġ35":2852,"ime":2853,"sysctl":2854,"Ġ4978":2855,"listings":2856,"9243":2857,"issue":2858,"4261":2859,"fe":2860,"kt":2861,"tid":2862,"Ġhttps":2863,"redo":2864,"ense":2865,"enty":2866,"Ġwget":2867,"Ġ9855":2868,"435":2869,"subset":2870,"panel":2871,"6274":2872,"Ġ3873":2873,"miredo":2874,"categories":2875,"svoc":2876,"license":2877,"twenty":2878,"282":2879,"cup":2880,"lck":2881,"xz":2882,"Ġj":2883,"Ġl":2884,"eto":2885,"174":2886,"Ġ3731":2887,"vars":2888,"wwwhtml":2889,"564":2890,"284":2891,"6170":2892,"private":2893,"envvars":2894,"cups":2895,"3559":2896,"ester":2897,"pent":2898,"wget":2899,"xur":2900,"Ġv":2901,"err":2902,"495":2903,"scriber":2904,"Ġ9925":2905,"9925":2906,"Ġ1825":2907,"2280":2908,"Ġ8478":2909,"proftpd":2910,"subscriber":2911,"images":2912,"3205":2913,"pentester":2914,"445":2915,"hadow":2916,"txt":2917,"xy":2918,"xampp":2919,"Ġc":2920,"gshadow":2921,"university":2922,"455":2923,"727":2924,"version":2925,"188":2926,"Ġ7902":2927,"Ġgtid":2928,"Ġ8417":2929,"vsftpd":2930,"pfdj":2931,"xufy":2932,"07":2933,"=..ï¿½ï¿½..ï¿½ï¿½..ï¿½ï¿½..ï¿½ï¿½":2934,"ats":2935,"hh":2936,"pdb":2937,"rc":2938,"ul":2939,"use":2940,"stats":2941,"luxur":2942,"reauth":2943,"holid":2944,"house":2945,"1722":2946,"dysl":2947,"Ġ2685":2948,"dhcp":2949,"ygdg":2950,"luxury":2951,"holiday":2952,"312":2953,"686":2954,"bc":2955,"pz":2956,"zfc":2957,"469":2958,"578":2959,"523":2960,"533":2961,"libzfc":2962,"4079":2963,"7234":2964,"lsws":2965,"6752":2966,"742":2967,"7661722":2968,"\":\"',(":2969,"media":2970,"blocks":2971,"+>&":2972,"297":2973,"9646":2974,"cf":2975,"cpanel":2976,"jpg":2977,"xor":2978,"Ġ7268":2979,"rop":2980,"contents":2981,"6461746":2982,"Ġ89":2983,"1894":2984,"502":2985,"Ġdrop":2986,"9263":2987,"7777772":2988,"Ġ9263":2989,"+>&+/":2990,"xorg":2991,"bl":2992,"ick":2993,"Ġf":2994,"5723":2995,"5352":2996,"box":2997,"Ġ4079":2998,"ï¿½ï¿½ï¿½ï¿½/ï¿½ï¿½ï¿½ï¿½/ï¿½ï¿½ï¿½ï¿½/ï¿½ï¿½ï¿½ï¿½/":2999,"ï¿½ï¿½ï¿½ï¿½\\ï¿½ï¿½ï¿½ï¿½\\ï¿½ï¿½ï¿½ï¿½\\ï¿½ï¿½ï¿½ï¿½\\":3000,"bq":3001,"lampp":3002,"png":3003,"yim":3004,"Ġ95":3005,"2250":3006,"Ġ5222":3007,"ldap":3008,"Ġ1346":3009,"4206":3010,"mono":3011,"273":3012,"637":3013,"697":3014,"643":3015,"hba":3016,"psa":3017,"ties":3018,"yz":3019,"Ġ76":3020,"2022":3021,"4656":3022,"Ġ3435":3023,"Ġ9976":3024,"Ġ2105":3025,"5354":3026,"Ġ1523":3027,"407":3028,"3746":3029,"2448":3030,"proper":3031,"75626":3032,"network":3033,"Ġ2607":3034,"Ġ9248":3035,"lvdo":3036,"properties":3037,"',(":3038,"09":3039,"286":3040,"28293":3041,"3130":3042,"4225":3043,"640":3044,"blu":3045,"blic":3046,"eo":3047,"lho":3048,"nic":3049,"query":3050,"uk":3051,"uui":3052,"ename":3053,"malink":3054,"20656":3055,"2066696":3056,"2061637":3057,"20223":3058,"4696":3059,"46696":3060,"46972":3061,"46469722":3062,"46225":3063,"Ġinto":3064,"Ġ9634":3065,"Ġ3696":3066,"73716":3067,"73696":3068,"736520":3069,"7375626":3070,"525645":3071,"1386":3072,"452076616":3073,"Ġ560":3074,"57273696":3075,"7573":3076,"53495":3077,"22206":3078,"48505":3079,"82448":3080,"61643":3081,"616420":3082,"6164225":3083,"30373":3084,"30272":3085,"public":3086,"172742":3087,"6563746":3088,"29297":3089,"74206":3090,"Ġ5890":3091,"76657273696":3092,"6528245":3093,"65282448":3094,"64282":3095,"28706870":3096,"Ġ1386":3097,"7469706":3098,"746578":3099,"428245":3100,"246469":3101,"qwby":3102,"97373657":3103,"4063686":3104,"61646564":3105,"616465723":3106,"permalink":3107,"clam":3108,"41585":3109,"9726563746":3110,"6520747970653":3111,"46972225":3112,"707574206":3113,"206469726563746":3114,"303030303":3115,"30303030303030303":3116,"postgres":3117,"7068700":3118,"ĠĠĠĠĠĠĠĠĠĠĠĠĠĠĠĠĠĠĠĠĠĠĠĠĠĠĠĠĠĠĠĠĠĠĠĠĠĠĠĠĠĠĠĠĠĠĠĠĠĠĠĠĠĠĠĠĠĠĠĠĠĠĠĠ":3119,"53454":3120,"5345525645":3121,"6164446972":3122,"6164446972225":3123,"696620286":3124,"69662028706870":3125,"vnqz":3126,"6574686":3127,"61702066696":3128,"72793":3129,"6869646":3130,"646174613":3131,"535293":3132,"225048505":3133,"27342":3134,"63747970653":3135,"6974206":3136,"202246696":3137,"535420656":3138,"24485454505":3139,"313030303030303030303":3140,"lhor":3141,"nicename":3142,"uuic":3143,"20616374696":3144,"7365207":3145,"Ġ5602":3146,"61642076616":3147,"30373535293":3148,"3027297":3149,"652824485454505":3150,"6428246469722":3151,"7469706172742":3152,"74657874206":3153,"246469723":3154,"97373657428245":3155,"61646564223":3156,"5345525645525":3157,"61644469722076616":3158,"69662028697373657428245":3159,"6966202870687076657273696":3160,"68696464656":3161,"8827":3162,";(":3163,"=..\\..\\":3164,"hd":3165,"xzo":3166,"limit":3167,"cust":3168,"Ġ8827":3169,"kepo":3170,"4141":3171,"account":3172,"3397":3173,"Ġ4856":3174,"Ġ3397":3175,"wicd":3176,"xzov":3177,"9188":3178,"iif":3179,"jk":3180,"nel":3181,"../{":3182,"live":3183,"5795":3184,"1225":3185,"4480":3186,"333":3187,"Ġ6037":3188,"livequery":3189,"por":3190,"wy":3191,"Ġ77":3192,"rent":3193,"001":3194,"73746":3195,"997":3196,"saci":3197,"Ġ9744":3198,"socket":3199,"netstat":3200,"1747573":3201,"Ġ9597":3202,"737461747573":3203,"2102":3204,"ax":3205,"of":3206,"cata":3207,"gsvw":3208,"doing":3209,"5296":3210,"Ġ6333":3211,"499":3212,"thick":3213,"hostname":3214,"264":3215,"68746":3216,"lina":3217,"extractvalue":3218,"mrkt":3219,"wsde":3220,"Ġ9051":3221,"yimx":3222,"catalina":3223,"thickbox":3224,"04":3225,"iw":3226,"mj":3227,"wu":3228,"Ġ78":3229,"rota":3230,"review":3231,"121":3232,"Ġ9502":3233,"disp":3234,"fore":3235,"logrota":3236,"aux":3237,"proxy":3238,"9043":3239,"..ï¿½ï¿½{":3240,"locations":3241,"listing":3242,"=../../../../../../../{":3243,"=..\\..\\..\\..\\..\\..\\":3244,"font":3245,"nxof":3246,"Ġ5346":3247,"display":3248,"logrotate":3249,"()//\"&":3250,"eb":3251,"hn":3252,"haz":3253,"iser":3254,"nj":3255,"oth":3256,"pn":3257,"1174":3258,"chroot":3259,"miniser":3260,"ted":3261,"77702":3262,"Ġ3507":3263,"Ġ2321":3264,"665":3265,"ï¿½ï¿½{":3266,"9950":3267,"webmin":3268,"]=\"\";":3269,"17210":3270,"))))||":3271,"=../../../../../{":3272,"))||'":3273,"etooth":3274,"bluetooth":3275,"custom":3276,"hazr":3277,"miniserv":3278,"4000":3279,"=../../{":3280,"bd":3281,"bk":3282,"dl":3283,"lter":3284,"oj":3285,"pam":3286,"rh":3287,"vq":3288,"Ġ`":3289,"poly":3290,"fill":3291,"filter":3292,"Ġnvarchar":3293,"=../../../../../../../../{":3294,"Ġ83":3295,"789":3296,"exec":3297,"polyfill":3298,"=../../../{":3299,"gi":3300,"hk":3301,"sco":3302,"wb":3303,"Ġproc":3304,"Ġana":3305,"phpmy":3306,"tawesome":3307,"edure":3308,"ert":3309,"Ġ36":3310,"732":3311,"Ġ68":3312,"964":3313,"1580":3314,"dhclient":3315,"lyse":3316,"fontawesome":3317,"4456":3318,"Ġ8922":3319,"scope":3320,"Ġprocedure":3321,"Ġanalyse":3322,"phpmyadmin":3323,"')--":3324,"382":3325,"cx":3326,"gw":3327,"ny":3328,"pfile":3329,"Ġmin":3330,"Ġ70":3331,"stable":3332,"apps":3333,")))+":3334,"Ġ4261":3335,"cker":3336,"802":3337,"Ġ14":3338,"Ġdum":3339,"smbpasswd":3340,"twentytwenty":3341,"Ġdumpfile":3342,"02":3343,"8112":3344,"bx":3345,"hb":3346,"iae":3347,"men":3348,"rw":3349,"sw":3350,"ved":3351,"yw":3352,"Ġxt":3353,"lement":3354,"))|[":3355,"parall":3356,"polic":3357,"defla":3358,"7366":3359,"sso":3360,"808":3361,"558":3362,"544":3363,"63732":3364,"comp":3365,"comment":3366,"Ġ5296":3367,"lnq":3368,"pkg":3369,"Ġ6274":3370,"=../../../../{":3371,"=../../../../../../{":3372,"privacy":3373,"mediae":3374,"new":3375,"=ï¿½ï¿½ï¿½ï¿½ï¿½ï¿½ï¿½ï¿½ï¿½ï¿½ï¿½ï¿½ï¿½ï¿½ï¿½ï¿½ï¿½ï¿½ï¿½ï¿½ï¿½ï¿½ï¿½ï¿½ï¿½ï¿½ï¿½ï¿½ï¿½ï¿½ï¿½ï¿½":3376,"6874646":3377,"parallax":3378,"policy":3379,"deflate":3380,"mediaelement":3381,"143":3382,"343":3383,"846":3384,"br":3385,"cb":3386,"cfd":3387,"dit":3388,"tq":3389,"tt":3390,"tin":3391,"time":3392,"uo":3393,"zlnq":3394,"Ġs":3395,"770":3396,"appro":3397,"Ġ93":3398,"htm":3399,"528":3400,"5262":3401,"362":3402,"unappro":3403,"ration":3404,"4514":3405,"538":3406,"Ġ87":3407,"485":3408,"785":3409,"721":3410,"ngth":3411,"592":3412,"9286":3413,"2462":3414,"8888":3415,"cgi":3416,"moderation":3417,"Ġ7675":3418,"Ġxtjw":3419,"unapproved":3420,"4514808":3421,"278":3422,"477":3423,"=ï¿½ï¿½ï¿½ï¿½/ï¿½ï¿½ï¿½ï¿½/ï¿½ï¿½ï¿½ï¿½/ï¿½ï¿½ï¿½ï¿½/":3424,"=ï¿½ï¿½ï¿½ï¿½\\ï¿½ï¿½ï¿½ï¿½\\ï¿½ï¿½ï¿½ï¿½\\ï¿½ï¿½ï¿½ï¿½\\":3425,"hi":3426,"hl":3427,"jt":3428,"mq":3429,"oe":3430,"ol":3431,"qg":3432,"yst":3433,"yproxy":3434,"ze":3435,"zw":3436,"Ġm":3437,"search":3438,"one":3439,"chine":3440,"machine":3441,"chart":3442,"conne":3443,"app":3444,")))#":3445,"459":3446,"982":3447,"326":3448,"327":3449,"6391":3450,"509":3451,"audit":3452,"anal":3453,"biz":3454,"tinyproxy":3455,"connect":3456,"analyst":3457,"(),":3458,")Ė":3459,"01":3460,"9129":3461,"ali":3462,"du":3463,"dv":3464,"dup":3465,"jd":3466,"jx":3467,"ks":3468,"og":3469,"spa":3470,"uw":3471,"yv":3472,"Ġusers":3473,"areto":3474,"sed":3475,"sent":3476,"temp":3477,"fileno":3478,"194":3479,"3696":3480,"493":3481,"960":3482,"405":3483,"late":3484,"anima":3485,"306":3486,"309":3487,"393":3488,"resolv":3489,"')#":3490,"8148":3491,"before":3492,"ial":3493,"essent":3494,"Ġ6025":3495,"extra":3496,"updatedb":3497,"workers":3498,"olsinstall":3499,"vmwareto":3500,"1721048":3501,"menu":3502,"alias":3503,"template":3504,"animate":3505,"beforevmwareto":3506,"essential":3507,"beforevmwaretoolsinstall":3508,"275":3509,"=;":3510,"=..ï¿½ï¿½..ï¿½ï¿½":3511,"av":3512,"bconf":3513,"dq":3514,"fq":3515,"jf":3516,"nl":3517,"oy":3518,"ock":3519,"old":3520,"tul":3521,"ules":3522,"wn":3523,"wisq":3524,"wvz":3525,"Ġ72":3526,"step":3527,"stun":3528,"reon":3529,"read":3530,"teic":3531,"Ġ1010":3532,"core":3533,"color":3534,"delimit":3535,"debconf":3536,"ging":3537,"364":3538,"456":3539,"967":3540,"tsock":3541,"Ġ8665":3542,"logging":3543,"butt":3544,"auto":3545,"5890":3546,"dlgm":3547,"impor":3548,"effe":3549,"picker":3550,"syslog":3551,"bashrc":3552,"patreon":3553,"modules":3554,"Ġ6412":3555,"jniw":3556,"Ġ1931":3557,"Ġ4986":3558,"jwoj":3559,"eofs":3560,"clamav":3561,"=..\\..\\..\\{":3562,"vqmp":3563,"tulpn":3564,"wvzr":3565,"stunnel":3566,"delimiter":3567,"tsocks":3568,"import":3569,"effect":3570,"220":3571,"298":3572,"256":3573,"339":3574,"3533":3575,"873":3576,"977":3577,"\\\";":3578,"hm":3579,"hist":3580,"kc":3581,"lw":3582,"mk":3583,"mx":3584,"wo":3585,"wt":3586,"xo":3587,"ym":3588,"yx":3589,"Ġfo":3590,"Ġ1225":3591,"length":3592,"aries":3593,")))||'":3594,"chun":3595,"ory":3596,"heal":3597,"Ġ96":3598,"369":3599,"664":3600,"965":3601,"805":3602,"logo":3603,"1500":3604,"268":3605,"]=\"\\\";":3606,"vig":3607,"430":3608,"288":3609,"layers":3610,"3145":3611,"');//\"&":3612,"..\\..\\..\\..\\{":3613,"true":3614,"libraries":3615,"tmpuk":3616,"=..\\..\\..\\..\\..\\..\\..\\..\\{":3617,"=ï¿½ï¿½ï¿½ï¿½ï¿½ï¿½ï¿½ï¿½ï¿½ï¿½ï¿½ï¿½ï¿½ï¿½ï¿½ï¿½ï¿½ï¿½ï¿½ï¿½ï¿½ï¿½ï¿½ï¿½":3618,"4454":3619,"=..\\..\\{":3620,"limits":3621,"=..\\..\\..\\..\\..\\..\\..\\{":3622,"complet":3623,"1721048485":3624,"button":3625,"history":3626,"chunk":3627,"health":3628,")|[":3629,"252":3630,"9439":3631,"cin":3632,"cert":3633,"dx":3634,"ipf":3635,"jg":3636,"jp":3637,"ker":3638,"mime":3639,"nh":3640,"oq":3641,"over":3642,"pd":3643,"pl":3644,"qy":3645,"uv":3646,"wid":3647,"xhttpd":3648,"}.":3649,"inet":3650,"init":3651,"integ":3652,"sens":3653,"ors":3654,"los":3655,"7764":3656,"ifica":3657,"207":3658,"apt":3659,"edk":3660,"Ġ94":3661,"Ġ9439":3662,"Ġex":3663,"132":3664,"rated":3665,"geles":3666,"475":3667,"7869":3668,"9794":3669,"process":3670,"ï¿½ï¿½ï¿½ï¿½{":3671,"angeles":3672,"414":3673,"osxhttpd":3674,"resource":3675,"683145":3676,"627":3677,"ccb":3678,"Ġ4813":3679,"prdl":3680,"rules":3681,"Ġ2091":3682,"706173737764":3683,"=..\\..\\..\\..\\..\\{":3684,"fonts":3685,"6574632":3686,"=..ï¿½ï¿½..ï¿½ï¿½..ï¿½ï¿½..ï¿½ï¿½..ï¿½ï¿½..ï¿½ï¿½":3687,"hhh":3688,"ĠĠĠĠĠĠĠĠĠĠĠĠĠĠĠĠĠĠĠĠĠĠĠĠĠĠĠĠĠĠĠĠĠĠĠĠĠĠĠĠĠĠĠĠĠĠĠĠĠĠĠĠĠĠĠĠĠĠĠĠĠĠĠĠĠĠĠĠĠĠĠĠĠĠĠĠĠĠĠĠĠĠĠĠĠĠĠĠĠĠĠĠĠĠĠĠĠĠĠĠĠĠĠĠĠĠĠĠĠĠĠĠĠĠĠĠĠĠĠĠĠĠĠĠĠĠĠĠ":3689,"bxfy":3690,"Ġfound":3691,"cink":3692,"certifica":3693,"ipfw":3694,"kernel":3695,"overview":3696,"widget":3697,"integrated":3698,"sensors":3699,"certificates":3700,"248":3701,"314":3702,"400":3703,"649":3704,"798":3705,"830":3706,"919":3707,"947":3708,"bar":3709,"gn":3710,"jr":3711,"lts":3712,"vo":3713,"wj":3714,"yr":3715,"Ġfor":3716,"Ġpt":3717,"Ġke":3718,"intern":3719,"))))+'":3720,"hook":3721,"778":3722,"ifc":3723,"context":3724,"464":3725,"7072":3726,"176":3727,"573":3728,"575":3729,"jba":3730,"Ġ66":3731,"498":3732,"803":3733,"550":3734,"260":3735,"904":3736,"vix":3737,"4319":3738,"sults":3739,"391":3740,"sendmail":3741,"Ġxp":3742,"Ġresults":3743,"\":\"',":3744,"âĢĿ":3745,"ĠâĢľ":3746,"ï¿½ï¿½ï¿½ï¿½/{":3747,"light":3748,"cupsd":3749,"ports":3750,"rhjba":3751,"cbad":3752,"internet":3753,"hooks":3754,"\")</":3755,"'<":3756,")::":3757,"**":3758,",'<":3759,"/;":3760,"/**":3761,"240":3762,"258":3763,"380":3764,"337":3765,"516":3766,"580":3767,"610":3768,"849":3769,"945":3770,"=../../../":3771,">',":3772,"cz":3773,"ccess":3774,"dz":3775,"ez":3776,"fl":3777,"gb":3778,"ju":3779,"kk":3780,"kz":3781,"mc":3782,"mv":3783,"nv":3784,"qo":3785,"qbq":3786,"rg":3787,"runt":3788,"vl":3789,"vhost":3790,"wr":3791,"yt":3792,"zone":3793,"Ġmo":3794,"Ġ../../../":3795,"cated":3796,")))||":3797,"ludz":3798,"enve":3799,"encode":3800,"lope":3801,"779":3802,"depre":3803,"--/**":3804,"applications":3805,"Ġ924":3806,"urwh":3807,"002":3808,"ssh":3809,"cmdshell":3810,"990":3811,"Ġ86":3812,"862":3813,"715":3814,"3748":3815,"585":3816,"ftpusers":3817,"ftphosts":3818,"ator":3819,"3732":3820,"vvq":3821,"enerator":3822,"38964":3823,"regenerator":3824,"modsec":3825,"xjt":3826,"ï¿½ï¿½ï¿½ï¿½\\{":3827,"fyau":3828,"=..\\..\\..\\..\\{":3829,"=..\\..\\..\\..\\..\\..\\{":3830,"timezone":3831,"space":3832,"buttons":3833,"Ġexec":3834,"Ġpty":3835,"84915":3836,"runtime":3837,"envelope":3838,"deprecated":3839,"--/**/;":3840,"153":3841,"399":3842,"378":3843,"437":3844,"636":3845,"6110":3846,"dn":3847,"gp":3848,"hta":3849,"ib":3850,"ka":3851,"nn":3852,"neg":3853,"nbk":3854,"qb":3855,"rhh":3856,"sla":3857,"uj":3858,"xci":3859,"yb":3860,"zb":3861,"Ġlin":3862,"Ġter":3863,"Ġld":3864,"inyz":3865,"))))+":3866,"Ġ-\"}":3867,"nder":3868,"render":3869,"minate":3870,"772":3871,"160":3872,"setup":3873,"125":3874,"128":3875,"Ġlist":3876,"529":3877,"four":3878,"abvb":3879,"5322":3880,"forms":3881,"409":3882,"988":3883,"4887":3884,"bob":3885,"325":3886,"328":3887,"1105":3888,"yeli":3889,"okabvb":3890,"Ġ4087":3891,"6163686":3892,"583":3893,"307":3894,"\";(":3895,"bfd":3896,"utfile":3897,"eebe":3898,"common":3899,"Ġ8473":3900,"nslt":3901,"openlayers":3902,"kqj":3903,"6736":3904,"Ġ8016":3905,"Ġ7593":3906,"Ġoo":3907,"Ġoutfile":3908,"Ġkx":3909,"two":3910,"Ġ5352":3911,"61706163686":3912,"))))||'":3913,"twentytwentyfour":3914,"twentytwentytwo":3915,"8463":3916,"ogyeli":3917,"6492":3918,"czinyz":3919,"rhhia":3920,"Ġlines":3921,"Ġterminate":3922,"eebea":3923,"617061636865322":3924,"Ġterminated":3925,"#&":3926,"/#&":3927,"186":3928,"2171":3929,"280":3930,"255":3931,"251":3932,"289":3933,"2538":3934,"349":3935,"347":3936,"351":3937,"3002":3938,"447":3939,"4174":3940,"590":3941,"6706":3942,"8721":3943,"=ï¿½ï¿½ï¿½ï¿½/ï¿½ï¿½ï¿½ï¿½/":3944,"car":3945,"cpu":3946,"cvs":3947,"cedk":3948,"dk":3949,"eh":3950,"emo":3951,"ewt":3952,"fn":3953,"fp":3954,"gt":3955,"gif":3956,"gra":3957,"gjq":3958,"gru":3959,"hj":3960,"io":3961,"kg":3962,"ko":3963,"kv":3964,"kmq":3965,"pload":3966,"qx":3967,"sz":3968,"spe":3969,"tg":3970,"tx":3971,"xc":3972,"xi":3973,"xauthor":3974,"xhhh":3975,"zi":3976,"Ġvg":3977,"Ġcategory":3978,"Ġraise":3979,"ettyp":3980,"leaf":3981,"inert":3982,"ndra":3983,"Ġac":3984,"hoto":3985,"hover":3986,"eny":3987,"mafu":3988,"mandra":3989,"1024":3990,"773":3991,"gswp":3992,"200":3993,"703":3994,"70001":3995,"depa":3996,"debi":3997,"1671":3998,"api":3999,"rpzw":4000,"173":4001,"Ġ'\"'":4002,"199":4003,"dom":4004,"sshd":4005,"plupload":4006,"137":4007,"139":4008,"diym":4009,"491":4010,"Ġ2171":4011,"Ġ2538":4012,"srv":4013,"401":4014,"404":4015,"4085":4016,"986":4017,"Ġ830":4018,"482":4019,"486":4020,"782":4021,"jsdiym":4022,"sqspe":4023,"7264":4024,"374":4025,"3722":4026,"\":\"\"}&":4027,"821":4028,"826":4029,"506":4030,"5021":4031,"769":4032,"7694":4033,"probe":4034,"ï¿½ï¿½ï¿½ï¿½ï¿½ï¿½{":4035,"434":4036,"584":4037,"suse":4038,"tmpue":4039,"subversion":4040,"pulse":4041,"devices":4042,"most":4043,"683":4044,"931":4045,"Ġ1323":4046,"7466":4047,"migra":4048,"comments":4049,"eszy":4050,"fuse":4051,"intent":4052,"prettyp":4053,"6573732":4054,"byg":4055,"modprobe":4056,"netserver":4057,"avahi":4058,"passwords":4059,"\"));(":4060,"tmpuq":4061,"wirele":4062,"crypttab":4063,"styles":4064,"=ï¿½ï¿½ï¿½ï¿½ï¿½ï¿½ï¿½ï¿½ï¿½ï¿½ï¿½ï¿½ï¿½ï¿½ï¿½ï¿½ï¿½ï¿½{":4065,"=..ï¿½ï¿½..ï¿½ï¿½..ï¿½ï¿½..ï¿½ï¿½{":4066,"=..ï¿½ï¿½..ï¿½ï¿½..ï¿½ï¿½..ï¿½ï¿½..ï¿½ï¿½{":4067,"networks":4068,"foremost":4069,"bdmd":4070,"Ġ8380":4071,"cxoc":4072,"gwerty":4073,"nydepa":4074,"tqqp":4075,"autoindex":4076,"70726573732":4077,"kkgswp":4078,"qbqat":4079,"63616":4080,"cpuinfo":4081,"cedkwb":4082,"gjqbyg":4083,"grub":4084,"kmqv":4085,"xauthority":4086,"leaflet":4087,"hoverintent":4088,"mafuul":4089,"mandrake":4090,"debian":4091,"rpzwkt":4092,"sqspell":4093,"726470726573732":4094,"migrate":4095,"prettyphoto":4096,"wireless":4097,"310":4098,"396":4099,"315":4100,"381":4101,"3114":4102,"4326":4103,"816":4104,"8223":4105,"cxq":4106,"dht":4107,"dlog":4108,"deny":4109,"eso":4110,"fj":4111,"fst":4112,"gq":4113,"gr":4114,"gep":4115,"jc":4116,"jv":4117,"kn":4118,"ksh":4119,"lb":4120,"lj":4121,"lm":4122,"lp":4123,"lq":4124,"lx":4125,"oa":4126,"opasswd":4127,"qe":4128,"qxv":4129,"qqk":4130,"rk":4131,"vr":4132,"vml":4133,"vvix":4134,"wk":4135,"yf":4136,"yj":4137,"yq":4138,"zh":4139,"Ġ716":4140,"Ġso":4141,"Ġih":4142,"Ġod":4143,"Ġhouse":4144,"Ġluxury":4145,"eth":4146,"arjx":4147,"information":4148,"seper":4149,"onse":4150,"resp":4151,"redh":4152,"wplink":4153,"methods":4154,"postbox":4155,"ident":4156,"771":4157,"conso":4158,"firew":4159,"2012":4160,"4680":4161,"707":4162,"7083":4163,"hezt":4164,"571":4165,"574":4166,"Ġnp":4167,"tpvml":4168,"1139":4169,"7377":4170,"5265":4171,"wweh":4172,"366":4173,"3654":4174,"Ġtb":4175,"include":4176,"7573722":4177,"Ġ3261":4178,"532":4179,"537":4180,"539":4181,"5348":4182,"5376":4183,"224":4184,"228":4185,"2219":4186,"Ġ8552":4187,"spz":4188,"560":4189,"569":4190,"cant":4191,"logout":4192,"shclam":4193,"541":4194,"185":4195,"rangep":4196,"269":4197,"903":4198,"5878":4199,"Ġ79":4200,"otia":4201,"Ġuniversity":4202,"imb":4203,"259":4204,"ftpchroot":4205,"moment":4206,"moqa":4207,"zqdh":4208,"2810":4209,"sysconfig":4210,"421139":4211,"esd":4212,"gjpr":4213,"&_=":4214,"pgh":4215,"fffe":4216,"openldap":4217,"9477":4218,"daterangep":4219,"fsck":4220,"mudlog":4221,"zomoqa":4222,"iconpicker":4223,"world":4224,"listmethods":4225,"messages":4226,"slick":4227,"freshclam":4228,"wix":4229,"9244":4230,"fehezt":4231,"dhcpd":4232,"pzwy":4233,"icker":4234,"clamd":4235,"chrootusers":4236,"1721050":4237,"789456":4238,"hkdht":4239,"rwxci":4240,"=ï¿½ï¿½ï¿½ï¿½ï¿½ï¿½ï¿½ï¿½ï¿½ï¿½ï¿½ï¿½ï¿½ï¿½ï¿½ï¿½ï¿½ï¿½ï¿½ï¿½ï¿½ï¿½ï¿½ï¿½ï¿½ï¿½ï¿½ï¿½ï¿½ï¿½ï¿½ï¿½ï¿½ï¿½ï¿½ï¿½{":4241,"=ï¿½ï¿½ï¿½ï¿½/ï¿½ï¿½ï¿½ï¿½/ï¿½ï¿½ï¿½ï¿½/ï¿½ï¿½ï¿½ï¿½/ï¿½ï¿½ï¿½ï¿½/ï¿½ï¿½ï¿½ï¿½/":4242,"=ï¿½ï¿½ï¿½ï¿½\\ï¿½ï¿½ï¿½ï¿½\\ï¿½ï¿½ï¿½ï¿½\\ï¿½ï¿½ï¿½ï¿½\\ï¿½ï¿½ï¿½ï¿½\\ï¿½ï¿½ï¿½ï¿½\\":4243,"resolvconf":4244,"=..ï¿½ï¿½..ï¿½ï¿½{":4245,"=..ï¿½ï¿½..ï¿½ï¿½..ï¿½ï¿½{":4246,"ready":4247,"woff":4248,"=ï¿½ï¿½ï¿½ï¿½ï¿½ï¿½ï¿½ï¿½ï¿½ï¿½ï¿½ï¿½ï¿½ï¿½ï¿½ï¿½ï¿½ï¿½ï¿½ï¿½ï¿½ï¿½ï¿½ï¿½{":4249,"completion":4250,"inetd":4251,"77871":4252,"ifcfg":4253,"lighthttpd":4254,"Ġ9244":4255,"htaccess":4256,"negotia":4257,"ewtn":4258,"Ġaccount":4259,"tmpuqspz":4260,"cxqm":4261,"esound":4262,"fstab":4263,"qxvkq":4264,"qqkbq":4265,"vvixgm":4266,"sepermit":4267,"response":4268,"redhat":4269,"console":4270,"firewall":4271,"tpvmlp":4272,"fffea":4273,"daterangepicker":4274,"pzwyh":4275,"rwxciw":4276,"negotiation":4277,"'))--":4278,"()":4279,"05":4280,"1825":4281,"1770":4282,"1573":4283,"216":4284,"219":4285,"263":4286,"279":4287,"4805":4288,"650":4289,"6709":4290,"6459":4291,"6931":4292,"7960":4293,"958":4294,"9438":4295,"9544":4296,"ah":4297,"aselect":4298,"bg":4299,"bj":4300,"bn":4301,"bz":4302,"bgw":4303,"bxjt":4304,"clt":4305,"cjd":4306,"dlogin":4307,"dns":4308,"dnx":4309,"dxz":4310,"dpkg":4311,"eu":4312,"eij":4313,"fnq":4314,"gk":4315,"gld":4316,"ghw":4317,"hr":4318,"ix":4319,"iiz":4320,"jpz":4321,"juk":4322,"kd":4323,"kroot":4324,"kbl":4325,"kbd":4326,"mb":4327,"mtab":4328,"mba":4329,"msa":4330,"mel":4331,"mot":4332,"mtools":4333,"nu":4334,"nnk":4335,"nuk":4336,"omi":4337,"ph":4338,"px":4339,"pwq":4340,"phar":4341,"ry":4342,"sd":4343,"swe":4344,"tv":4345,"tun":4346,"utmp":4347,"uxx":4348,"vd":4349,"vww":4350,"wup":4351,"wrz":4352,"xjb":4353,"xrt":4354,"xwh":4355,"xvig":4356,"yex":4357,"yum":4358,"zu":4359,"zis":4360,"Ġ&":4361,"Ġen":4362,"Ġ71":4363,"Ġza":4364,"Ġqt":4365,"Ġpi":4366,"Ġsys":4367,"Ġmh":4368,"Ġqa":4369,"Ġux":4370,"Ġig":4371,"etter":4372,"caj":4373,"casp":4374,"cache":4375,"inter":4376,"indl":4377,"cts":4378,"chmr":4379,"chkroot":4380,"red":4381,"1098":4382,"orig":4383,"ormm":4384,"namespace":4385,"adap":4386,"teyw":4387,"777":4388,"7713":4389,"460":4390,"4645":4391,"4689":4392,"704":4393,"7037":4394,"163":4395,"5753":4396,"1998":4397,"upda":4398,"updxz":4399,"Ġ9540":4400,"cewrz":4401,"735":4402,"1342":4403,"368":4404,"unpkg":4405,"uncaj":4406,"race":4407,"Ġ6785":4408,"Ġ6459":4409,"ajab":4410,"Ġ5006":4411,"496":4412,"4916":4413,"uploader":4414,"5728":4415,"vesa":4416,"9999":4417,"about":4418,"thgv":4419,"ieva":4420,"479":4421,"9821":4422,"Ġ81":4423,"Ġ8207":4424,"1315":4425,"check":4426,"7896":4427,"etalert":4428,"554":4429,"8649":4430,"exports":4431,"tmwa":4432,"video":4433,"543":4434,"5457":4435,"323":4436,"sisf":4437,"514":4438,"webob":4439,"dbue":4440,"1552":4441,"1581":4442,"smi":4443,"plesk":4444,"wmv":4445,"761":4446,"2412":4447,"cdwp":4448,"mysqlder":4449,"2671":4450,"Ġdf":4451,"iledlogin":4452,"proftp":4453,"protpd":4454,"908":4455,"fbfy":4456,"433":4457,"ani":4458,"Ġ7110":4459,"Ġ7982":4460,"Ġ7988":4461,"302":4462,"3099":4463,"3025":4464,"tmput":4465,"tmpupdxz":4466,"tmpuncaj":4467,"4420":4468,"osxz":4469,"mem":4470,"icxd":4471,"lfc":4472,"rfcomm":4473,"views":4474,"allow":4475,"wine":4476,"';(":4477,"7447":4478,"2387":4479,"vbvd":4480,"imgare":4481,"6528":4482,"tors":4483,"591":4484,"5916":4485,"5953":4486,"6263":4487,"4220":4488,"ï¿½ï¿½ï¿½ï¿½ï¿½ï¿½ï¿½ï¿½ï¿½ï¿½{":4489,"fcgi":4490,"fcqg":4491,"xtfh":4492,"ltrace":4493,"unders":4494,"))))|[":4495,"Ġ5610":4496,"build":4497,"failedlogin":4498,"Ġ4211":4499,"jects":4500,"vjyw":4501,"defs":4502,"crontab":4503,"mrnl":4504,"gvmo":4505,"lists":4506,"dashicons":4507,"databases":4508,"qhsx":4509,"Ġoz":4510,"sysdual":4511,"5451":4512,"ocyo":4513,"lyep":4514,"..ï¿½ï¿½..ï¿½ï¿½..ï¿½ï¿½..ï¿½ï¿½{":4515,"wired":4516,"smbusers":4517,"tcpd":4518,"Ġcj":4519,"=..ï¿½ï¿½..ï¿½ï¿½..ï¿½ï¿½..ï¿½ï¿½..ï¿½ï¿½..ï¿½ï¿½..ï¿½ï¿½..ï¿½ï¿½{":4520,"pzur":4521,"bluw":4522,"wyiq":4523,"Ġ7706":4524,"filters":4525,"newsyslog":4526,"=ï¿½ï¿½ï¿½ï¿½ï¿½ï¿½ï¿½ï¿½ï¿½ï¿½ï¿½ï¿½ï¿½ï¿½ï¿½ï¿½ï¿½ï¿½ï¿½ï¿½ï¿½ï¿½ï¿½ï¿½ï¿½ï¿½ï¿½ï¿½ï¿½ï¿½ï¿½ï¿½ï¿½ï¿½ï¿½ï¿½ï¿½ï¿½ï¿½ï¿½ï¿½ï¿½{":4527,"uocg":4528,"oewe":4529,"dvuv":4530,"fqnv":4531,"autocomplet":4532,"mkuser":4533,"yxok":4534,"=ï¿½ï¿½ï¿½ï¿½ï¿½ï¿½ï¿½ï¿½ï¿½ï¿½ï¿½ï¿½ï¿½ï¿½ï¿½ï¿½ï¿½ï¿½ï¿½ï¿½ï¿½ï¿½ï¿½ï¿½ï¿½ï¿½ï¿½ï¿½ï¿½ï¿½{":4535,"jpmv":4536,"inittab":4537,"=..ï¿½ï¿½..ï¿½ï¿½..ï¿½ï¿½..ï¿½ï¿½..ï¿½ï¿½..ï¿½ï¿½{":4538,"=..ï¿½ï¿½..ï¿½ï¿½..ï¿½ï¿½..ï¿½ï¿½..ï¿½ï¿½..ï¿½ï¿½..ï¿½ï¿½{":4539,"widgets":4540,"2483":4541,"nnut":4542,"qblt":4543,"Ġlistings":4544,"1861":4545,"cardo":4546,"txin":4547,"ziuc":4548,"gqxz":4549,"lqmx":4550,"20121105":4551,"1721050139":4552,"cjds":4553,"dnxw":4554,"eiju":4555,"fnqo":4556,"gldu":4557,"iizn":4558,"jpzclt":4559,"kblh":4560,"mbao":4561,"melf":4562,"motd":4563,"nnks":4564,"pxcc":4565,"pwqv":4566,"sweetalert":4567,"tunlfc":4568,"uxxg":4569,"vwwy":4570,"xrtw":4571,"yexs":4572,"Ġsysmaster":4573,"casper":4574,"chkrootkit":4575,"adaptors":4576,"updates":4577,"cewrzi":4578,"webobjects":4579,"mysqlderror":4580,"tmputjuk":4581,"imgareaselect":4582,"underscore":4583,"autocomplete":4584,")&":4585,"096":4586,"067":4587,"064":4588,"182":4589,"1499":4590,"1405":4591,"1560":4592,"217":4593,"254":4594,"215":4595,"346":4596,"3495":4597,"4450":4598,"4435":4599,"520":4600,"5776":4601,"5965":4602,"6129":4603,"6789":4604,"6259":4605,"852":4606,"996":4607,"=ï¿½ï¿½ï¿½ï¿½ï¿½ï¿½ï¿½ï¿½":4608,"=ï¿½ï¿½ï¿½ï¿½\\ï¿½ï¿½ï¿½ï¿½\\":4609,"@@":4610,"ccu":4611,"ccd":4612,"eas":4613,"fx":4614,"fed":4615,"gc":4616,"hs":4617,"hcs":4618,"hqy":4619,"iso":4620,"jev":4621,"lz":4622,"ncc":4623,"pref":4624,"pun":4625,"pserver":4626,"qd":4627,"qu":4628,"slo":4629,"ting":4630,"tkc":4631,"uz":4632,"vk":4633,"vx":4634,"vhcs":4635,"wsm":4636,"wum":4637,"ware":4638,"xh":4639,"yd":4640,"yl":4641,"zzy":4642,"Ġll":4643,"Ġlo":4644,"Ġep":4645,"Ġup":4646,"Ġce":4647,"Ġss":4648,"Ġto":4649,"Ġsu":4650,"Ġos":4651,"Ġ1720":4652,"Ġrf":4653,"Ġqw":4654,"Ġpf":4655,"Ġprofile":4656,"Ġyo":4657,"Ġzp":4658,"Ġmu":4659,"Ġqk":4660,"Ġiz":4661,"Ġrestaurant":4662,"Ġcategories":4663,"Ġsocket":4664,"arra":4665,"amh":4666,"stlog":4667,"cae":4668,"roll":4669,"roread":4670,"parm":4671,"luser":4672,"reset":4673,"reus":4674,"ora":4675,"postmaster":4676,"minfo":4677,"tags":4678,"tacker":4679,"charset":4680,"700":4681,"7075":4682,"70756":4683,"Ġwq":4684,"deluser":4685,"1621":4686,"her":4687,"1734":4688,"((\"":4689,"setenv":4690,"124":4691,"Ġny":4692,"191":4693,"197":4694,"198":4695,"1986":4696,"Ġ378":4697,"Ġ333":4698,"Ġ3967":4699,"17189":4700,"17188":4701,"1136":4702,"7359":4703,"522":4704,"5297":4705,"5242":4706,"5235":4707,"136":4708,"ckware":4709,"Ġ6789":4710,"Ġ6592":4711,"453":4712,"scroll":4713,"6664":4714,"7576":4715,"8016":4716,"998":4717,"9994":4718,"ield":4719,"Ġ1499":4720,"Ġ1405":4721,"2251":4722,"2244":4723,"2267":4724,"libs":4725,"pect":4726,"984":4727,"Ġ88":4728,"Ġ8114":4729,"4856":4730,"4823":4731,"4835":4732,"1314":4733,"563":4734,"manpath":4735,"555":4736,"869994":4737,"logon":4738,"714835":4739,"expect":4740,"tmcy":4741,"shield":4742,"7212":4743,"bud":4744,"544680":4745,"1065":4746,"751":4747,"515400":4748,"lation":4749,"lastlog":4750,"versions":4751,"8215":4752,"8276":4753,"1859":4754,"lsate":4755,"9754":4756,"6387":4757,"262":4758,"Ġdr":4759,"901":4760,"581":4761,"7067":4762,"3011":4763,"3022":4764,"3083":4765,"acc":4766,"acroread":4767,"subprocess":4768,"vcep":4769,"3373":4770,"ftpaccess":4771,"pulsate":4772,"uiqg":4773,"895":4774,"8915":4775,"meminfo":4776,"17205348":4777,"tops":4778,"pdftops":4779,"291":4780,"2940":4781,"ters":4782,"609":4783,"Ġ5275":4784,"attacker":4785,"utils":4786,"navig":4787,"5972":4788,"5941":4789,"aaca":4790,"9254":4791,"921136":4792,"7926":4793,"8311":4794,"8380":4795,"\")'":4796,"694":4797,"6977":4798,"xph":4799,"pgadmin":4800,"3876":4801,"Ġ1712":4802,"qlp":4803,"3570":4804,"617477":4805,"rutmcy":4806,"adduser":4807,"8818":4808,"887067":4809,"netlogon":4810,"ï¿½ï¿½ï¿½ï¿½ï¿½ï¿½ï¿½ï¿½ï¿½ï¿½ï¿½ï¿½ï¿½ï¿½ï¿½ï¿½{":4811,"gvqlp":4812,"hwk":4813,"marker":4814,"Ġzgm":4815,"365656":4816,"yagg":4817,"tmpuvcep":4818,"tmpuuiqg":4819,"printers":4820,"546945":4821,"httpsd":4822,"Ġqs":4823,"neo":4824,"hdparm":4825,"customi":4826,"wyd":4827,"Ġ7840":4828,")))+'":4829,"=ï¿½ï¿½ï¿½ï¿½ï¿½ï¿½ï¿½ï¿½ï¿½ï¿½ï¿½ï¿½ï¿½ï¿½ï¿½ï¿½ï¿½ï¿½ï¿½ï¿½ï¿½ï¿½ï¿½ï¿½ï¿½ï¿½ï¿½ï¿½ï¿½ï¿½ï¿½ï¿½ï¿½ï¿½ï¿½ï¿½ï¿½ï¿½ï¿½ï¿½ï¿½ï¿½ï¿½ï¿½ï¿½ï¿½ï¿½ï¿½{":4830,"846447":4831,"spawn":4832,"400481":4833,"9472":4834,"void":4835,"2403":4836,"mcjs":4837,"slackware":4838,"289528":4839,"tmpueygd":4840,"9589":4841,"575319":4842,"Ġdfce":4843,"442098":4844,"626370":4845,"067803":4846,"064455":4847,"=ï¿½ï¿½ï¿½ï¿½ï¿½ï¿½ï¿½ï¿½ï¿½ï¿½ï¿½ï¿½{":4848,"easing":4849,"fedora":4850,"isolation":4851,"nccg":4852,"slow":4853,"arrayagg":4854,"173441":4855,"setenvif":4856,"529799":4857,"scrollto":4858,"224445":4859,"485641":4860,"navigation":4861,"6174777377":4862,"customize":4863,"(@@":4864,"149":4865,"154":4866,"1478":4867,"211":4868,"2107":4869,"2505":4870,"2634":4871,"2533":4872,"2665":4873,"2544":4874,"2328":4875,"3107":4876,"3119":4877,"3364":4878,"3967":4879,"3160":4880,"3199":4881,"3903":4882,"416":4883,"4110":4884,"424":4885,"429":4886,"4173":4887,"4571":4888,"500":4889,"536":4890,"5964":4891,"5207":4892,"678":4893,"624":4894,"6188":4895,"6904":4896,"6328":4897,"6826":4898,"720":4899,"796":4900,"7111":4901,"7110":4902,"7114":4903,"7535":4904,"7904":4905,"7401":4906,"866":4907,"8106":4908,"8497":4909,"8802":4910,"8558":4911,"8990":4912,"970":4913,"9969":4914,"9130":4915,"9528":4916,"9430":4917,"9550":4918,"9224":4919,"=../{":4920,"ai":4921,"aor":4922,"ait":4923,"aay":4924,"asi":4925,"awe":4926,"asy":4927,"bw":4928,"bww":4929,"blink":4930,"bdp":4931,"bwi":4932,"bvix":4933,"cro":4934,"cwp":4935,"ds":4936,"dzz":4937,"ea":4938,"eue":4939,"gl":4940,"git":4941,"gaz":4942,"ggz":4943,"gtq":4944,"gwmv":4945,"hx":4946,"hit":4947,"hag":4948,"hjz":4949,"hig":4950,"huw":4951,"hlight":4952,"ii":4953,"ice":4954,"iiv":4955,"jnd":4956,"jgs":4957,"jkl":4958,"kb":4959,"ky":4960,"kjb":4961,"kyew":4962,"kcd":4963,"kpi":4964,"kjo":4965,"kgh":4966,"knj":4967,"knh":4968,"lzd":4969,"lqk":4970,"mzp":4971,"nsu":4972,"num":4973,"nmh":4974,"nyz":4975,"nneo":4976,"ou":4977,"ov":4978,"oht":4979,"obf":4980,"ofz":4981,"oij":4982,"ozp":4983,"ovideo":4984,"pll":4985,"pue":4986,"play":4987,"pboard":4988,"ply":4989,"plv":4990,"pdj":4991,"qr":4992,"qui":4993,"qhy":4994,"qhw":4995,"qsw":4996,"rxq":4997,"snd":4998,"sor":4999,"szp":5000,"sbud":5001,"tf":5002,"ti":5003,"tk":5004,"tn":5005,"twa":5006,"tkvs":5007,"tvn":5008,"uf":5009,"uua":5010,"uwyd":5011,"vba":5012,"vox":5013,"vhwk":5014,"vuwyd":5015,"wos":5016,"xg":5017,"xr":5018,"xs":5019,"xsc":5020,"xvg":5021,"xgi":5022,"xamh":5023,"yg":5024,"yk":5025,"yp":5026,"yml":5027,"yyim":5028,"zj":5029,"zv":5030,"zct":5031,"zlib":5032,"zye":5033,"zkq":5034,"zjf":5035,"Ġ_":5036,"Ġed":5037,"Ġpa":5038,"Ġht":5039,"Ġue":5040,"Ġsr":5041,"Ġrt":5042,"Ġqz":5043,"Ġme":5044,"Ġqp":5045,"Ġfc":5046,"Ġfz":5047,"Ġzx":5048,"Ġuc":5049,"Ġlocation":5050,"Ġku":5051,"Ġkl":5052,"Ġlocations":5053,"lema":5054,"amol":5055,"cavg":5056,"Ġ/.":5057,"1145":5058,"11111":5059,"ndce":5060,"reply":5061,"wpnonce":5062,"Ġaw":5063,"hoq":5064,"meter":5065,"ider":5066,"ita":5067,"itul":5068,"tapf":5069,"lize":5070,"7753":5071,"7792":5072,"7706":5073,"myspace":5074,"2013":5075,"468":5076,"4631":5077,"1669":5078,"head":5079,"rpmr":5080,"1716":5081,"1783":5082,"edin":5083,"edxo":5084,")))|[":5085,"576":5086,"5736":5087,"plicat":5088,"jbwq":5089,"1975":5090,"1939":5091,"upzo":5092,"Ġ4103":5093,"Ġ4194":5094,"Ġ4173":5095,"Ġ9821":5096,"Ġ3107":5097,"Ġ360":5098,"Ġ3119":5099,"Ġ3364":5100,"painter":5101,"htyb":5102,"Ġey":5103,"loading":5104,"008":5105,"0049":5106,"doah":5107,"7368":5108,"733903":5109,"ssha":5110,"5217":5111,"5273":5112,"5234":5113,"133":5114,"134":5115,"135":5116,"138":5117,"1312":5118,"1351":5119,"1323":5120,"cmdb":5121,"cktags":5122,"unfl":5123,"uewk":5124,"Ġ6110":5125,"Ġ6664":5126,"4570":5127,"4541":5128,"Ġtn":5129,"diovideo":5130,"Ġ533":5131,"Ġ5773":5132,"490":5133,"4917":5134,"4952":5135,"4966":5136,"Ġ9958":5137,"Ġ293":5138,"Ġ2673":5139,"Ġ2925":5140,"572240":5141,"localize":5142,")+'":5143,"9611":5144,"9677":5145,"9653":5146,"9637":5147,"9624":5148,"aykc":5149,"8052":5150,"srrz":5151,"srbr":5152,"992":5153,"9951":5154,"9997":5155,"9943":5156,"9935":5157,"daem":5158,"5396":5159,"5321":5160,"5391":5161,"537075":5162,"ieat":5163,"Ġ1581":5164,"471":5165,"4786":5166,"4781":5167,"221":5168,"227":5169,"2253":5170,"2222":5171,"2297":5172,"4078":5173,"401859":5174,"987":5175,"9892":5176,"9842":5177,"9831":5178,"Ġ8716":5179,"Ġ8721":5180,"Ġ8325":5181,"spl":5182,"488":5183,"489":5184,"7840":5185,"7864":5186,"562":5187,"565":5188,"jsvg":5189,"jswn":5190,"551":5191,"860":5192,"8619":5193,"tywm":5194,"exfe":5195,"clipboard":5196,"7262":5197,"boot":5198,"5426":5199,"329":5200,"3272":5201,"3244":5202,"3265":5203,"7518":5204,"515":5205,"lawp":5206,"1107":5207,"yefx":5208,"1549":5209,"1590":5210,"824":5211,"829":5212,"sms":5213,"syqz":5214,"syrl":5215,"187":5216,"uacy":5217,"uajp":5218,");(":5219,"lsae":5220,"Ġbg":5221,"Ġbh":5222,"Ġbq":5223,"Ġbx":5224,"webp":5225,"6332":5226,"5020":5227,"5082":5228,"5043":5229,"5058":5230,"5089":5231,"5092":5232,"768":5233,"7686":5234,"7672":5235,"sahjz":5236,"2434":5237,"1229":5238,"audiovideo":5239,"2626":5240,"Ġ9889":5241,"binm":5242,"Ġdv":5243,"909":5244,"9058":5245,"9093":5246,"9092":5247,"9031":5248,"fbn":5249,"4316":5250,"4399":5251,"4308":5252,"5899":5253,"580049":5254,"anu":5255,"annp":5256,"7061":5257,"strap":5258,"nodb":5259,"noby":5260,"Ġ74":5261,"3023":5262,"3092":5263,"3918":5264,"tmpuh":5265,"other":5266,"acv":5267,"442":5268,"4441":5269,"4427":5270,"8566":5271,"asd":5272,"asln":5273,"aszx":5274,"imx":5275,"2545":5276,"2595":5277,"Ġwpql":5278,"3333":5279,"dfqa":5280,"674":5281,"uip":5282,"uiwz":5283,"uipp":5284,"894":5285,"8951":5286,"azerty":5287,"lfze":5288,"142":5289,"flags":5290,"rfr":5291,"rfcl":5292,"rfgi":5293,"pioe":5294,"2953":5295,"2924":5296,"295058":5297,"6866":5298,"terns":5299,"6031":5300,"Ġgg":5301,"Ġgw":5302,"Ġgzy":5303,"9320":5304,"9357":5305,"9344":5306,"085043":5307,"8140":5308,"umii":5309,"Ġ5846":5310,"Ġ5878":5311,"766522":5312,"zqmj":5313,"inia":5314,"2177":5315,"xdad":5316,"naox":5317,"Ġxn":5318,"5996":5319,"Ġ6796":5320,"283":5321,"2820":5322,"sxgb":5323,"sxwr":5324,"sfwb":5325,"623244":5326,"927":5327,"krhe":5328,"krhj":5329,"krzu":5330,"strength":5331,"Ġ5756":5332,"429892":5333,"3440":5334,"3437":5335,"831":5336,"8349":5337,"8386":5338,"esdq":5339,"Ġ8418":5340,"wahag":5341,"gzg":5342,"6917":5343,"fzfs":5344,"qwaszx":5345,"vvdu":5346,"slider":5347,"Ġ6074":5348,"Ġ4871":5349,"linkedin":5350,"6532":5351,"snke":5352,"snpf":5353,"snxs":5354,"3816":5355,"3837":5356,"3850":5357,"3874":5358,"381939":5359,"jhro":5360,"jhfp":5361,"pfhx":5362,"ucj":5363,"patterns":5364,"byox":5365,"ijco":5366,"qlhn":5367,"svgq":5368,"358215":5369,"359677":5370,"875391":5371,"omxz":5372,"mttg":5373,"7560":5374,"dddn":5375,"bipk":5376,"qfkl":5377,"Ġ4282":5378,"458533":5379,"Ġ2164":5380,"Ġ2169":5381,"plain":5382,"ysbr":5383,"8873":5384,"Ġ6452":5385,"alp":5386,"7173":5387,"Ġ3437":5388,"skvv":5389,"skpl":5390,"cpserver":5391,"mdhk":5392,"mdhl":5393,"dpdp":5394,"272996":5395,"pyhg":5396,"408188":5397,"Ġ8027":5398,"fmum":5399,"gvtkc":5400,"xqbl":5401,"xquk":5402,"fyvo":5403,"ggc":5404,"ggac":5405,"Ġ7518":5406,"Ġzg":5407,"Ġzw":5408,"ghft":5409,"qhx":5410,"Ġyn":5411,"Ġyir":5412,"123123123":5413,"Ġoc":5414,"irs":5415,"sgpz":5416,"tmpub":5417,"tmpujr":5418,"tmpuvox":5419,"asdfghjkl":5420,"gojr":5421,"ocyn":5422,"frxk":5423,"Ġpq":5424,"Ġpvb":5425,"Ġks":5426,"Ġkv":5427,"Ġ2212":5428,"Ġ2219":5429,"jobpost":5430,"nxsk":5431,"Ġ5313":5432,"htdos":5433,"openstreetlayers":5434,"Ġiif":5435,"feit":5436,"282149":5437,"Ġlq":5438,"Ġlhqy":5439,"xyhw":5440,"Ġcb":5441,"3125":5442,"bcue":5443,"cfqk":5444,"cfjf":5445,"646174612":5446,"502563":5447,"bljb":5448,"Ġfri":5449,"ï¿½ï¿½ï¿½ï¿½/ï¿½ï¿½ï¿½ï¿½/ï¿½ï¿½ï¿½ï¿½/ï¿½ï¿½ï¿½ï¿½/{":5450,"ï¿½ï¿½ï¿½ï¿½\\ï¿½ï¿½ï¿½ï¿½\\ï¿½ï¿½ï¿½ï¿½\\ï¿½ï¿½ï¿½ï¿½\\{":5451,"bqns":5452,"yzth":5453,"yzcx":5454,"yzmq":5455,"Ġ7686":5456,"ukmj":5457,"001515":5458,"axfo":5459,"499391":5460,"mjfu":5461,"hncn":5462,"hnhi":5463,"njzq":5464,"bkgv":5465,"Ġ8317":5466,"wbtk":5467,"gwda":5468,"nyue":5469,"029637":5470,"bxiv":5471,"3434":5472,"Ġsb":5473,"Ġ9344":5474,"Ġ8720":5475,"Ġ8748":5476,"888888":5477,"4771":5478,"4775":5479,"=ï¿½ï¿½ï¿½ï¿½/ï¿½ï¿½ï¿½ï¿½/ï¿½ï¿½ï¿½ï¿½/ï¿½ï¿½ï¿½ï¿½/ï¿½ï¿½ï¿½ï¿½/ï¿½ï¿½ï¿½ï¿½/ï¿½ï¿½ï¿½ï¿½/ï¿½ï¿½ï¿½ï¿½/{":5480,"=ï¿½ï¿½ï¿½ï¿½\\ï¿½ï¿½ï¿½ï¿½\\ï¿½ï¿½ï¿½ï¿½\\ï¿½ï¿½ï¿½ï¿½\\ï¿½ï¿½ï¿½ï¿½\\ï¿½ï¿½ï¿½ï¿½\\ï¿½ï¿½ï¿½ï¿½\\ï¿½ï¿½ï¿½ï¿½\\{":5481,"hlbgw":5482,"jtk":5483,"jtwq":5484,"olvz":5485,"olmt":5486,"zwnoby":5487,"duplicat":5488,"jdgg":5489,"yvmy":5490,"yvkr":5491,"960768":5492,"fqrg":5493,"jfng":5494,"nlxy":5495,"oypl":5496,"oyds":5497,"256536":5498,"339430":5499,"8733":5500,"9771":5501,"hmpa":5502,"lwha":5503,"woux":5504,"xoiw":5505,"tmpukggz":5506,"tmpukspl":5507,"tmpuksms":5508,"dxszp":5509,"jgxm":5510,"oqxb":5511,"uvsa":5512,"ĠĠĠĠĠĠĠĠĠĠĠĠĠĠĠĠĠĠĠĠĠĠĠĠĠĠĠĠĠĠĠĠĠĠĠĠĠĠĠĠĠĠĠĠĠĠĠĠĠĠĠĠĠĠĠĠĠĠĠĠĠĠĠĠĠĠĠĠĠĠĠĠĠĠĠĠĠĠĠĠĠĠĠĠĠĠĠĠĠĠĠĠĠĠĠĠĠĠĠĠĠĠĠĠĠĠĠĠĠĠĠĠĠĠĠĠĠĠĠĠĠĠĠĠĠĠĠĠĠĠĠĠĠĠĠĠĠĠĠĠĠĠĠĠĠĠĠĠĠĠĠĠĠĠĠĠĠĠĠĠĠĠĠĠĠĠĠĠĠĠĠĠĠĠĠĠĠĠĠĠĠĠĠĠĠĠĠĠĠĠĠĠĠĠĠĠĠĠĠĠĠĠĠĠĠĠĠĠĠĠĠĠĠĠĠĠĠĠĠĠĠĠĠĠĠĠĠĠĠĠĠĠĠĠĠĠĠĠĠĠĠĠĠĠĠĠĠĠĠĠĠĠĠĠĠĠ":5513,"9471":5514,"gnyu":5515,"gnfj":5516,"wjcu":5517,"wjfo":5518,"yrja":5519,"ifcj":5520,"judx":5521,"mvop":5522,"Ġ8658":5523,"xjtz":5524,"3783":5525,"gpmx":5526,"slas":5527,"zbkf":5528,"=ï¿½ï¿½ï¿½ï¿½/ï¿½ï¿½ï¿½ï¿½/{":5529,"=ï¿½ï¿½ï¿½ï¿½/ï¿½ï¿½ï¿½ï¿½/ï¿½ï¿½ï¿½ï¿½/{":5530,"emoj":5531,"kosa":5532,"kvow":5533,"xija":5534,"816154":5535,"ljcy":5536,"oals":5537,"qegs":5538,"yfkn":5539,"zhqz":5540,"537614":5541,"221978":5542,"789456123":5543,"=ï¿½ï¿½ï¿½ï¿½/ï¿½ï¿½ï¿½ï¿½/ï¿½ï¿½ï¿½ï¿½/ï¿½ï¿½ï¿½ï¿½/ï¿½ï¿½ï¿½ï¿½/ï¿½ï¿½ï¿½ï¿½/{":5544,"=ï¿½ï¿½ï¿½ï¿½\\ï¿½ï¿½ï¿½ï¿½\\ï¿½ï¿½ï¿½ï¿½\\ï¿½ï¿½ï¿½ï¿½\\ï¿½ï¿½ï¿½ï¿½\\ï¿½ï¿½ï¿½ï¿½\\ï¿½ï¿½ï¿½ï¿½\\{":5545,"2196":5546,"279118":5547,"6503":5548,"bzzx":5549,"eubu":5550,"ghwx":5551,"nukg":5552,"wupj":5553,"xjbdow":5554,"xwhx":5555,"yumc":5556,"zisx":5557,"Ġenim":5558,"Ġmhvp":5559,"491652":5560,"animation":5561,"309904":5562,"ccuu":5563,"jevr":5564,"lzbq":5565,"uzsahjz":5566,"vkor":5567,"wums":5568,"xhlf":5569,"Ġceyt":5570,"reusable":5571,"Ġ3783":5572,"Ġ3338":5573,"975419":5574,"1720534810":5575,"594149":5576,"958928":5577,"211497":5578,"618879":5579,"711437":5580,"810683":5581,"aitk":5582,"aaya":5583,"asia":5584,"awea":5585,"async":5586,"bwvg":5587,"bwwb":5588,"bwik":5589,"crossha":5590,"cwph":5591,"dzzh":5592,"euee":5593,"gazo":5594,"gtqd":5595,"hitv":5596,"highlight":5597,"huwv":5598,"icem":5599,"iivk":5600,"jndc":5601,"kjbj":5602,"kcdt":5603,"kpib":5604,"kjof":5605,"kghq":5606,"knjf":5607,"knhz":5608,"lzdgvtkc":5609,"lqkb":5610,"nsus":5611,"number":5612,"nmhi":5613,"nyzi":5614,"ovyo":5615,"obfu":5616,"ofzl":5617,"oijx":5618,"ozpm":5619,"pllk":5620,"puez":5621,"player":5622,"plvn":5623,"pdjf":5624,"quicktags":5625,"qhyh":5626,"qhwv":5627,"qswo":5628,"sndj":5629,"twav":5630,"tvnr":5631,"uuai":5632,"vbaf":5633,"vuwydjbwq":5634,"wosb":5635,"xscg":5636,"xvgd":5637,"xgik":5638,"ymld":5639,"zctg":5640,"zyez":5641,"zkqm":5642,"zjfv":5643,"20131107":5644,"573657":5645,"loadinganimation":5646,"Ġ2938":5647,"995181":5648,"999740":5649,"994398":5650,"daemon":5651,"bootstrap":5652,"159060":5653,"lsaezp":5654,"243426":5655,"905888":5656,"430871":5657,"tmpuhimx":5658,"Ġgzyh":5659,"wahagc":5660,"Ġyirw":5661,"tmpujrbu":5662,"tmpuvoxa":5663,"hlbgwgzg":5664,"zwnobyanu":5665,"duplicator":5666,"uzsahjzsgpz":5667,"crosshairs":5668,"lzdgvtkcrfr":5669,"vuwydjbwqnxsk":5670,"012":5671,"030":5672,"089":5673,"060":5674,"1475":5675,"1498":5676,"1779":5677,"270":5678,"281":5679,"2360":5680,"2379":5681,"2408":5682,"2564":5683,"2493":5684,"2393":5685,"2772":5686,"2769":5687,"355":5688,"385":5689,"3540":5690,"3535":5691,"3527":5692,"3997":5693,"3132":5694,"3475":5695,"3529":5696,"3584":5697,"3543":5698,"473":5699,"4103":5700,"4731":5701,"4194":5702,"4176":5703,"4803":5704,"4491":5705,"4227":5706,"5773":5707,"5532":5708,"677":5709,"622":5710,"698":5711,"618":5712,"6006":5713,"6997":5714,"6982":5715,"6369":5716,"6414":5717,"6715":5718,"6482":5719,"780":5720,"7558":5721,"7544":5722,"7982":5723,"7529":5724,"7539":5725,"8716":5726,"876":5727,"833":5728,"8321":5729,"8103":5730,"8663":5731,"8825":5732,"8727":5733,"8583":5734,"8404":5735,"8831":5736,"9107":5737,"950":5738,"9119":5739,"9006":5740,"9559":5741,"9533":5742,"9499":5743,"9362":5744,"9327":5745,"9309":5746,"9393":5747,"9965":5748,"9537":5749,"=..\\{":5750,"afo":5751,"blue":5752,"bmi":5753,"bone":5754,"bpun":5755,"cil":5756,"cvp":5757,"clock":5758,"cqb":5759,"dt":5760,"dam":5761,"ei":5762,"eye":5763,"fv":5764,"fzq":5765,"fxm":5766,"gto":5767,"gmail":5768,"gtid":5769,"hu":5770,"hms":5771,"huo":5772,"iri":5773,"kp":5774,"kjc":5775,"lder":5776,"mz":5777,"mpg":5778,"nm":5779,"nter":5780,"oi":5781,"qi":5782,"qv":5783,"rd":5784,"rv":5785,"rx":5786,"rsr":5787,"rgj":5788,"sb":5789,"swd":5790,"tj":5791,"tar":5792,"uq":5793,"uct":5794,"uwp":5795,"uxd":5796,"vbf":5797,"vlc":5798,"vxq":5799,"wrh":5800,"xf":5801,"xon":5802,"yh":5803,"yy":5804,"yfy":5805,"zag":5806,"zsu":5807,"zzq":5808,"zdr":5809,"Ġca":5810,"Ġnd":5811,"Ġta":5812,"Ġrp":5813,"Ġer":5814,"Ġdo":5815,"Ġcm":5816,"Ġcu":5817,"Ġye":5818,"Ġsm":5819,"Ġua":5820,"Ġvi":5821,"Ġlg":5822,"Ġim":5823,"Ġic":5824,"Ġpk":5825,"Ġop":5826,"Ġsx":5827,"Ġhg":5828,"Ġfu":5829,"Ġ7581":5830,"Ġjh":5831,"Ġmp":5832,"Ġox":5833,"Ġom":5834,"Ġmt":5835,"Ġjm":5836,"Ġvj":5837,"Ġjo":5838,"Ġzy":5839,"Ġfs":5840,"Ġfy":5841,"Ġip":5842,"Ġmm":5843,"Ġqwe":5844,"Ġcy":5845,"Ġmj":5846,"Ġpolicy":5847,"Ġ5728":5848,"Ġ7576":5849,"capk":5850,"inte":5851,"onents":5852,"ctq":5853,"1147":5854,"revi":5855,"wpuser":5856,"Ġag":5857,"Ġayx":5858,"Ġavlc":5859,"ions":5860,"1020":5861,"1047":5862,"1090":5863,"poi":5864,"tah":5865,"loc":5866,"tabs":5867,"774":5868,"775":5869,"7747":5870,"7762":5871,"ifub":5872,"Ġ1093":5873,"mywordpress":5874,"205":5875,"209":5876,"2029":5877,"2093":5878,"2074":5879,"2088":5880,"4643":5881,"4662":5882,"4688":5883,"7045":5884,"7099":5885,"7058":5886,"7035":5887,"705916":5888,"Ġwi":5889,"Ġwue":5890,"Ġwgo":5891,"Ġwwn":5892,"Ġwafo":5893,"Ġwdam":5894,"Ġwvbf":5895,"166":5896,"1697":5897,"1667":5898,"179":5899,"1768":5900,"1792":5901,"178558":5902,"5799":5903,"5786":5904,"5734":5905,"1281":5906,"123654":5907,"Ġnh":5908,"Ġnn":5909,"195":5910,"1952":5911,"1955":5912,"1971":5913,"1992":5914,"Ġ478":5915,"Ġ4728":5916,"Ġ4326":5917,"Ġ4761":5918,"ilj":5919,"Ġ9107":5920,"Ġ9696":5921,"Ġ9119":5922,"Ġ9272":5923,"Ġ9559":5924,"Ġ9533":5925,"Ġ9499":5926,"Ġ9544":5927,"Ġ9309":5928,"Ġ9862":5929,"Ġ9468":5930,"Ġ3997":5931,"Ġ3132":5932,"Ġ3205":5933,"pagen":5934,"Ġew":5935,"urkjc":5936,"007":5937,"1130":5938,"739":5939,"7360":5940,"7364":5941,"ssions":5942,"cmh":5943,"5254":5944,"5224":5945,"5259":5946,"5295":5947,"5291":5948,"1346":5949,"1395":5950,"1369":5951,":///":5952,"361":5953,"3663":5954,"3633":5955,"3689":5956,"3659":5957,"36130":5958,"rating":5959,"Ġ624":5960,"Ġ6006":5961,"Ġ6676":5962,"baby":5963,"gez":5964,"rim":5965,"4550":5966,"454427":5967,"Ġtg":5968,"Ġtk":5969,"Ġ5532":5970,"Ġ5163":5971,"Ġ5197":5972,"4918":5973,"4959":5974,"4995":5975,"4934":5976,"4984":5977,"Ġ9947":5978,"Ġ2107":5979,"Ġ2102":5980,"Ġ2379":5981,"Ġ2634":5982,"Ġ2564":5983,"Ġ2493":5984,"Ġ2769":5985,"Ġ2829":5986,"6658":5987,"6689":5988,"6614":5989,"6692":5990,"backbone":5991,"9696":5992,"9630":5993,"9625":5994,"9659":5995,"9638":5996,"757507":5997,"807":5998,"8018":5999,"8058":6000,"8095":6001,"8027":6002,"Ġ3292":6003,"folder":6004,"9947":6005,"abcd":6006,"531":6007,"5313":6008,"5349":6009,"5339":6010,"537864":6011,"Ġ1776":6012,"Ġ1862":6013,"4755":6014,"4761":6015,"4787":6016,"2212":6017,"2286":6018,"2275":6019,"4052":6020,"4055":6021,"4021":6022,"4087":6023,"405021":6024,"9811":6025,"9810":6026,"9844":6027,"9885":6028,"9862":6029,"Ġ873":6030,"Ġ8104":6031,"Ġ8321":6032,"Ġ8103":6033,"Ġ8320":6034,"Ġ8902":6035,"Ġ8727":6036,"Ġ8001":6037,"Ġ8558":6038,"Ġ8583":6039,"484":6040,"7873":6041,"7856":6042,"7832":6043,"7824":6044,"7887":6045,"5640":6046,"5637":6047,"5577":6048,"5556":6049,"8627":6050,"7275":6051,"7233":6052,"buu":6053,"boe":6054,"5442":6055,"3270":6056,"3292":6057,"321342":6058,"375":6059,"376":6060,"3798":6061,"1061":6062,"7584":6063,"7507":6064,"5159":6065,"5184":6066,"wes":6067,"dbc":6068,"1206":6069,"110413":6070,"yeq":6071,"okhs":6072,"1570":6073,"1003":6074,"823":6075,"8231":6076,"smile":6077,"1813":6078,"1854":6079,"1875":6080,"1844":6081,"Ġbb":6082,"Ġbe":6083,"Ġbk":6084,"Ġbxo":6085,"webfont":6086,"9798":6087,"6349":6088,"6347":6089,"5026":6090,"764":6091,"7611":6092,"7600":6093,"7699":6094,"7671":6095,"7604":6096,"sav":6097,"267":6098,"2640":6099,"2676":6100,"Ġ9885":6101,"Ġdk":6102,"Ġdw":6103,"Ġdyfy":6104,"907":6105,"9047":6106,"9038":6107,"lgy":6108,"lgnh":6109,"1231":6110,"4383":6111,"5880":6112,"5814":6113,"58798":6114,"success":6115,"siteeditor":6116,"7062":6117,"Ġ4710":6118,"Ġ4780":6119,"noti":6120,"Ġ7960":6121,"Ġ7805":6122,"304":6123,"3094":6124,"3952":6125,"397792":6126,"4180":6127,"4143":6128,"tmpuc":6129,"tmpux":6130,"tmpurkjc":6131,"xtlb":6132,"acy":6133,"6510":6134,"6592":6135,"655376":6136,"658231":6137,"pux":6138,"puku":6139,"Ġ5477":6140,"6749":6141,"6796":6142,"6755":6143,"674755":6144,"893":6145,"8945":6146,"8978":6147,"8958":6148,"1721":6149,"17288":6150,"2936":6151,"2966":6152,"6845":6153,"Ġ5011":6154,"Ġ5094":6155,"606":6156,"6056":6157,"Ġgzzy":6158,"editors":6159,"9386":6160,"9371":6161,"Ġ5259":6162,"Ġ5295":6163,"Ġ5235":6164,"7437":6165,"7426":6166,"744643":6167,"2352":6168,"238566":6169,"8180":6170,"Ġ5814":6171,"Ġ5548":6172,"Ġ5556":6173,"drnx":6174,"xdhuo":6175,"4483":6176,"nav":6177,"ngb":6178,"Ġxh":6179,"Ġxq":6180,"Ġxsw":6181,"Ġxmpg":6182,"1179":6183,"5943":6184,"59437":6185,"9519":6186,"2857":6187,"2813":6188,"2840":6189,"2830":6190,"eea":6191,"opj":6192,"6282":6193,"6239":6194,"621952":6195,"9219":6196,"9272":6197,"927713":6198,"618058":6199,"Ġ3857":6200,"Ġ3874":6201,"Ġ5734":6202,"427":6203,"7943":6204,"3436":6205,"3443":6206,"347747":6207,"mik":6208,"missions":6209,"838311":6210,"038":6211,"esvf":6212,"gjn":6213,"gjp":6214,"ltr":6215,"9141":6216,"hgh":6217,"fzb":6218,"qwer":6219,"mary":6220,"47447":6221,"sly":6222,"wqa":6223,"Ġ4916":6224,"Ġ4918":6225,"8473":6226,"snrd":6227,"rzs":6228,"rzz":6229,"3857":6230,"3898":6231,"3881":6232,"2720":6233,"2796":6234,"275234":6235,"jhw":6236,"Ġ1697":6237,"\");(":6238,"Ġ7320":6239,"whm":6240,"white":6241,"Ġrj":6242,"Ġrr":6243,"Ġrci":6244,"Ġrwes":6245,"Ġ5916":6246,"Ġ5996":6247,"Ġ5943":6248,"Ġ6940":6249,"shot":6250,"3547":6251,"8748":6252,"8795":6253,"Ġ2352":6254,"jmw":6255,"qfk":6256,"40625":6257,"joqd":6258,"9452":6259,"9449":6260,"qak":6261,"permissions":6262,"8815":6263,"Ġ2070":6264,"Ġ2029":6265,"qka":6266,"screenshot":6267,"Ġ2640":6268,"Ġ2830":6269,"Ġ2549":6270,"Ġ2596":6271,"Ġ8018":6272,"Ġ8021":6273,"models":6274,"klr":6275,"ggable":6276,"generation":6277,"izcy":6278,"izxtlb":6279,"8785":6280,"Ġ7584":6281,"Ġze":6282,"Ġzj":6283,"Ġzz":6284,"pencil":6285,"Ġ9266":6286,"Ġyj":6287,"Ġyv":6288,"Ġycvp":6289,"Ġywrh":6290,"Ġydbc":6291,"Ġysav":6292,"Ġywhm":6293,"Ġ1955":6294,"Ġ1906":6295,"547198":6296,"Ġovxq":6297,"samsun":6298,"Ġ1813":6299,"Ġ1882":6300,"eyw":6301,"mouse":6302,"330416":6303,"archive":6304,"tmpubob":6305,"tmpudrnx":6306,"tmpujoqd":6307,"233876":6308,"primary":6309,"Ġ4984":6310,"draggable":6311,"Ġpqak":6312,"authors":6313,"5466":6314,"546281":6315,"Ġkm":6316,"Ġkjmw":6317,"Ġqb":6318,"Ġqe":6319,"Ġqhgh":6320,"Ġqrzs":6321,"Ġqjhw":6322,"Ġud":6323,"Ġug":6324,"Ġuo":6325,"Ġutah":6326,"Ġuqka":6327,"Ġhb":6328,"Ġ9045":6329,"Ġian":6330,"Ġiyt":6331,"2829":6332,"Ġjdp":6333,"Ġjwqa":6334,"Ġlb":6335,"Ġljtk":6336,"174119":6337,"Ġvt":6338,"Ġcsly":6339,"bcca":6340,"Ġ7699":6341,"Ġ7604":6342,"096664":6343,"eodi":6344,"Ġ7762":6345,"Ġ7896":6346,"Ġ7824":6347,"bkij":6348,"girl":6349,"hkm":6350,"Ġ6845":6351,"Ġ7072":6352,"menus":6353,"components":6354,"592573":6355,"88888888":6356,"=ï¿½ï¿½ï¿½ï¿½/ï¿½ï¿½ï¿½ï¿½/ï¿½ï¿½ï¿½ï¿½/ï¿½ï¿½ï¿½ï¿½/ï¿½ï¿½ï¿½ï¿½/{":6357,"=ï¿½ï¿½ï¿½ï¿½\\ï¿½ï¿½ï¿½ï¿½\\ï¿½ï¿½ï¿½ï¿½\\ï¿½ï¿½ï¿½ï¿½\\ï¿½ï¿½ï¿½ï¿½\\{":6358,"Ġmz":6359,"509291":6360,"uwg":6361,"Ġ7290":6362,"Ġ7262":6363,"hmc":6364,"mkj":6365,"Ġ9624":6366,"dxh":6367,"Ġ9452":6368,"Ġ9449":6369,"62747447":6370,"248262":6371,"798223":6372,"798622":6373,"8305":6374,"9190":6375,"9193":6376,"9197":6377,"barrating":6378,"Ġkeih":6379,"Ġkehr":6380,"Ġ6692":6381,"550166":6382,"5163":6383,"Ġmovf":6384,"Ġ9243":6385,"9905":6386,"ibs":6387,"Ġldnm":6388,"125128":6389,"Ġlisting":6390,"Ġoocl":6391,"Ġkxeo":6392,"2551":6393,"447217":6394,"emoji":6395,"kozsu":6396,"Ġvguo":6397,"Ġvglm":6398,"Ġ8305":6399,"Ġ7163":6400,"Ġ7164":6401,"Ġtbhy":6402,"canton":6403,"269964":6404,"mudlogd":6405,"=ï¿½ï¿½ï¿½ï¿½/ï¿½ï¿½ï¿½ï¿½/ï¿½ï¿½ï¿½ï¿½/ï¿½ï¿½ï¿½ï¿½/ï¿½ï¿½ï¿½ï¿½/ï¿½ï¿½ï¿½ï¿½/ï¿½ï¿½ï¿½ï¿½/{":6406,"=ï¿½ï¿½ï¿½ï¿½\\ï¿½ï¿½ï¿½ï¿½\\ï¿½ï¿½ï¿½ï¿½\\ï¿½ï¿½ï¿½ï¿½\\ï¿½ï¿½ï¿½ï¿½\\ï¿½ï¿½ï¿½ï¿½\\{":6407,"2164":6408,"phone":6409,"Ġ7186":6410,"Ġzasm":6411,"Ġqawy":6412,"Ġigxc":6413,"735491":6414,"999999":6415,"Ġ8141":6416,"323118":6417,"Ġozhb":6418,"Ġcjur":6419,"852117":6420,"=ï¿½ï¿½ï¿½ï¿½\\ï¿½ï¿½ï¿½ï¿½\\{":6421,"Ġssaz":6422,"Ġrfvc":6423,"Ġqwih":6424,"Ġyolw":6425,"Ġmudq":6426,"198602":6427,"52427045":6428,"482343":6429,"Ġzgmk":6430,"Ġqswz":6431,"253352":6432,"254429":6433,"7202":6434,"8661":6435,"jgsi":6436,"Ġpazk":6437,"Ġuewa":6438,"Ġfcyg":6439,"Ġklhp":6440,"Ġeypz":6441,"Ġtnvj":6442,"Ġdvdv":6443,"909296":6444,"254520":6445,"Ġgwnj":6446,"381665":6447,"Ġzgdc":6448,"Ġocsf":6449,"Ġpvbl":6450,"Ġsbce":6451,"012496":6452,"030591":6453,"089504":6454,"060409":6455,"358446":6456,"6985":6457,"780945":6458,"752914":6459,"hmsw":6460,"iris":6461,"target":6462,"Ġdoji":6463,"Ġicfc":6464,"Ġhgmn":6465,"Ġfule":6466,"Ġjhhb":6467,"Ġoxuc":6468,"Ġipdy":6469,"Ġqwec":6470,"revisions":6471,"Ġayxh":6472,"ifubn":6473,"208834":6474,"Ġwuea":6475,"Ġwgog":6476,"Ġwwnb":6477,"179215":6478,"pagenow":6479,"361309":6480,"babygirl":6481,"5159715":6482,"Ġbxob":6483,"notices":6484,"tmpucilj":6485,"tmpuxeyw":6486,"172888":6487,"Ġxswn":6488,"59437653":6489,"Ġrcix":6490,"samsung":6491,"tmpubobs":6492,"013":6493,"146":6494,"151":6495,"1474":6496,"1497":6497,"1776":6498,"1559":6499,"1564":6500,"1578":6501,"1802":6502,"1558":6503,"1456":6504,"1401":6505,"1541":6506,"1460":6507,"1514":6508,"249":6509,"2110":6510,"2100":6511,"2117":6512,"2450":6513,"2127":6514,"2527":6515,"2559":6516,"2525":6517,"2502":6518,"2770":6519,"2982":6520,"2194":6521,"2805":6522,"2575":6523,"2498":6524,"2391":6525,"2779":6526,"2137":6527,"2491":6528,"2506":6529,"2574":6530,"2537":6531,"2185":6532,"2704":6533,"2323":6534,"2761":6535,"2136":6536,"2992":6537,"2909":6538,"2142":6539,"316":6540,"3171":6541,"3572":6542,"340":6543,"356":6544,"3123":6545,"3222":6546,"3709":6547,"3867":6548,"3505":6549,"3001":6550,"3789":6551,"3721":6552,"3459":6553,"3509":6554,"3369":6555,"3414":6556,"3715":6557,"3482":6558,"3539":6559,"3777":6560,"3700":6561,"3895":6562,"3987":6563,"3179":6564,"4192":6565,"4101":6566,"4572":6567,"4107":6568,"4706":6569,"4115":6570,"4321":6571,"4494":6572,"4284":6573,"4802":6574,"4327":6575,"4493":6576,"4364":6577,"4125":6578,"4703":6579,"4735":6580,"4700":6581,"4283":6582,"566":6583,"596":6584,"5107":6585,"5123":6586,"5109":6587,"5172":6588,"5450":6589,"5902":6590,"5176":6591,"5703":6592,"5860":6593,"6113":6594,"6757":6595,"655":6596,"6104":6597,"6406":6598,"6905":6599,"6103":6600,"6229":6601,"6705":6602,"6284":6603,"6001":6604,"6785":6605,"6475":6606,"6585":6607,"6125":6608,"6988":6609,"6200":6610,"6137":6611,"6185":6612,"6291":6613,"6824":6614,"6894":6615,"6007":6616,"7101":6617,"754":6618,"7100":6619,"7119":6620,"7474":6621,"7229":6622,"7521":6623,"7459":6624,"7194":6625,"7409":6626,"7199":6627,"7139":6628,"7433":6629,"812":6630,"8192":6631,"8129":6632,"854":6633,"875":6634,"8172":6635,"8119":6636,"8709":6637,"8458":6638,"8466":6639,"8001":6640,"8964":6641,"8770":6642,"8493":6643,"8967":6644,"8369":6645,"8430":6646,"8207":6647,"8414":6648,"8575":6649,"8002":6650,"8772":6651,"8325":6652,"8486":6653,"8821":6654,"8771":6655,"8366":6656,"8539":6657,"8541":6658,"8479":6659,"8191":6660,"8453":6661,"8998":6662,"8555":6663,"8488":6664,"8551":6665,"8442":6666,"916":6667,"9757":6668,"926":6669,"939":6670,"9000":6671,"933":6672,"9540":6673,"9360":6674,"9497":6675,"9478":6676,"9467":6677,"9660":6678,"9333":6679,"9001":6680,"9802":6681,"9485":6682,"9326":6683,"9509":6684,"9664":6685,"9404":6686,"9486":6687,"9782":6688,"9434":6689,"9496":6690,"9433":6691,"9591":6692,"9751":6693,"9135":6694,"9489":6695,"9329":6696,"9209":6697,"=..ï¿½ï¿½{":6698,"=ï¿½ï¿½ï¿½ï¿½ï¿½ï¿½{":6699,"=&_=":6700,"aj":6701,"aq":6702,"aw":6703,"aer":6704,"asm":6705,"ajj":6706,"akv":6707,"ahoq":6708,"bth":6709,"bla":6710,"bfb":6711,"bmt":6712,"bkq":6713,"bpy":6714,"bny":6715,"cj":6716,"cq":6717,"cle":6718,"clu":6719,"cij":6720,"cjz":6721,"cir":6722,"cvvq":6723,"cwmv":6724,"crim":6725,"cbuu":6726,"dw":6727,"dba":6728,"dge":6729,"dme":6730,"dzy":6731,"dgh":6732,"dggc":6733,"ek":6734,"ew":6735,"ewp":6736,"eva":6737,"ehy":6738,"eiq":6739,"eal":6740,"eqbq":6741,"ecae":6742,"euip":6743,"fh":6744,"fk":6745,"flu":6746,"fcu":6747,"fve":6748,"fdb":6749,"fvg":6750,"fzt":6751,"fng":6752,"fsf":6753,"fhg":6754,"flw":6755,"feea":6756,"fhkm":6757,"ga":6758,"gf":6759,"gy":6760,"ghp":6761,"gap":6762,"gdi":6763,"grf":6764,"gkey":6765,"gfu":6766,"gbm":6767,"gpy":6768,"gux":6769,"ggv":6770,"gfr":6771,"gyim":6772,"gcar":6773,"gacy":6774,"gklr":6775,"hz":6776,"hma":6777,"hue":6778,"hfo":6779,"hum":6780,"hxd":6781,"hji":6782,"hih":6783,"hki":6784,"hxb":6785,"hnx":6786,"hxz":6787,"hmq":6788,"hkqj":6789,"hgez":6790,"hlgy":6791,"ik":6792,"iu":6793,"ill":6794,"iun":6795,"iaz":6796,"irf":6797,"iwh":6798,"ioq":6799,"iib":6800,"iacv":6801,"jil":6802,"jic":6803,"jzt":6804,"jvp":6805,"jdj":6806,"juip":6807,"km":6808,"kw":6809,"kx":6810,"ket":6811,"kch":6812,"ksr":6813,"ktm":6814,"klf":6815,"kvb":6816,"kut":6817,"kpk":6818,"khy":6819,"kxl":6820,"kdc":6821,"kdh":6822,"kalp":6823,"kpux":6824,"lma":6825,"lpo":6826,"lad":6827,"lpe":6828,"lqz":6829,"lza":6830,"lrl":6831,"ljo":6832,"lbb":6833,"lpz":6834,"lqo":6835,"lhma":6836,"lkdh":6837,"mce":6838,"mfo":6839,"mso":6840,"mvv":6841,"mzd":6842,"msl":6843,"mcn":6844,"mbb":6845,"mgd":6846,"mbl":6847,"mflu":6848,"nb":6849,"nr":6850,"nw":6851,"nay":6852,"nve":6853,"nls":6854,"nile":6855,"nces":6856,"naz":6857,"nsf":6858,"nem":6859,"nrl":6860,"nih":6861,"nbi":6862,"nbl":6863,"njk":6864,"ncmh":6865,"nmkj":6866,"oh":6867,"oet":6868,"oab":6869,"ots":6870,"oui":6871,"odr":6872,"ooht":6873,"pc":6874,"pj":6875,"pon":6876,"pdo":6877,"pfo":6878,"prefere":6879,"pqa":6880,"pxk":6881,"qm":6882,"qn":6883,"qs":6884,"qse":6885,"qon":6886,"qil":6887,"qlg":6888,"qcss":6889,"qop":6890,"qwc":6891,"qhg":6892,"qbb":6893,"qig":6894,"qnj":6895,"qbr":6896,"qez":6897,"qvl":6898,"qmzp":6899,"quwg":6900,"rwd":6901,"rupp":6902,"rrm":6903,"rybf":6904,"rji":6905,"rkf":6906,"rvj":6907,"rnj":6908,"rswd":6909,"ryeq":6910,"rqfk":6911,"rbfb":6912,"sca":6913,"sdb":6914,"sjq":6915,"sgj":6916,"sbi":6917,"sjy":6918,"tc":6919,"tu":6920,"tz":6921,"tta":6922,"trp":6923,"tww":6924,"tve":6925,"tcd":6926,"tnp":6927,"tgh":6928,"tjw":6929,"txz":6930,"tnl":6931,"tlw":6932,"tuv":6933,"uch":6934,"uim":6935,"ucvb":6936,"uvf":6937,"uzw":6938,"uzb":6939,"udme":6940,"uggv":6941,"vet":6942,"vile":6943,"vwh":6944,"vngb":6945,"vtnl":6946,"wl":6947,"wv":6948,"wed":6949,"wep":6950,"wok":6951,"wzx":6952,"wje":6953,"wuk":6954,"wkz":6955,"wgjp":6956,"xja":6957,"xck":6958,"xie":6959,"xsp":6960,"xtm":6961,"xbu":6962,"xsa":6963,"xef":6964,"xzq":6965,"xyu":6966,"xux":6967,"xaor":6968,"xfzb":6969,"ywp":6970,"yae":6971,"ylg":6972,"yih":6973,"ydp":6974,"yxk":6975,"yxu":6976,"yvn":6977,"yxz":6978,"ymj":6979,"zm":6980,"zn":6981,"zpo":6982,"zmy":6983,"zhe":6984,"zsi":6985,"zwe":6986,"zlg":6987,"zfs":6988,"zsry":6989,"zkl":6990,"zbb":6991,"zsg":6992,"zgo":6993,"zwu":6994,"znj":6995,"zhb":6996,"zrg":6997,"zsd":6998,"zopj":6999,"Ġle":7000,"Ġar":7001,"Ġch":7002,"Ġho":7003,"Ġit":7004,"Ġgs":7005,"Ġif":7006,"Ġml":7007,"Ġur":7008,"Ġck":7009,"Ġra":7010,"Ġri":7011,"Ġdi":7012,"Ġjs":7013,"Ġsq":7014,"Ġsh":7015,"Ġsi":7016,"Ġdb":7017,"Ġ122":7018,"Ġfb":7019,"Ġ7670":7020,"Ġpu":7021,"Ġlf":7022,"Ġln":7023,"Ġzq":7024,"Ġxd":7025,"Ġkr":7026,"Ġrl":7027,"Ġvv":7028,"Ġcc":7029,"Ġrz":7030,"Ġflo":7031,"Ġhy":7032,"Ġvz":7033,"Ġund":7034,"Ġij":7035,"Ġql":7036,"Ġ7054":7037,"Ġqnd":7038,"Ġvw":7039,"Ġys":7040,"Ġcw":7041,"Ġft":7042,"Ġpy":7043,"Ġjn":7044,"Ġupn":7045,"Ġfg":7046,"Ġub":7047,"Ġcs":7048,"Ġtpd":7049,"Ġjw":7050,"Ġ7859":7051,"Ġ1315":7052,"Ġ1231":7053,"etsl":7054,"legacy":7055,"amxl":7056,"stp":7057,"stmn":7058,"cazt":7059,"roa":7060,"rot":7061,"onza":7062,"onuj":7063,"onry":7064,"ctjt":7065,"ctjr":7066,"ctyp":7067,"1177":7068,"1120":7069,"1117":7070,"1171":7071,"1190":7072,"ndex":7073,"chkg":7074,"wpo":7075,"wpat":7076,"vaq":7077,"Ġax":7078,"Ġate":7079,"Ġaev":7080,"Ġacu":7081,"Ġape":7082,"Ġagz":7083,"Ġaedk":7084,"Ġakz":7085,"Ġabkq":7086,"Ġahxd":7087,"Ġaioq":7088,"Ġalrl":7089,"mazj":7090,"1019":7091,"1032":7092,"1037":7093,"1089":7094,"1083":7095,"1038":7096,"orh":7097,"orld":7098,"itq":7099,"itot":7100,"itsz":7101,"Ġandm":7102,"tag":7103,"tact":7104,"taun":7105,"taln":7106,"tavl":7107,"lozx":7108,"7780":7109,"7751":7110,"7715":7111,"7776":7112,"7729":7113,"7761":7114,"7704":7115,"Ġ1177":7116,"Ġ1130":7117,"evn":7118,"contact":7119,"fiyw":7120,"2052":7121,"2036":7122,"2037":7123,"2043":7124,"2039":7125,"2085":7126,"2033":7127,"209254":7128,"463":7129,"4657":7130,"4663":7131,"4644":7132,"4633":7133,"4628":7134,"4692":7135,"701":7136,"708":7137,"7017":7138,"7048":7139,"7090":7140,"7039":7141,"7075706":7142,"7002":7143,"Ġwk":7144,"Ġww":7145,"Ġwx":7146,"Ġwex":7147,"Ġwlf":7148,"Ġwqw":7149,"Ġwfy":7150,"Ġwjk":7151,"Ġwol":7152,"Ġwka":7153,"Ġwsrv":7154,"Ġwita":7155,"Ġwlqo":7156,"Ġwnbi":7157,"Ġworld":7158,"cojq":7159,"dehy":7160,"1649":7161,"1699":7162,"1647":7163,"1659":7164,"1694":7165,"1601":7166,"heso":7167,"Ġasdo":7168,"rpz":7169,"175":7170,"1711":7171,"1752":7172,"1740":7173,"1755":7174,"1767":7175,"1769":7176,"mlss":7177,"mlcf":7178,"579":7179,"5757":7180,"5756":7181,"5758":7182,"5741":7183,"5765":7184,"5733":7185,"5735":7186,"1271":7187,"1241":7188,"12109":7189,"1264":7190,"Ġnj":7191,"Ġnq":7192,"Ġnw":7193,"Ġnas":7194,"Ġnise":7195,"Ġnxur":7196,"Ġnrh":7197,"Ġngp":7198,"Ġnbdp":7199,"Ġnmzp":7200,"Ġnggc":7201,"Ġnuct":7202,"Ġnzfs":7203,"jbbk":7204,"jbdk":7205,"jbzu":7206,"tpi":7207,"tpmn":7208,"tpkz":7209,"tpxyu":7210,"196":7211,"1900":7212,"1915":7213,"1950":7214,"1944":7215,"1967":7216,"1959":7217,"1901":7218,"upfo":7219,"Ġ4101":7220,"Ġ4110":7221,"Ġ4706":7222,"Ġ433":7223,"Ġ429":7224,"Ġ4246":7225,"Ġ4222":7226,"Ġ4494":7227,"Ġ4979":7228,"Ġ4130":7229,"Ġ4525":7230,"Ġ4802":7231,"Ġ4327":7232,"Ġ4364":7233,"Ġ4550":7234,"Ġ4826":7235,"Ġ4479":7236,"Ġ4302":7237,"Ġ4893":7238,"6466":7239,"Ġ9113":7240,"Ġ963":7241,"Ġ9653":7242,"Ġ938":7243,"Ġ9617":7244,"Ġ9206":7245,"Ġ9360":7246,"Ġ9478":7247,"Ġ9006":7248,"Ġ9467":7249,"Ġ9438":7250,"Ġ9320":7251,"Ġ9525":7252,"Ġ9802":7253,"Ġ9362":7254,"Ġ9509":7255,"Ġ9369":7256,"Ġ9779":7257,"Ġ9404":7258,"Ġ9486":7259,"Ġ9771":7260,"Ġ9751":7261,"Ġ9135":7262,"Ġ9471":7263,"Ġ9187":7264,"Ġ9674":7265,"Ġ9775":7266,"Ġ3171":7267,"Ġ373":7268,"Ġ3572":7269,"Ġ3123":7270,"Ġ3540":7271,"Ġ3709":7272,"Ġ3406":7273,"Ġ3360":7274,"Ġ3663":7275,"Ġ3668":7276,"Ġ3533":7277,"Ġ3640":7278,"Ġ3721":7279,"Ġ3327":7280,"Ġ3509":7281,"Ġ3369":7282,"Ġ3482":7283,"Ġ3434":7284,"Ġ3895":7285,"Ġ3987":7286,"cef":7287,"cebo":7288,"1928":7289,"htr":7290,"Ġeb":7291,"Ġeq":7292,"Ġeba":7293,"Ġesc":7294,"Ġexd":7295,"Ġesn":7296,"Ġeand":7297,"Ġefy":7298,"Ġelp":7299,"Ġeacv":7300,"1680":7301,"1688":7302,"009":7303,"dovp":7304,"dooe":7305,"henq":7306,"7313":7307,"7396":7308,"7348":7309,"7386":7310,"7341":7311,"7333":7312,"7308":7313,"7387":7314,"73676":7315,"7304":7316,"735878":7317,"cmpr":7318,"5246":7319,"5270":7320,"5257":7321,"5219":7322,"5255":7323,"5276":7324,"5287":7325,"1377":7326,"1344":7327,"1385":7328,"1328":7329,"1383":7330,"touch":7331,"3640":7332,"3671":7333,"3632":7334,"3644":7335,"3668":7336,"3692":7337,"3684":7338,"3694":7339,"rasz":7340,"Ġ6116":7341,"Ġ6478":7342,"Ġ6229":7343,"Ġ6997":7344,"Ġ6528":7345,"Ġ6369":7346,"Ġ6475":7347,"Ġ6414":7348,"Ġ6715":7349,"Ġ6160":7350,"Ġ6529":7351,"Ġ6590":7352,"Ġ6200":7353,"Ġ6137":7354,"Ġ6782":7355,"Ġ6769":7356,"Ġ6901":7357,"Ġ6490":7358,"Ġ6739":7359,"Ġ6606":7360,"Ġ6038":7361,"baz":7362,"bazt":7363,"geg":7364,"rirm":7365,"451":7366,"4552":7367,"4585":7368,"4568":7369,"4531":7370,"453125":7371,"Ġtx":7372,"Ġtz":7373,"Ġtye":7374,"Ġtqh":7375,"Ġtdk":7376,"Ġttxz":7377,"Ġtstp":7378,"cusv":7379,"dile":7380,"diyl":7381,"scq":7382,"sccc":7383,"Ġ5107":7384,"Ġ5123":7385,"Ġ5109":7386,"Ġ589":7387,"Ġ5172":7388,"Ġ5652":7389,"Ġ5450":7390,"Ġ5406":7391,"Ġ5533":7392,"Ġ5528":7393,"Ġ5464":7394,"Ġ5986":7395,"Ġ5908":7396,"Ġ5984":7397,"Ġ5907":7398,"Ġ5451":7399,"4951":7400,"4943":7401,"4985":7402,"4933":7403,"4962":7404,"4903":7405,"4991":7406,"4904":7407,"493125":7408,"Ġ9949":7409,"Ġ9948":7410,"Ġ9969":7411,"Ġ9931":7412,"Ġ2100":7413,"Ġ2117":7414,"Ġ2973":7415,"Ġ2360":7416,"Ġ2130":7417,"Ġ2525":7418,"Ġ2665":7419,"Ġ2982":7420,"Ġ2393":7421,"Ġ2805":7422,"Ġ2176":7423,"Ġ2498":7424,"Ġ2391":7425,"Ġ2782":7426,"Ġ2506":7427,"Ġ2574":7428,"Ġ2366":7429,"Ġ2569":7430,"Ġ2777":7431,"Ġ2554":7432,"Ġ2694":7433,"Ġ2221":7434,"Ġ2267":7435,"662":7436,"6612":7437,"6680":7438,"6697":7439,"6665":7440,"6674":7441,"6661":7442,"6642":7443,"6634":7444,"6684":7445,"66278":7446,"9617":7447,"9612":7448,"9656":7449,"9672":7450,"9676":7451,"9626":7452,"9603":7453,"9609":7454,"ayib":7455,"8082":7456,"8026":7457,"8033":7458,"8068":7459,"8060":7460,"8081":7461,"8083":7462,"Ġ3253":7463,"Ġ3232":7464,"Ġ3251":7465,"Ġ3239":7466,"srdq":7467,"fof":7468,"fote":7469,"agrz":7470,"agjo":7471,"aggp":7472,"vesk":7473,"vezw":7474,"vefp":7475,"991":7476,"994":7477,"9900":7478,"9949":7479,"9948":7480,"9976":7481,"9921":7482,"9903":7483,"9931":7484,"dack":7485,"abk":7486,"abet":7487,"abjj":7488,"5310":7489,"5357":7490,"5347":7491,"5375":7492,"5341":7493,"5325":7494,"5329":7495,"5381":7496,"5334":7497,"5335":7498,"53584":7499,"Ġ1497":7500,"Ġ1413":7501,"Ġ1878":7502,"Ġ1528":7503,"Ġ1560":7504,"Ġ1514":7505,"Ġ1860":7506,"472":7507,"4716":7508,"4780":7509,"4718":7510,"4741":7511,"4795":7512,"2216":7513,"2248":7514,"2255":7515,"2221":7516,"2279":7517,"question":7518,"peo":7519,"403":7520,"4015":7521,"4050":7522,"4026":7523,"403694":7524,"989":7525,"9870":7526,"9813":7527,"9899":7528,"9854":7529,"9897":7530,"9863":7531,"9830":7532,"9814":7533,"9860":7534,"Ġ8129":7535,"Ġ893":7536,"Ġ8766":7537,"Ġ8663":7538,"Ġ8223":7539,"Ġ8152":7540,"Ġ8802":7541,"Ġ8770":7542,"Ġ8268":7543,"Ġ8430":7544,"Ġ8575":7545,"Ġ8990":7546,"Ġ8772":7547,"Ġ8703":7548,"Ġ8821":7549,"Ġ8571":7550,"Ġ8460":7551,"Ġ8191":7552,"Ġ8453":7553,"Ġ8998":7554,"Ġ8262":7555,"Ġ8824":7556,"Ġ8991":7557,"spk":7558,"4810":7559,"4849":7560,"4866":7561,"4871":7562,"4815":7563,"4863":7564,"4826":7565,"4839":7566,"4827":7567,"4894":7568,"4888":7569,"1318":7570,"1162":7571,"1169":7572,"788":7573,"7811":7574,"7870":7575,"7876":7576,"7823":7577,"7879":7578,"5649":7579,"5653":7580,"5682":7581,"5658":7582,"5630":7583,"5639":7584,"5602":7585,"Ġ1169":7586,"5517":7587,"5519":7588,"5552":7589,"5553":7590,"5514":7591,"5503":7592,"8617":7593,"8657":7594,"8613":7595,"8696":7596,"8658":7597,"8633":7598,"8609":7599,"86475":7600,"861680":7601,"tyco":7602,"tyan":7603,"tyir":7604,"rtd":7605,"rtwe":7606,"7182":7607,"7141":7608,"7184":7609,"sqse":7610,"sqvj":7611,"sqxz":7612,"sha":7613,"shz":7614,"share":7615,"7282":7616,"7230":7617,"7260":7618,"7259":7619,"725503":7620,"buys":7621,"bod":7622,"bofq":7623,"5477":7624,"5433":7625,"5423":7626,"5434":7627,"545262":7628,"3216":7629,"3266":7630,"3253":7631,"3232":7632,"3251":7633,"3239":7634,"3720":7635,"3712":7636,"3713":7637,"3751":7638,"3741":7639,"3762":7640,"71672":7641,"7545":7642,"7598":7643,"7583":7644,"7591":7645,"518":7646,"5148":7647,"5150":7648,"514781":7649,"kejt":7650,"1209":7651,"1104":7652,"1109":7653,"yeu":7654,"150":7655,"1586":7656,"1595":7657,"Ġ4628":7658,"Ġ4631":7659,"8280":7660,"8298":7661,"8268":7662,"8262":7663,"824206":7664,"smh":7665,"smqx":7666,"sygs":7667,"syvv":7668,"1810":7669,"1857":7670,"1878":7671,"Ġ4015":7672,"Ġ4050":7673,"Ġ4093":7674,"1041":7675,"uaxwh":7676,"uakx":7677,"lsdk":7678,"qzpn":7679,"qzbx":7680,"Ġbc":7681,"Ġbm":7682,"Ġbvs":7683,"Ġbrnj":7684,"Ġbbaz":7685,"Ġbshz":7686,"example":7687,"Ġ3957":7688,"Ġ3952":7689,"srcc":7690,"ĠĠĠ":7691,"zah":7692,"974":7693,"9752":7694,"9745":7695,"9743":7696,"9795":7697,"9762":7698,"9742":7699,"6372":7700,"6390":7701,"6388":7702,"503":7703,"5010":7704,"5066":7705,"5065":7706,"5093":7707,"5064":7708,"wmo":7709,"wmep":7710,"7620":7711,"7616":7712,"7654":7713,"7658":7714,"2446":7715,"2470":7716,"2432":7717,"2430":7718,"2423":7719,"244125":7720,"elne":7721,"cds":7722,"cdfu":7723,"2657":7724,"2699":7725,"2632":7726,"2627":7727,"2694":7728,"Ġ9897":7729,"Ġ9830":7730,"000066":7731,"Ġdm":7732,"Ġdx":7733,"Ġdqk":7734,"Ġdsk":7735,"Ġdcp":7736,"Ġdtr":7737,"Ġdxk":7738,"Ġdnt":7739,"Ġdgpy":7740,"Ġdzbb":7741,"afmr":7742,"afsb":7743,"906":7744,"9046":7745,"9054":7746,"9032":7747,"9090":7748,"9074":7749,"9081":7750,"9062":7751,"9091":7752,"9088":7753,"903436":7754,"viom":7755,"6160":7756,"lgjo":7757,"fbjj":7758,"4340":7759,"4318":7760,"4385":7761,"4381":7762,"4334":7763,"4302":7764,"5846":7765,"5819":7766,"5832":7767,"5897":7768,"5891":7769,"5838":7770,"suf":7771,"anqe":7772,"owta":7773,"owtc":7774,"Ġ4795":7775,"Ġ7118":7776,"Ġ7521":7777,"Ġ7466":7778,"Ġ7558":7779,"Ġ7194":7780,"Ġ7664":7781,"Ġ7904":7782,"Ġ7409":7783,"Ġ7199":7784,"Ġ7908":7785,"3095":7786,"3069":7787,"395":7788,"3958":7789,"3930":7790,"3941":7791,"39453125":7792,"4157":7793,"4140":7794,"tmpuaxwh":7795,"Ġ4570":7796,"4410":7797,"4417":7798,"4449":7799,"4447":7800,"4422":7801,"4440":7802,"859":7803,"6547":7804,"6548":7805,"6597":7806,"vcio":7807,"panv":7808,"imux":7809,"2511":7810,"2517":7811,"2596":7812,"Ġwpir":7813,"3349":7814,"3315":7815,"3338":7816,"3388":7817,"puh":7818,"puwl":7819,"Ġ5457":7820,"Ġ5426":7821,"6790":7822,"uiai":7823,"8920":7824,"8980":7825,"8948":7826,"8975":7827,"8941":7828,"8935":7829,"Ġ9752":7830,"Ġ9745":7831,"Ġ9743":7832,"Ġ9795":7833,"azuj":7834,"azkg":7835,"meu":7836,"mejs":7837,"meoi":7838,"icqu":7839,"1416":7840,"1448":7841,"1421":7842,"1428":7843,"17205347":7844,"qtbg":7845,"ĠĠĠĠĠĠĠ":7846,"pbdc":7847,"rfan":7848,"efef":7849,"efdc":7850,"uhja":7851,"moqs":7852,"moxie":7853,"pij":7854,"pipp":7855,"6560":7856,"6569":7857,"2912":7858,"2973":7859,"2947":7860,"2918":7861,"2930":7862,"2941":7863,"2938":7864,"684":7865,"6873":7866,"6853":7867,"6875":7868,"6851":7869,"6815":7870,"6885":7871,"6887":7872,"Ġ5010":7873,"Ġ5053":7874,"Ġ5026":7875,"Ġ5021":7876,"Ġ5064":7877,"vgtn":7878,"bff":7879,"jqbr":7880,"6020":7881,"6066":7882,"6078":7883,"6033":7884,"6074":7885,"6095":7886,"6038":7887,"Ġgb":7888,"Ġgcc":7889,"Ġghn":7890,"Ġgoj":7891,"Ġgcqb":7892,"Ġgksr":7893,"Ġghtr":7894,"Ġgpij":7895,"ecxz":7896,"9388":7897,"Ġ5219":7898,"Ġ5218":7899,"Ġ5276":7900,"Ġ5225":7901,"Ġ5242":7902,"Ġ5291":7903,"lnwp":7904,"lnpi":7905,"7443":7906,"742216":7907,"235":7908,"238":7909,"2322":7910,"2344":7911,"atgo":7912,"atbdp":7913,"8152":7914,"8145":7915,"8147":7916,"8143":7917,"umja":7918,"utvx":7919,"Ġ5857":7920,"Ġ5813":7921,"Ġ5889":7922,"Ġ5838":7923,"7662":7924,"7664":7925,"zqv":7926,"Ġ5577":7927,"Ġ5517":7928,"drgo":7929,"ztn":7930,"ztxj":7931,"Ġ6340":7932,"pksf":7933,"pkzp":7934,"pkly":7935,"pkoe":7936,"xdpi":7937,"Ġ1271":7938,"Ġ1285":7939,"4488":7940,"5405":7941,"ngqu":7942,"Ġxe":7943,"Ġxz":7944,"Ġxcat":7945,"Ġxbb":7946,"Ġxgd":7947,"Ġxgk":7948,"Ġxwup":7949,"Ġxrgj":7950,"Ġxlqz":7951,"Ġxgeg":7952,"Ġxmeu":7953,"5523":7954,"Ġ6250":7955,"Ġ6285":7956,"594":7957,"5919":7958,"5900":7959,"5966":7960,"5951":7961,"6419":7962,"6452":7963,"6418":7964,"6425":7965,"9556":7966,"956466":7967,"));(":7968,"2836":7969,"2848":7970,"2886":7971,"2897":7972,"2850":7973,"2890":7974,"2841":7975,"2885":7976,"2842":7977,"Ġ1038":7978,"rmk":7979,"Ġ1377":7980,"Ġ1372":7981,"Ġ1341":7982,"Ġ1367":7983,"Ġ1329":7984,"Ġ1361":7985,"Ġ1302":7986,"sfg":7987,"6220":7988,"6270":7989,"6249":7990,"6290":7991,"6285":7992,"9211":7993,"9277":7994,"9216":7995,"9253":7996,"9271":7997,"9290":7998,"6146":7999,"6147":8000,"1194":8001,"iaox":8002,"Ġ3898":8003,"Ġ3814":8004,"jict":8005,"jiou":8006,"usvf":8007,"uswu":8008,"Ġ5799":8009,"Ġ5798":8010,"Ġ5765":8011,"Ġ5793":8012,"Ġ5735":8013,"4282":8014,"4289":8015,"4274":8016,"42391":8017,"7946":8018,"7917":8019,"7945":8020,"7940":8021,"7942":8022,"794991":8023,"3422":8024,"3423":8025,"4209":8026,"xvrx":8027,"8317":8028,"8312":8029,"8353":8030,"gjx":8031,"gjgf":8032,"Ġ8413":8033,"haqx":8034,"ĠĠĠĠĠĠĠĠĠĠĠĠĠĠĠ":8035,"gzk":8036,"6920":8037,"6973":8038,"6922":8039,"6972":8040,"9180":8041,"9153":8042,"wcr":8043,"hgb":8044,"hgn":8045,"hgpn":8046,"hgbr":8047,"hgwo":8048,"qwhn":8049,"qwvq":8050,"rlhb":8051,"vvpl":8052,"474008":8053,"slhm":8054,"Ġ6078":8055,"Ġ6075":8056,"Ġ6063":8057,"wqq":8058,"wqtp":8059,"wqcj":8060,"Ġ4849":8061,"Ġ4866":8062,"Ġ4841":8063,"Ġ4887":8064,"Ġ4951":8065,"Ġ4950":8066,"Ġ4933":8067,"Ġ4959":8068,"zxwq":8069,"8411":8070,"8418":8071,"fuv":8072,"snli":8073,"snyb":8074,"rzbi":8075,"rzyj":8076,"3848":8077,"3814":8078,"3883":8079,"2713":8080,"2797":8081,"hykf":8082,"hygr":8083,"jhis":8084,"pfkf":8085,"pfpc":8086,"Ġ1617":8087,"Ġ1618":8088,"Ġ1624":8089,"Ġ1621":8090,"Ġ1695":8091,"Ġ1669":8092,"Ġ6190":8093,"regul":8094,"mppd":8095,"cnku":8096,"ffnu":8097,"Ġ7382":8098,"Ġ7341":8099,"Ġ7304":8100,"))))#":8101,"whhk":8102,"Ġrhd":8103,"Ġrjd":8104,"Ġrhhh":8105,"Ġrbny":8106,"Ġrhum":8107,"Ġ5640":8108,"crin":8109,"crrk":8110,"crkb":8111,"Ġ8273":8112,"Ġ8280":8113,"Ġ6973":8114,"Ġ4318":8115,"Ġ4449":8116,"Ġ4447":8117,"ijif":8118,"ijfg":8119,"kfsh":8120,"ivity":8121,"ivrh":8122,"fax":8123,"faln":8124,"facebo":8125,"qlrv":8126,"ractivity":8127,"Ġ1194":8128,"3553":8129,"oxh":8130,"oxj":8131,"oxmt":8132,"8720":8133,"8745":8134,"xlq":8135,"Ġ2336":8136,"Ġ2349":8137,"Ġ2322":8138,"omrr":8139,"6174":8140,"6176":8141,"6179":8142,"dyf":8143,"dyok":8144,"dywq":8145,"dyqm":8146,"jmvp":8147,"jmkt":8148,"kiwa":8149,"kiuu":8150,"vwjb":8151,"yoit":8152,"yoan":8153,"yozx":8154,"065726":8155,"qfvr":8156,"jlts":8157,"Ġ4270":8158,"fdin":8159,"fdsh":8160,")),'":8161,"kqg":8162,"kqkr":8163,"mhum":8164,"rudo":8165,"Ġmyrm":8166,"3604":8167,"jook":8168,"rrgz":8169,"9419":8170,"9437":8171,"9418":8172,"9443":8173,"9425":8174,"zygz":8175,"yudt":8176,"Ġ3039":8177,"Ġ3069":8178,"uuyz":8179,"ĠĠĠĠĠĠĠĠĠĠĠĠĠĠĠĠĠĠĠĠĠĠĠĠĠĠĠĠĠĠĠ":8180,"673552":8181,"cwxm":8182,"8813":8183,"8854":8184,"8876":8185,"8842":8186,"8879":8187,"clsc":8188,"4159":8189,"ftin":8190,"ftlu":8191,"Ġ4009":8192,"70757569":8193,"alph":8194,"fszt":8195,"mrxr":8196,"mrga":8197,"Ġ2016":8198,"Ġ2012":8199,"zpy":8200,"');(":8201,"muf":8202,"qkmc":8203,"qktv":8204,"zoa":8205,"Ġ2610":8206,"Ġ2619":8207,"Ġ2699":8208,"Ġ2654":8209,"Ġ2820":8210,"Ġ3423":8211,"Ġ2511":8212,"2726":8213,"monx":8214,"vpcm":8215,"jnua":8216,"jnjv":8217,"jnnw":8218,"uxf":8219,"uxfl":8220,"Ġ8070":8221,"Ġ8068":8222,"Ġ8081":8223,"Ġ8059":8224,"Ġ8083":8225,"Ġ8084":8226,"jzf":8227,"jzpg":8228,"Ġ2446":8229,"Ġ2470":8230,"Ġ2417":8231,"Ġ2432":8232,"Ġ2423":8233,"fmv":8234,"fmmc":8235,"gvh":8236,"gvzd":8237,"hwi":8238,"hwcm":8239,"hwjs":8240,"vfum":8241,"vfut":8242,"jjns":8243,"odwz":8244,"xqi":8245,"xqsq":8246,"fyep":8247,"fymd":8248,"fyrk":8249,"jytn":8250,"khld":8251,"8903":8252,"8906":8253,"8909":8254,"wzwmo":8255,"4130":8256,"4136":8257,"4139":8258,"klmx":8259,"klqn":8260,"Ġmakd":8261,"gmpt":8262,"gmqi":8263,"bbcd":8264,"ggvp":8265,"iziq":8266,"izey":8267,"npra":8268,"Ġ1549":8269,"Ġ1580":8270,"')));(":8271,"igvs":8272,"tryo":8273,"6769":8274,"Ġ7590":8275,"Ġ7583":8276,"Ġ7507":8277,"ppxq":8278,"Ġzno":8279,"Ġzboe":8280,"Ġzfdb":8281,"Ġzhxb":8282,"Ġzlma":8283,"Ġzrwd":8284,"Ġzuzw":8285,"Ġztpi":8286,"Ġzsuf":8287,"Ġzwcr":8288,"Ġzoxh":8289,"Ġzkqg":8290,"Ġzmuf":8291,"Ġzgvh":8292,"8703":8293,"Ġ9216":8294,"Ġ9239":8295,"ipch":8296,"ipbo":8297,"qhc":8298,"Ġyf":8299,"Ġyt":8300,"Ġyy":8301,"Ġyneg":8302,"Ġyfbn":8303,"Ġymik":8304,"Ġyzwu":8305,"Ġyrmk":8306,"Ġyjzf":8307,"Ġyxqi":8308,"Ġ1975":8309,"Ġ1915":8310,"Ġ1967":8311,"7055757":8312,"mmwi":8313,"mmxu":8314,"5479":8315,"xmzv":8316,"Ġoey":8317,"Ġojk":8318,"Ġosmh":8319,"Ġogjx":8320,"Ġohgn":8321,"Ġodyf":8322,"fgxf":8323,"Ġ1857":8324,"eyzn":8325,"Ġ6862":8326,"sgva":8327,"6302":8328,"tmpujk":8329,"tmpuqy":8330,"tmpujvp":8331,"tmpujbbk":8332,"rjtj":8333,"\")));(":8334,"gowd":8335,"ocvc":8336,"ocyu":8337,"privile":8338,"chqn":8339,"ĠĠĠĠĠĠĠĠĠĠĠĠĠĠĠĠĠĠĠĠĠĠĠĠĠĠĠĠĠĠĠĠĠĠĠĠĠĠĠĠĠĠĠĠĠĠĠĠĠĠĠĠĠĠĠĠĠĠĠĠĠĠĠ":8340,"Ġ4985":8341,"frit":8342,"globe":8343,"lyf":8344,"nqsz":8345,"nqyy":8346,"Ġpv":8347,"Ġpw":8348,"Ġpnx":8349,"Ġpxci":8350,"Ġpvx":8351,"Ġpcae":8352,"Ġpmso":8353,"Ġpvaq":8354,"Ġphgb":8355,"Ġpzpy":8356,"Ġpqhc":8357,"444225":8358,"5981":8359,"5986":8360,"Ġkk":8361,"Ġkz":8362,"Ġkbiz":8363,"Ġkaor":8364,"Ġkhoq":8365,"Ġkpeo":8366,"Ġ2236":8367,"Ġ2275":8368,"Ġ2279":8369,"Ġ3154":8370,"ennz":8371,"'));(":8372,"masonry":8373,"nkve":8374,"Ġqvq":8375,"Ġqgfu":8376,"Ġqqbb":8377,"Ġqorh":8378,"Ġqabk":8379,"nxum":8380,"nxgb":8381,"twks":8382,"Ġ5317":8383,"Ġ5348":8384,"Ġ5341":8385,"Ġuq":8386,"Ġuog":8387,"Ġugjn":8388,"Ġuwpo":8389,"Ġurpz":8390,"Ġuzah":8391,"Ġuoxj":8392,"nehd":8393,"djxt":8394,"civv":8395,"Ġhrp":8396,"Ġhctx":8397,"Ġhdq":8398,"Ġhrzz":8399,"Ġhlbb":8400,"Ġhbff":8401,"Ġhzqv":8402,"Ġhuxf":8403,"Ġ9090":8404,"Ġ9074":8405,"Ġ9092":8406,"Ġ9091":8407,"634008":8408,"vnjh":8409,"Ġiwt":8410,"Ġictq":8411,"Ġiyae":8412,"Ġirtd":8413,"Ġipuh":8414,"Ġ2953":8415,"Ġ2947":8416,"Ġ2930":8417,"Ġ3553":8418,"2823":8419,"Ġjfve":8420,"Ġjtuv":8421,"Ġjscq":8422,"Ġjxlq":8423,"Ġlp":8424,"Ġlz":8425,"Ġlapi":8426,"Ġlhmc":8427,"Ġljdj":8428,"Ġlitq":8429,"Ġlspk":8430,"Ġvd":8431,"Ġvphp":8432,"Ġvlp":8433,"Ġvyl":8434,"Ġvrsr":8435,"Ġvxux":8436,"Ġvfof":8437,"Ġvbod":8438,"Ġvcds":8439,"Ġvwqq":8440,"Ġcles":8441,"Ġcju":8442,"Ġcfmv":8443,"ulky":8444,"6869":8445,"pzxt":8446,"pzry":8447,"7421875":8448,"Ġ8920":8449,"Ġ8948":8450,"Ġfp":8451,"Ġfqvl":8452,"Ġfwje":8453,"Ġfroa":8454,"Ġfztn":8455,"Ġfsfg":8456,"Ġffuv":8457,"Ġflyf":8458,"bqgl":8459,"Ġ9556":8460,"yzsd":8461,"ukna":8462,"uksl":8463,"ukff":8464,"ĠĠĠĠĠĠĠĠĠĠĠĠĠĠĠĠĠĠĠĠĠĠĠĠĠĠĠĠĠĠĠĠĠĠĠĠĠĠĠĠĠĠĠĠĠĠĠĠĠĠĠĠĠĠĠĠĠĠĠĠĠĠĠĠĠĠĠĠĠĠĠĠĠĠĠĠĠĠĠĠĠĠĠĠĠĠĠĠĠĠĠĠĠĠĠĠĠĠĠĠĠĠĠĠĠĠĠĠĠĠĠĠĠĠĠĠĠĠĠĠĠĠĠĠĠĠĠ":8465,"hdji":8466,"wym":8467,"Ġ7713":8468,"Ġ7780":8469,"Ġ7729":8470,"axoh":8471,"mjha":8472,"wued":8473,"Ġ7811":8474,"Ġ7873":8475,"Ġ7868":8476,"Ġ7879":8477,"hngs":8478,"bdxt":8479,"bkma":8480,"dlon":8481,"rhz":8482,"Ġ8353":8483,"Ġ8386":8484,"giyk":8485,"Ġ3611":8486,"Ġ6836":8487,"Ġ6866":8488,"Ġ6880":8489,"Ġ6853":8490,"Ġ6875":8491,"Ġ6858":8492,"3821":8493,"nyli":8494,"nyfi":8495,"Ġ7017":8496,"Ġ7080":8497,"Ġ7037":8498,"Ġ7075":8499,"Ġ7039":8500,"hbsm":8501,"rwda":8502,"rwos":8503,"rwkz":8504,"ywvl":8505,"compile":8506,"mediaelementplayer":8507,"3433":8508,"8460":8509,"brqr":8510,"cbnv":8511,"tqml":8512,"tqul":8513,"ttnx":8514,"Ġsbgw":8515,"Ġsloc":8516,"Ġszoa":8517,"Ġ9386":8518,"Ġ9381":8519,"Ġ8799":8520,"Ġ8747":8521,"78566278":8522,"2782":8523,"2783":8524,"27842391":8525,"=ï¿½ï¿½ï¿½ï¿½/ï¿½ï¿½ï¿½ï¿½/ï¿½ï¿½ï¿½ï¿½/ï¿½ï¿½ï¿½ï¿½/{":8526,"=ï¿½ï¿½ï¿½ï¿½\\ï¿½ï¿½ï¿½ï¿½\\ï¿½ï¿½ï¿½ï¿½\\ï¿½ï¿½ï¿½ï¿½\\{":8527,"jtbl":8528,"mqou":8529,"olwu":8530,"qgqh":8531,"Ġmlo":8532,"Ġmkdc":8533,"dukq":8534,"duly":8535,"dvlv":8536,"jdvq":8537,"jxbf":8538,"jxrl":8539,"jxnu":8540,"ogfb":8541,"uwrt":8542,"uwig":8543,"yvfc":8544,"yvdd":8545,"oybo":8546,"wnhb":8547,"Ġ7230":8548,"2569":8549,"3391":8550,"8734":8551,"8738":8552,"8739":8553,"9773":8554,"9775":8555,"9779":8556,"ymzi":8557,"ymzm":8558,"yxfv":8559,"Ġ9620":8560,"Ġ9612":8561,"Ġ9632":8562,"viga":8563,"jgde":8564,"jgck":8565,"nhrw":8566,"pdjy":8567,"pdqj":8568,"qyfm":8569,"edkd":8570,"Ġ9419":8571,"Ġexnk":8572,"hhhs":8573,"ĠĠĠĠĠĠĠĠĠĠĠĠĠĠĠĠĠĠĠĠĠĠĠĠĠĠĠĠĠĠĠĠĠĠĠĠĠĠĠĠĠĠĠĠĠĠĠĠĠĠĠĠĠĠĠĠĠĠĠĠĠĠĠĠĠĠĠĠĠĠĠĠĠĠĠĠĠĠĠĠĠĠĠĠĠĠĠĠĠĠĠĠĠĠĠĠĠĠĠĠĠĠĠĠĠĠĠĠĠĠĠĠĠĠĠĠĠĠĠĠĠĠĠĠĠĠĠĠĠĠĠĠĠĠĠĠĠĠĠĠĠĠĠĠĠĠĠĠĠĠĠĠĠĠĠĠĠĠĠĠĠĠĠĠĠĠĠĠĠĠĠĠĠĠĠĠĠĠĠĠĠĠĠĠĠĠĠĠĠĠĠĠĠĠĠĠĠĠĠĠĠĠĠĠĠĠĠĠĠĠĠĠĠĠĠĠĠĠĠĠĠĠĠĠĠĠĠĠĠĠĠĠĠĠĠĠĠĠĠĠĠĠĠĠĠĠĠĠĠĠĠĠĠĠĠ":8574,"2488":8575,"4009":8576,"6490":8577,"7988":8578,"8304":8579,"8308":8580,"9476":8581,"wjxk":8582,"yrty":8583,"yrne":8584,"Ġkeio":8585,"Ġkejv":8586,"Ġ6680":8587,"Ġ6655":8588,"5164":8589,"9454":8590,"ezlc":8591,"flag":8592,"flqg":8593,"kzet":8594,"qoua":8595,"qoip":8596,"rgme":8597,"rgbc":8598,"vlvc":8599,"wrnd":8600,"Ġmoro":8601,"Ġmoyx":8602,"sshx":8603,"1534":8604,"3991":8605,"3788":8606,"4375":8607,"4376":8608,"dnsx":8609,"dnus":8610,"htae":8611,"ibts":8612,"kald":8613,"kahd":8614,"ujri":8615,"ujku":8616,"Ġldme":8617,"Ġldci":8618,"Ġooyw":8619,"Ġkxdf":8620,"1860":8621,"2554":8622,"255065726":8623,"3496":8624,"5907":8625,"5908":8626,"dkwt":8627,"gtvr":8628,"iotp":8629,"qxau":8630,"qxcd":8631,"szeg":8632,"tgxz":8633,"txht":8634,"xcic":8635,"xcxu":8636,"ximy":8637,"xisu":8638,"Ġ8304":8639,"Ġ8308":8640,"5064716":8641,"tmpuextm":8642,"grsh":8643,"grgg":8644,"jcrm":8645,"jvct":8646,"knqt":8647,"lmgs":8648,"lplg":8649,"lxlu":8650,"lxcn":8651,"lxgc":8652,"oavn":8653,"yfrp":8654,"yjdo":8655,"yqki":8656,"yqmk":8657,"Ġsowb":8658,"Ġsotf":8659,"Ġihcg":8660,"Ġihlv":8661,"Ġihdv":8662,"Ġodmj":8663,"Ġodnr":8664,"Ġodwv":8665,"Ġnpsp":8666,"Ġnphm":8667,"Ġtbdh":8668,"Ġtbhn":8669,"2169":8670,"2635":8671,"2638":8672,"2639":8673,"6501":8674,"bjdb":8675,"bnfr":8676,"eudy":8677,"gkdi":8678,"ghwt":8679,"ixhd":8680,"mbxy":8681,"nutm":8682,"nukz":8683,"ryxk":8684,"sdzk":8685,"tvxz":8686,"xjbo":8687,"yumi":8688,"zisw":8689,"Ġ&&":8690,"Ġzaoq":8691,"Ġqtfi":8692,"Ġqtil":8693,"Ġpihk":8694,"Ġqaka":8695,"Ġuxgd":8696,"Ġuxbq":8697,"Ġ8147":8698,"anik":8699,"744766":8700,"744744":8701,"building":8702,"Ġozby":8703,"Ġcjvw":8704,"2179":8705,"5208":8706,"5201314":8707,"8526":8708,"=ï¿½ï¿½ï¿½ï¿½\\ï¿½ï¿½ï¿½ï¿½\\ï¿½ï¿½ï¿½ï¿½\\{":8709,"hswa":8710,"punch":8711,"qdjo":8712,"ydun":8713,"zzym":8714,"Ġllld":8715,"Ġloiw":8716,"Ġloyd":8717,"Ġepna":8718,"Ġepea":8719,"Ġupta":8720,"Ġuphi":8721,"Ġsskg":8722,"Ġsuhy":8723,"Ġyohj":8724,"Ġzpcp":8725,"Ġzpzh":8726,"Ġqkaw":8727,"Ġizjw":8728,"Ġizea":8729,"Ġwqpa":8730,"Ġnybm":8731,"Ġnyah":8732,"Ġ8813":8733,"82763671":8734,"Ġdrlu":8735,"Ġdrue":8736,"markerclu":8737,"Ġzgmg":8738,"Ġqsju":8739,"4293":8740,"4295":8741,"5005":8742,"678674":8743,"6242":8744,"6243":8745,"7961":8746,"aipy":8747,"kbcd":8748,"ohtd":8749,"rxqd":8750,"rxqg":8751,"sortable":8752,"sorting":8753,"tfhb":8754,"ufpp":8755,"xgyj":8756,"xrlf":8757,"ykxp":8758,"zjfz":8759,"Ġedvr":8760,"Ġedbn":8761,"Ġsrnv":8762,"Ġmehd":8763,"Ġqphl":8764,"Ġqpgb":8765,"Ġfzrl":8766,"Ġucbf":8767,"Ġkuby":8768,"Ġawxu":8769,"italic":8770,"Ġ3604":8771,"Ġ5334":8772,"Ġ5335":8773,"222222":8774,"Ġbgot":8775,"Ġbgxt":8776,"Ġbhxu":8777,"Ġbqch":8778,"Ġbqml":8779,"Ġbxwq":8780,"fbnf":8781,"333333":8782,"Ġggmp":8783,"Ġxnrk":8784,"92752":8785,"alpha":8786,"Ġzwvf":8787,"Ġynxv":8788,"tmpubsha":8789,"tmpubhwi":8790,"Ġpqio":8791,"Ġksmy":8792,"Ġksda":8793,"Ġkvzq":8794,"Ġkvkl":8795,"Ġcbrl":8796,"Ġfrii":8797,"Ġfriy":8798,"ĠĠĠĠĠĠĠĠĠĠĠĠĠĠĠĠĠĠĠĠĠĠĠĠĠĠĠĠĠĠĠĠĠĠĠĠĠĠĠĠĠĠĠĠĠĠĠĠĠĠĠĠĠĠĠĠĠĠĠĠĠĠĠĠĠĠĠĠĠĠĠĠĠĠĠĠĠĠĠĠĠĠĠĠĠĠĠĠĠĠĠĠĠĠĠĠĠĠĠĠĠĠĠĠĠĠĠĠĠĠĠĠĠĠĠĠĠĠĠĠĠĠĠĠĠĠĠĠĠĠĠĠĠĠĠĠĠĠĠĠĠĠĠĠĠĠĠĠĠĠĠĠĠĠĠĠĠĠĠĠĠĠĠĠĠĠĠĠĠĠĠĠĠĠĠĠĠĠĠĠĠĠĠĠĠĠĠĠĠĠĠĠĠĠĠĠĠĠĠĠĠĠĠĠĠĠĠĠĠĠĠĠĠĠĠĠĠĠĠĠĠĠĠĠĠĠĠĠĠĠĠĠĠĠĠĠĠĠĠĠĠĠĠĠĠĠĠĠĠĠĠĠĠĠĠĠĠĠĠĠĠĠĠĠĠĠĠĠĠĠĠĠĠĠĠĠĠĠĠĠĠĠĠĠĠĠĠĠĠĠĠĠĠĠĠĠĠĠĠĠĠĠĠĠĠĠĠĠĠĠĠĠĠĠĠĠĠĠĠĠĠĠĠĠĠĠĠĠĠĠĠĠĠĠĠĠĠĠĠĠĠĠĠĠĠĠĠĠĠĠĠĠĠĠĠĠĠĠĠĠĠĠĠĠĠĠĠĠĠĠĠĠĠĠĠĠĠĠĠĠĠĠĠĠĠĠĠĠĠĠĠĠĠĠĠĠĠĠĠĠĠĠĠĠĠĠĠĠĠĠĠĠĠĠĠĠĠĠĠĠĠĠĠĠĠĠĠĠĠĠĠĠĠĠĠĠĠĠĠĠĠĠĠĠĠĠĠĠĠĠĠĠĠĠĠĠĠĠĠĠĠĠĠĠĠĠĠĠĠĠĠĠĠĠĠĠĠĠĠĠĠĠĠĠĠĠĠĠĠĠĠĠĠĠĠĠĠĠĠĠĠĠĠĠĠĠĠĠĠĠĠ":8799,"4738":8800,"67786475":8801,"6183":8802,"8335":8803,"950527":8804,"eipt":8805,"fzqi":8806,"fxmj":8807,"gtox":8808,"huqy":8809,"kppk":8810,"mzfy":8811,"qvki":8812,"uqcl":8813,"uwpd":8814,"uxdk":8815,"yhja":8816,"zzqd":8817,"zdrz":8818,"Ġndjm":8819,"Ġtand":8820,"Ġrpps":8821,"Ġermj":8822,"Ġcmep":8823,"Ġcucq":8824,"Ġyelj":8825,"Ġsmju":8826,"Ġuavi":8827,"Ġvipj":8828,"Ġlgoq":8829,"Ġimdv":8830,"Ġpkjp":8831,"Ġopgl":8832,"Ġmpyb":8833,"Ġomgy":8834,"Ġjmje":8835,"Ġvjze":8836,"Ġzyjb":8837,"Ġfygg":8838,"Ġmmwe":8839,"Ġcymb":8840,"Ġmjex":8841,"interactivity":8842,"Ġagyv":8843,"Ġwiyr":8844,"Ġnhfk":8845,"Ġ4787":8846,"Ġewrp":8847,"Ġ6243":8848,"Ġtgnx":8849,"Ġtkxq":8850,"Ġbbsu":8851,"Ġbefi":8852,"Ġbkwr":8853,"Ġdkon":8854,"Ġdwen":8855,"Ġxhvi":8856,"Ġxqeo":8857,"Ġrrcp":8858,"40625000":8859,"Ġzeum":8860,"Ġzjub":8861,"Ġzzse":8862,"Ġyjww":8863,"Ġyvfi":8864,"Ġkmdr":8865,"Ġqbre":8866,"Ġqejm":8867,"Ġugke":8868,"Ġuoon":8869,"Ġhbcg":8870,"Ġianx":8871,"Ġiytf":8872,"Ġjdps":8873,"Ġlbgb":8874,"Ġvtjz":8875,"Ġmzss":8876,"ibsj":8877,"013455":8878,"1465":8879,"151456":8880,"2492":8881,"3568":8882,"378980":8883,"596823":8884,"67574541":8885,"655153":8886,"81250":8887,"8542":8888,"846628":8889,"9161":8890,"97573023":8891,"9392":8892,"900081":8893,"9331":8894,"ajos":8895,"aqdp":8896,"aera":8897,"asmx":8898,"ajjk":8899,"akvk":8900,"bthl":8901,"blau":8902,"bmtd":8903,"bpyk":8904,"cijk":8905,"cjzc":8906,"circle":8907,"dwfj":8908,"dbak":8909,"dgex":8910,"dzyc":8911,"dghb":8912,"ekgs":8913,"ewxb":8914,"ewpr":8915,"evak":8916,"ehyu":8917,"eiqu":8918,"ealk":8919,"fhxo":8920,"fcug":8921,"fvgt":8922,"fztt":8923,"fngj":8924,"fsfy":8925,"fhgc":8926,"flwr":8927,"ghpo":8928,"gapy":8929,"gdij":8930,"grfj":8931,"gbmr":8932,"guxz":8933,"gfrx":8934,"hzcx":8935,"hueq":8936,"hfoh":8937,"hjig":8938,"hkip":8939,"hnxh":8940,"hxzv":8941,"hmqi":8942,"iuje":8943,"illt":8944,"iung":8945,"iazw":8946,"irfh":8947,"iwhq":8948,"iibw":8949,"jilh":8950,"jicq":8951,"jztd":8952,"kwys":8953,"ketb":8954,"kchy":8955,"ktmr":8956,"klfg":8957,"kvbh":8958,"kutk":8959,"kpky":8960,"khys":8961,"kxlr":8962,"lpoh":8963,"ladw":8964,"lpem":8965,"lzaf":8966,"ljog":8967,"lpzb":8968,"mfos":8969,"mvvw":8970,"mzds":8971,"mslk":8972,"mcnl":8973,"mbbx":8974,"mgdm":8975,"mblz":8976,"nayf":8977,"nveg":8978,"nlsl":8979,"nazq":8980,"nsfh":8981,"nemz":8982,"nrlm":8983,"nihn":8984,"nblx":8985,"njkb":8986,"oetv":8987,"otsy":8988,"ouig":8989,"odrk":8990,"ponp":8991,"pdoa":8992,"pfou":8993,"preferences":8994,"pqai":8995,"pxkb":8996,"qsea":8997,"qona":8998,"qiln":8999,"qlgi":9000,"qopv":9001,"qwcw":9002,"qhgf":9003,"qigx":9004,"qnjd":9005,"qbrk":9006,"qezn":9007,"rrmt":9008,"rjii":9009,"rkft":9010,"rvjt":9011,"scay":9012,"sdbx":9013,"sjqf":9014,"sbik":9015,"sjyq":9016,"tuyp":9017,"ttal":9018,"trpj":9019,"twwt":9020,"tves":9021,"tcdk":9022,"tnps":9023,"tghi":9024,"tjwr":9025,"tlwk":9026,"uimi":9027,"uvfn":9028,"uzbn":9029,"vetq":9030,"vwhr":9031,"wedb":9032,"wepd":9033,"wokl":9034,"wzxw":9035,"wukg":9036,"wkzc":9037,"xjan":9038,"xckc":9039,"xspy":9040,"xbus":9041,"xefj":9042,"xzqg":9043,"ywpm":9044,"ylgg":9045,"yihd":9046,"ydpm":9047,"yxkc":9048,"yxuz":9049,"yvnm":9050,"yxzg":9051,"ymju":9052,"zpob":9053,"zmyf":9054,"zhey":9055,"zsir":9056,"zweg":9057,"zlgq":9058,"zklh":9059,"zsgn":9060,"zgoe":9061,"znjr":9062,"zhbz":9063,"zrga":9064,"zsdw":9065,"Ġleks":9066,"Ġarfr":9067,"Ġitpn":9068,"Ġifbn":9069,"Ġurkc":9070,"Ġrais":9071,"Ġrieg":9072,"Ġdief":9073,"Ġjszx":9074,"Ġsqwr":9075,"Ġdbbj":9076,"Ġpukv":9077,"Ġlnzd":9078,"Ġxdca":9079,"Ġvvuf":9080,"Ġrzzb":9081,"Ġflok":9082,"Ġundd":9083,"Ġqndi":9084,"Ġvwsv":9085,"Ġysjg":9086,"Ġcwkm":9087,"Ġftgc":9088,"Ġjnhi":9089,"Ġupnn":9090,"Ġcsbz":9091,"Ġtpdt":9092,"Ġatex":9093,"Ġaevw":9094,"Ġapeq":9095,"Ġagzr":9096,"Ġakzr":9097,"70757064787":9098,"Ġwexu":9099,"Ġwlfl":9100,"Ġwqwo":9101,"Ġwfyl":9102,"Ġwolx":9103,"Ġwkai":9104,"12109375":9105,"Ġnasb":9106,"Ġnrhv":9107,"Ġngpq":9108,"tpxyuq":9109,"Ġ4334":9110,"Ġ9388":9111,"Ġ3730":9112,"Ġebau":9113,"Ġescs":9114,"Ġexdj":9115,"Ġesnn":9116,"Ġefyj":9117,"Ġelpc":9118,"Ġtyeo":9119,"Ġtqhu":9120,"Ġtdkm":9121,"Ġ5891":9122,"49434644":9123,"Ġ8935":9124,"Ġbvsw":9125,"Ġdqkh":9126,"Ġdskz":9127,"Ġdcpl":9128,"Ġdtrc":9129,"Ġdxkv":9130,"Ġdntc":9131,"90343624":9132,"1720534742":9133,"moxiejs":9134,"Ġgccy":9135,"Ġghnu":9136,"Ġgojf":9137,"Ġxbbq":9138,"Ġxgdk":9139,"Ġxgkp":9140,"regular":9141,"Ġrhdz":9142,"Ġrjdn":9143,"facebook":9144,"7075756971672":9145,"alphabet":9146,"Ġoeyx":9147,"Ġojkw":9148,"tmpujknj":9149,"tmpuqyyn":9150,"tmpujvph":9151,"privilege":9152,"Ġpnxi":9153,"Ġpvxa":9154,"Ġqvqv":9155,"Ġuogu":9156,"Ġhdqr":9157,"Ġiwtl":9158,"Ġvlpv":9159,"Ġvylk":9160,"Ġcjug":9161,"25506572636":9162,"82763671875":9163,"markercluster":9164}